{
  "version": "1.0",
  "truncation": null,
  "padding": null,
  "added_tokens": [
    {
      "id": 0,
      "content": "[UNK]",
      "single_word": false,
      "lstrip": false,
      "rstrip": false,
      "normalized": false,
      "special": true
    },
    {
      "id": 1,
      "content": "[PAD]",
      "single_word": false,
      "lstrip": false,
      "rstrip": false,
      "normalized": false,
      "special": true
    },
    {
      "id": 2,
      "content": "[SOS]",
      "single_word": false,
      "lstrip": false,
      "rstrip": false,
      "normalized": false,
      "special": true
    },
    {
      "id": 3,
      "content": "[EOS]",
      "single_word": false,
      "lstrip": false,
      "rstrip": false,
      "normalized": false,
      "special": true
    }
  ],
  "normalizer": null,
  "pre_tokenizer": {
    "type": "Whitespace"
  },
  "post_processor": null,
  "decoder": null,
  "model": {
    "type": "WordPiece",
    "unk_token": "[UNK]",
    "continuing_subword_prefix": "##",
    "max_input_chars_per_word": 100,
    "vocab": {
      "[UNK]": 0,
      "[PAD]": 1,
      "[SOS]": 2,
      "[EOS]": 3,
      "0": 4,
      "1": 5,
      "2": 6,
      "3": 7,
      "4": 8,
      "5": 9,
      "6": 10,
      "7": 11,
      "8": 12,
      "9": 13,
      "E": 14,
      "a": 15,
      "b": 16,
      "c": 17,
      "d": 18,
      "e": 19,
      "f": 20,
      "g": 21,
      "h": 22,
      "i": 23,
      "j": 24,
      "k": 25,
      "l": 26,
      "m": 27,
      "n": 28,
      "o": 29,
      "p": 30,
      "q": 31,
      "r": 32,
      "s": 33,
      "t": 34,
      "u": 35,
      "v": 36,
      "w": 37,
      "x": 38,
      "y": 39,
      "z": 40,
      "º": 41,
      "ß": 42,
      "à": 43,
      "á": 44,
      "ã": 45,
      "ä": 46,
      "é": 47,
      "ê": 48,
      "ï": 49,
      "ñ": 50,
      "ö": 51,
      "ú": 52,
      "ü": 53,
      "’": 54,
      "₂": 55,
      "##h": 56,
      "##i": 57,
      "##r": 58,
      "##d": 59,
      "##o": 60,
      "##l": 61,
      "##e": 62,
      "##s": 63,
      "##t": 64,
      "##p": 65,
      "##n": 66,
      "##a": 67,
      "##c": 68,
      "##v": 69,
      "##z": 70,
      "##y": 71,
      "##u": 72,
      "##k": 73,
      "##m": 74,
      "##f": 75,
      "##g": 76,
      "##w": 77,
      "##x": 78,
      "##b": 79,
      "##4": 80,
      "##j": 81,
      "##1": 82,
      "##0": 83,
      "##8": 84,
      "##2": 85,
      "##7": 86,
      "##5": 87,
      "##6": 88,
      "##3": 89,
      "##9": 90,
      "##q": 91,
      "##ö": 92,
      "##ü": 93,
      "##ä": 94,
      "##é": 95,
      "##à": 96,
      "##ï": 97,
      "##á": 98,
      "##º": 99,
      "##ß": 100,
      "##ú": 101,
      "##ã": 102,
      "##ñ": 103,
      "##ê": 104,
      "th": 105,
      "##er": 106,
      "the": 107,
      "##in": 108,
      "##on": 109,
      "##at": 110,
      "##es": 111,
      "##en": 112,
      "##or": 113,
      "##an": 114,
      "##ed": 115,
      "##al": 116,
      "in": 117,
      "to": 118,
      "##it": 119,
      "##ar": 120,
      "##ing": 121,
      "##ou": 122,
      "an": 123,
      "##is": 124,
      "##ic": 125,
      "of": 126,
      "##ion": 127,
      "and": 128,
      "##re": 129,
      "##as": 130,
      "##om": 131,
      "##ent": 132,
      "##il": 133,
      "##ec": 134,
      "##ro": 135,
      "##el": 136,
      "##st": 137,
      "is": 138,
      "##et": 139,
      "##ut": 140,
      "##ve": 141,
      "that": 142,
      "##ly": 143,
      "##le": 144,
      "##ol": 145,
      "for": 146,
      "wh": 147,
      "##ation": 148,
      "##ot": 149,
      "##ac": 150,
      "it": 151,
      "re": 152,
      "be": 153,
      "##ur": 154,
      "##id": 155,
      "##ver": 156,
      "##ow": 157,
      "##ad": 158,
      "st": 159,
      "on": 160,
      "##ld": 161,
      "##ig": 162,
      "##ment": 163,
      "##se": 164,
      "##ter": 165,
      "##im": 166,
      "as": 167,
      "##ir": 168,
      "##th": 169,
      "##ies": 170,
      "##ce": 171,
      "de": 172,
      "con": 173,
      "##ill": 174,
      "al": 175,
      "##ul": 176,
      "##uc": 177,
      "##est": 178,
      "##ess": 179,
      "##ay": 180,
      "##ith": 181,
      "pro": 182,
      "##oun": 183,
      "ch": 184,
      "un": 185,
      "##ers": 186,
      "with": 187,
      "##mp": 188,
      "##ate": 189,
      "ha": 190,
      "ne": 191,
      "##us": 192,
      "##ould": 193,
      "##ain": 194,
      "are": 195,
      "##op": 196,
      "##tr": 197,
      "you": 198,
      "##ity": 199,
      "pr": 200,
      "##ab": 201,
      "##ect": 202,
      "sh": 203,
      "ex": 204,
      "fr": 205,
      "##ere": 206,
      "com": 207,
      "not": 208,
      "tr": 209,
      "##iv": 210,
      "##ge": 211,
      "##ore": 212,
      "##am": 213,
      "have": 214,
      "##pp": 215,
      "##ial": 216,
      "##oc": 217,
      "by": 218,
      "##ak": 219,
      "but": 220,
      "go": 221,
      "en": 222,
      "wor": 223,
      "##ant": 224,
      "this": 225,
      "##ist": 226,
      "le": 227,
      "has": 228,
      "##igh": 229,
      "##ort": 230,
      "##ive": 231,
      "##un": 232,
      "##ust": 233,
      "##and": 234,
      "at": 235,
      "he": 236,
      "pol": 237,
      "will": 238,
      "##os": 239,
      "##em": 240,
      "eu": 241,
      "was": 242,
      "ac": 243,
      "##ap": 244,
      "##con": 245,
      "we": 246,
      "us": 247,
      "su": 248,
      "##ost": 249,
      "do": 250,
      "or": 251,
      "coun": 252,
      "##ff": 253,
      "more": 254,
      "its": 255,
      "##ions": 256,
      "from": 257,
      "econ": 258,
      "econom": 259,
      "##od": 260,
      "##ch": 261,
      "li": 262,
      "##ical": 263,
      "##ia": 264,
      "##ans": 265,
      "##ome": 266,
      "##iz": 267,
      "##ary": 268,
      "countr": 269,
      "##art": 270,
      "##lo": 271,
      "res": 272,
      "##ear": 273,
      "euro": 274,
      "##end": 275,
      "ab": 276,
      "their": 277,
      "##pe": 278,
      "##ong": 279,
      "can": 280,
      "they": 281,
      "##ast": 282,
      "me": 283,
      "##ight": 284,
      "##gh": 285,
      "se": 286,
      "inc": 287,
      "ag": 288,
      "all": 289,
      "would": 290,
      "##ely": 291,
      "##all": 292,
      "##ure": 293,
      "ad": 294,
      "inter": 295,
      "am": 296,
      "##um": 297,
      "##ich": 298,
      "##uch": 299,
      "imp": 300,
      "##out": 301,
      "##anc": 302,
      "cr": 303,
      "##qu": 304,
      "##der": 305,
      "##ib": 306,
      "##ous": 307,
      "so": 308,
      "##ard": 309,
      "fin": 310,
      "##ud": 311,
      "##vern": 312,
      "ar": 313,
      "rec": 314,
      "ind": 315,
      "##ke": 316,
      "man": 317,
      "##her": 318,
      "than": 319,
      "exp": 320,
      "##ell": 321,
      "##act": 322,
      "world": 323,
      "##ip": 324,
      "govern": 325,
      "ev": 326,
      "##ance": 327,
      "##ough": 328,
      "##able": 329,
      "##ag": 330,
      "##ks": 331,
      "europe": 332,
      "comp": 333,
      "20": 334,
      "##ence": 335,
      "##row": 336,
      "##if": 337,
      "new": 338,
      "##one": 339,
      "dis": 340,
      "countries": 341,
      "str": 342,
      "##ations": 343,
      "chin": 344,
      "##ther": 345,
      "part": 346,
      "##ated": 347,
      "##our": 348,
      "##ational": 349,
      "pl": 350,
      "his": 351,
      "##ates": 352,
      "##vel": 353,
      "which": 354,
      "sp": 355,
      "what": 356,
      "##ie": 357,
      "government": 358,
      "##ult": 359,
      "pe": 360,
      "##ign": 361,
      "out": 362,
      "year": 363,
      "##ian": 364,
      "no": 365,
      "##ime": 366,
      "int": 367,
      "if": 368,
      "cl": 369,
      "bec": 370,
      "there": 371,
      "one": 372,
      "mar": 373,
      "##bal": 374,
      "##lic": 375,
      "##age": 376,
      "##uct": 377,
      "been": 378,
      "polic": 379,
      "af": 380,
      "##reat": 381,
      "polit": 382,
      "dec": 383,
      "##pt": 384,
      "who": 385,
      "##ens": 386,
      "comm": 387,
      "economic": 388,
      "##orm": 389,
      "glo": 390,
      "##ack": 391,
      "##ake": 392,
      "##ally": 393,
      "##ish": 394,
      "global": 395,
      "##ub": 396,
      "##ade": 397,
      "##og": 398,
      "over": 399,
      "##ue": 400,
      "di": 401,
      "need": 402,
      "reg": 403,
      "dem": 404,
      "##ra": 405,
      "about": 406,
      "should": 407,
      "##ree": 408,
      "inv": 409,
      "el": 410,
      "when": 411,
      "cont": 412,
      "now": 413,
      "##ors": 414,
      "##erm": 415,
      "grow": 416,
      "could": 417,
      "##enc": 418,
      "other": 419,
      "##ound": 420,
      "##eric": 421,
      "##gr": 422,
      "only": 423,
      "##ile": 424,
      "were": 425,
      "##uss": 426,
      "ban": 427,
      "##ber": 428,
      "like": 429,
      "##ine": 430,
      "im": 431,
      "##ower": 432,
      "##ont": 433,
      "acc": 434,
      "some": 435,
      "pres": 436,
      "##ition": 437,
      "##ket": 438,
      "how": 439,
      "even": 440,
      "lead": 441,
      "##so": 442,
      "inf": 443,
      "americ": 444,
      "peop": 445,
      "such": 446,
      "co": 447,
      "##ach": 448,
      "app": 449,
      "##ame": 450,
      "##ose": 451,
      "##ep": 452,
      "under": 453,
      "##ace": 454,
      "##av": 455,
      "##au": 456,
      "up": 457,
      "sec": 458,
      "##oll": 459,
      "most": 460,
      "pre": 461,
      "many": 462,
      "also": 463,
      "##ase": 464,
      "cons": 465,
      "bet": 466,
      "sy": 467,
      "##velop": 468,
      "these": 469,
      "kn": 470,
      "supp": 471,
      "em": 472,
      "ref": 473,
      "##ide": 474,
      "##ice": 475,
      "develop": 476,
      "long": 477,
      "eff": 478,
      "off": 479,
      "people": 480,
      "##nt": 481,
      "any": 482,
      "##ok": 483,
      "rep": 484,
      "##ism": 485,
      "qu": 486,
      "political": 487,
      "ris": 488,
      "financ": 489,
      "##ident": 490,
      "##ond": 491,
      "##ail": 492,
      "per": 493,
      "##ys": 494,
      "##ities": 495,
      "rel": 496,
      "br": 497,
      "##ility": 498,
      "high": 499,
      "##ays": 500,
      "work": 501,
      "did": 502,
      "war": 503,
      "po": 504,
      "soc": 505,
      "act": 506,
      "##urr": 507,
      "had": 508,
      "##ited": 509,
      "fir": 510,
      "russ": 511,
      "ever": 512,
      "intern": 513,
      "19": 514,
      "##ublic": 515,
      "know": 516,
      "market": 517,
      "##ious": 518,
      "years": 519,
      "##are": 520,
      "time": 521,
      "invest": 522,
      "##00": 523,
      "##old": 524,
      "may": 525,
      "##ass": 526,
      "policy": 527,
      "must": 528,
      "rem": 529,
      "##ments": 530,
      "them": 531,
      "china": 532,
      "##ause": 533,
      "my": 534,
      "##ange": 535,
      "def": 536,
      "just": 537,
      "tw": 538,
      "growth": 539,
      "lo": 540,
      "financial": 541,
      "incre": 542,
      "european": 543,
      "want": 544,
      "inst": 545,
      "sa": 546,
      "##ang": 547,
      "##erg": 548,
      "cap": 549,
      "hel": 550,
      "cent": 551,
      "much": 552,
      "##ump": 553,
      "again": 554,
      "##ons": 555,
      "##ech": 556,
      "##ution": 557,
      "##ind": 558,
      "ass": 559,
      "##erv": 560,
      "gr": 561,
      "##und": 562,
      "##ble": 563,
      "president": 564,
      "##illion": 565,
      "##ict": 566,
      "##amp": 567,
      "power": 568,
      "##ocr": 569,
      "##ord": 570,
      "into": 571,
      "##ink": 572,
      "##ild": 573,
      "sc": 574,
      "##arly": 575,
      "##stem": 576,
      "mon": 577,
      "after": 578,
      "##bt": 579,
      "##cess": 580,
      "while": 581,
      "##alth": 582,
      "ro": 583,
      "jo": 584,
      "##we": 585,
      "fe": 586,
      "##arg": 587,
      "international": 588,
      "##ene": 589,
      "##ative": 590,
      "##ital": 591,
      "##ory": 592,
      "##ating": 593,
      "##iss": 594,
      "##int": 595,
      "dr": 596,
      "cris": 597,
      "system": 598,
      "dont": 599,
      "right": 600,
      "because": 601,
      "##ices": 602,
      "curr": 603,
      "##ied": 604,
      "ob": 605,
      "##urn": 606,
      "##ct": 607,
      "##oss": 608,
      "##ater": 609,
      "##ite": 610,
      "##oth": 611,
      "prod": 612,
      "##own": 613,
      "well": 614,
      "states": 615,
      "public": 616,
      "##ire": 617,
      "##ert": 618,
      "help": 619,
      "our": 620,
      "economy": 621,
      "bo": 622,
      "does": 623,
      "##ful": 624,
      "##pr": 625,
      "##ible": 626,
      "ma": 627,
      "##lud": 628,
      "ow": 629,
      "resp": 630,
      "conf": 631,
      "##ual": 632,
      "where": 633,
      "diff": 634,
      "trans": 635,
      "every": 636,
      "democr": 637,
      "first": 638,
      "id": 639,
      "##itt": 640,
      "mo": 641,
      "des": 642,
      "good": 643,
      "##its": 644,
      "##olog": 645,
      "prov": 646,
      "far": 647,
      "put": 648,
      "interest": 649,
      "##elf": 650,
      "ver": 651,
      "op": 652,
      "those": 653,
      "your": 654,
      "gen": 655,
      "##read": 656,
      "##iet": 657,
      "crisis": 658,
      "##ise": 659,
      "##inis": 660,
      "##sp": 661,
      "national": 662,
      "##ists": 663,
      "##tern": 664,
      "leaders": 665,
      "bus": 666,
      "united": 667,
      "real": 668,
      "red": 669,
      "import": 670,
      "##vers": 671,
      "##ives": 672,
      "##ings": 673,
      "201": 674,
      "##erman": 675,
      "##blem": 676,
      "la": 677,
      "sim": 678,
      "bank": 679,
      "two": 680,
      "recent": 681,
      "##ric": 682,
      "problem": 683,
      "mary": 684,
      "##lear": 685,
      "##hip": 686,
      "ta": 687,
      "##ral": 688,
      "##hing": 689,
      "support": 690,
      "##ency": 691,
      "##ization": 692,
      "end": 693,
      "ke": 694,
      "att": 695,
      "##ween": 696,
      "##over": 697,
      "between": 698,
      "tod": 699,
      "##ient": 700,
      "last": 701,
      "she": 702,
      "fund": 703,
      "##ific": 704,
      "##eign": 705,
      "governments": 706,
      "car": 707,
      "bel": 708,
      "par": 709,
      "##ize": 710,
      "##ics": 711,
      "pop": 712,
      "##uring": 713,
      "includ": 714,
      "great": 715,
      "##vent": 716,
      "too": 717,
      "both": 718,
      "increas": 719,
      "##imate": 720,
      "200": 721,
      "##ount": 722,
      "##ias": 723,
      "infl": 724,
      "opp": 725,
      "##ese": 726,
      "less": 727,
      "##ft": 728,
      "##emp": 729,
      "##les": 730,
      "state": 731,
      "very": 732,
      "##ward": 733,
      "country": 734,
      "##ets": 735,
      "mil": 736,
      "make": 737,
      "##ject": 738,
      "effect": 739,
      "against": 740,
      "bu": 741,
      "own": 742,
      "popul": 743,
      "##acy": 744,
      "prot": 745,
      "##ether": 746,
      "trade": 747,
      "thr": 748,
      "trump": 749,
      "back": 750,
      "way": 751,
      "##ll": 752,
      "contin": 753,
      "remain": 754,
      "##ather": 755,
      "add": 756,
      "adv": 757,
      "health": 758,
      "debt": 759,
      "form": 760,
      "cor": 761,
      "##ures": 762,
      "him": 763,
      "change": 764,
      "fact": 765,
      "social": 766,
      "german": 767,
      "sub": 768,
      "sur": 769,
      "##ues": 770,
      "tax": 771,
      "why": 772,
      "mod": 773,
      "ir": 774,
      "think": 775,
      "cost": 776,
      "##ty": 777,
      "##ince": 778,
      "##ath": 779,
      "progr": 780,
      "elect": 781,
      "##iven": 782,
      "tech": 783,
      "still": 784,
      "seem": 785,
      "see": 786,
      "##atic": 787,
      "maj": 788,
      "mem": 789,
      "##aking": 790,
      "##eng": 791,
      "bl": 792,
      "##ress": 793,
      "##ized": 794,
      "hum": 795,
      "##err": 796,
      "##ents": 797,
      "##ood": 798,
      "##loy": 799,
      "##ss": 800,
      "##fore": 801,
      "##ru": 802,
      "her": 803,
      "gener": 804,
      "sm": 805,
      "##ning": 806,
      "##led": 807,
      "contr": 808,
      "through": 809,
      "conc": 810,
      "lik": 811,
      "get": 812,
      "current": 813,
      "##ential": 814,
      "take": 815,
      "##ians": 816,
      "##ces": 817,
      "rev": 818,
      "secur": 819,
      "techn": 820,
      "dep": 821,
      "##als": 822,
      "since": 823,
      "##ural": 824,
      "##other": 825,
      "examp": 826,
      "cour": 827,
      "##ability": 828,
      "capital": 829,
      "##ry": 830,
      "##gan": 831,
      "##ting": 832,
      "aut": 833,
      "yet": 834,
      "sign": 835,
      "requ": 836,
      "##xt": 837,
      "major": 838,
      "development": 839,
      "prop": 840,
      "result": 841,
      "instit": 842,
      "rest": 843,
      "ret": 844,
      "central": 845,
      "climate": 846,
      "##utions": 847,
      "emp": 848,
      "##ern": 849,
      "commun": 850,
      "russia": 851,
      "##cal": 852,
      "##ought": 853,
      "inde": 854,
      "##ands": 855,
      "##ock": 856,
      "##ters": 857,
      "suc": 858,
      "partic": 859,
      "call": 860,
      "##ily": 861,
      "gre": 862,
      "##orts": 863,
      "prom": 864,
      "##ten": 865,
      "example": 866,
      "##ually": 867,
      "foreign": 868,
      "become": 869,
      "appro": 870,
      "product": 871,
      "##ically": 872,
      "##ved": 873,
      "med": 874,
      "markets": 875,
      "jap": 876,
      "sol": 877,
      "##ready": 878,
      "reform": 879,
      "cre": 880,
      "fl": 881,
      "already": 882,
      "afric": 883,
      "fail": 884,
      "##ense": 885,
      "##lish": 886,
      "human": 887,
      "important": 888,
      "fut": 889,
      "made": 890,
      "banks": 891,
      "##ergy": 892,
      "est": 893,
      "without": 894,
      "##ving": 895,
      "today": 896,
      "bas": 897,
      "##iness": 898,
      "same": 899,
      "##ateg": 900,
      "milit": 901,
      "##ik": 902,
      "##ug": 903,
      "three": 904,
      "ann": 905,
      "security": 906,
      "##air": 907,
      "##cept": 908,
      "nor": 909,
      "##inc": 910,
      "##rect": 911,
      "iss": 912,
      "##ending": 913,
      "pers": 914,
      "##imes": 915,
      "better": 916,
      "leg": 917,
      "##str": 918,
      "##osed": 919,
      "happ": 920,
      "differ": 921,
      "investment": 922,
      "being": 923,
      "##ouse": 924,
      "before": 925,
      "uk": 926,
      "future": 927,
      "never": 928,
      "sch": 929,
      "come": 930,
      "##ick": 931,
      "##ected": 932,
      "##oup": 933,
      "risk": 934,
      "##arge": 935,
      "use": 936,
      "mat": 937,
      "##ider": 938,
      "bene": 939,
      "energy": 940,
      "##fe": 941,
      "##ately": 942,
      "##oney": 943,
      "##ieve": 944,
      "val": 945,
      "policies": 946,
      "down": 947,
      "##duc": 948,
      "sl": 949,
      "eas": 950,
      "serv": 951,
      "strateg": 952,
      "##ench": 953,
      "##ional": 954,
      "compan": 955,
      "child": 956,
      "main": 957,
      "nat": 958,
      "disc": 959,
      "larg": 960,
      "priv": 961,
      "ext": 962,
      "might": 963,
      "dom": 964,
      "ide": 965,
      "##ision": 966,
      "benef": 967,
      "including": 968,
      "ser": 969,
      "ph": 970,
      "##ened": 971,
      "bro": 972,
      "technolog": 973,
      "money": 974,
      "law": 975,
      "ins": 976,
      "chall": 977,
      "then": 978,
      "american": 979,
      "indeed": 980,
      "here": 981,
      "arg": 982,
      "wom": 983,
      "agree": 984,
      "gu": 985,
      "##wh": 986,
      "##els": 987,
      "equ": 988,
      "##form": 989,
      "##ior": 990,
      "threat": 991,
      "chinas": 992,
      "##ov": 993,
      "rates": 994,
      "business": 995,
      "play": 996,
      "likely": 997,
      "plan": 998,
      "quest": 999,
      "often": 1000,
      "adm": 1001,
      "chinese": 1002,
      "##ying": 1003,
      "billion": 1004,
      "look": 1005,
      "##ably": 1006,
      "##bers": 1007,
      "tal": 1008,
      "military": 1009,
      "another": 1010,
      "job": 1011,
      "##ecial": 1012,
      "##ively": 1013,
      "japan": 1014,
      "economies": 1015,
      "fis": 1016,
      "ant": 1017,
      "emerg": 1018,
      "pur": 1019,
      "level": 1020,
      "hist": 1021,
      "##ced": 1022,
      "##omet": 1023,
      "set": 1024,
      "turn": 1025,
      "strong": 1026,
      "low": 1027,
      "##ave": 1028,
      "##ingly": 1029,
      "##ves": 1030,
      "cred": 1031,
      "coll": 1032,
      "##ustain": 1033,
      "##iew": 1034,
      "##ead": 1035,
      "hard": 1036,
      "##ness": 1037,
      "mid": 1038,
      "union": 1039,
      "reas": 1040,
      "vot": 1041,
      "##dp": 1042,
      "poss": 1043,
      "point": 1044,
      "start": 1045,
      "minis": 1046,
      "##ortun": 1047,
      "fed": 1048,
      "few": 1049,
      "##ollow": 1050,
      "house": 1051,
      "##rem": 1052,
      "av": 1053,
      "around": 1054,
      "bre": 1055,
      "##ality": 1056,
      "##etary": 1057,
      "del": 1058,
      "fiscal": 1059,
      "next": 1060,
      "##ts": 1061,
      "##term": 1062,
      "poor": 1063,
      "##ork": 1064,
      "say": 1065,
      "contro": 1066,
      "isra": 1067,
      "rate": 1068,
      "terr": 1069,
      "##not": 1070,
      "inflation": 1071,
      "##rain": 1072,
      "##ening": 1073,
      "follow": 1074,
      "##uce": 1075,
      "##ah": 1076,
      "eng": 1077,
      "prices": 1078,
      "##ined": 1079,
      "protect": 1080,
      "success": 1081,
      "wr": 1082,
      "rather": 1083,
      "decl": 1084,
      "aff": 1085,
      "neg": 1086,
      "##ines": 1087,
      "regul": 1088,
      "##ins": 1089,
      "home": 1090,
      "large": 1091,
      "short": 1092,
      "indust": 1093,
      "imm": 1094,
      "order": 1095,
      "somet": 1096,
      "##iving": 1097,
      "consider": 1098,
      "term": 1099,
      "demand": 1100,
      "##ever": 1101,
      "##rupt": 1102,
      "fac": 1103,
      "pay": 1104,
      "french": 1105,
      "##stand": 1106,
      "##hor": 1107,
      "cannot": 1108,
      "sect": 1109,
      "stud": 1110,
      "compet": 1111,
      "##ared": 1112,
      "monetary": 1113,
      "##0s": 1114,
      "##ittle": 1115,
      "det": 1116,
      "direct": 1117,
      "cond": 1118,
      "during": 1119,
      "big": 1120,
      "little": 1121,
      "educ": 1122,
      "stand": 1123,
      "given": 1124,
      "##ertain": 1125,
      "##ier": 1126,
      "second": 1127,
      "worlds": 1128,
      "##ience": 1129,
      "##ants": 1130,
      "spe": 1131,
      "##loyment": 1132,
      "sustain": 1133,
      "pos": 1134,
      "##ends": 1135,
      "sou": 1136,
      "##akes": 1137,
      "##ivers": 1138,
      "didnt": 1139,
      "##uclear": 1140,
      "te": 1141,
      "particul": 1142,
      "million": 1143,
      "##icial": 1144,
      "beh": 1145,
      "##mental": 1146,
      "##ury": 1147,
      "##thing": 1148,
      "##ances": 1149,
      "ill": 1150,
      "##ession": 1151,
      "##ds": 1152,
      "organ": 1153,
      "##ms": 1154,
      "bor": 1155,
      "among": 1156,
      "program": 1157,
      "gdp": 1158,
      "##way": 1159,
      "num": 1160,
      "##ross": 1161,
      "lab": 1162,
      "nuclear": 1163,
      "rul": 1164,
      "approach": 1165,
      "show": 1166,
      "past": 1167,
      "vi": 1168,
      "america": 1169,
      "env": 1170,
      "month": 1171,
      "##ix": 1172,
      "##ner": 1173,
      "##ages": 1174,
      "##ool": 1175,
      "ine": 1176,
      "least": 1177,
      "americas": 1178,
      "##ked": 1179,
      "brit": 1180,
      "party": 1181,
      "said": 1182,
      "fall": 1183,
      "ful": 1184,
      "##res": 1185,
      "##ash": 1186,
      "ent": 1187,
      "ach": 1188,
      "toward": 1189,
      "left": 1190,
      "needs": 1191,
      "course": 1192,
      "institutions": 1193,
      "hop": 1194,
      "##ences": 1195,
      "germany": 1196,
      "desp": 1197,
      "going": 1198,
      "ra": 1199,
      "whether": 1200,
      "##thers": 1201,
      "mean": 1202,
      "author": 1203,
      "##up": 1204,
      "##ided": 1205,
      "clear": 1206,
      "lim": 1207,
      "move": 1208,
      "199": 1209,
      "simp": 1210,
      "alm": 1211,
      "##itions": 1212,
      "societ": 1213,
      "allow": 1214,
      "##ret": 1215,
      "moreover": 1216,
      "israel": 1217,
      "process": 1218,
      "group": 1219,
      "##less": 1220,
      "small": 1221,
      "found": 1222,
      "pot": 1223,
      "oil": 1224,
      "##ways": 1225,
      "##ina": 1226,
      "impro": 1227,
      "cant": 1228,
      "##ren": 1229,
      "companies": 1230,
      "increase": 1231,
      "higher": 1232,
      "##gest": 1233,
      "##ades": 1234,
      "##ling": 1235,
      "##udg": 1236,
      "chang": 1237,
      "meas": 1238,
      "almost": 1239,
      "har": 1240,
      "fam": 1241,
      "##ains": 1242,
      "press": 1243,
      "##uel": 1244,
      "prof": 1245,
      "adminis": 1246,
      "bar": 1247,
      "ukrain": 1248,
      "##emic": 1249,
      "##ources": 1250,
      "women": 1251,
      "old": 1252,
      "##ued": 1253,
      "##iel": 1254,
      "ge": 1255,
      "developing": 1256,
      "account": 1257,
      "care": 1258,
      "##eration": 1259,
      "##igr": 1260,
      "##aps": 1261,
      "fre": 1262,
      "trad": 1263,
      "##ollar": 1264,
      "ens": 1265,
      "meet": 1266,
      "private": 1267,
      "tur": 1268,
      "view": 1269,
      "members": 1270,
      "weak": 1271,
      "##earch": 1272,
      "run": 1273,
      "##icult": 1274,
      "peace": 1275,
      "##used": 1276,
      "##lement": 1277,
      "##lus": 1278,
      "find": 1279,
      "##ablish": 1280,
      "sever": 1281,
      "##iron": 1282,
      "needed": 1283,
      "ca": 1284,
      "fur": 1285,
      "simil": 1286,
      "case": 1287,
      "sw": 1288,
      "environ": 1289,
      "countrys": 1290,
      "##cc": 1291,
      "key": 1292,
      "each": 1293,
      "bal": 1294,
      "administr": 1295,
      "cut": 1296,
      "esp": 1297,
      "crit": 1298,
      "official": 1299,
      "control": 1300,
      "##ibility": 1301,
      "iran": 1302,
      "role": 1303,
      "##io": 1304,
      "really": 1305,
      "##ides": 1306,
      "difficult": 1307,
      "minister": 1308,
      "min": 1309,
      "rights": 1310,
      "##ger": 1311,
      "democracy": 1312,
      "always": 1313,
      "midd": 1314,
      "used": 1315,
      "enough": 1316,
      "treat": 1317,
      "build": 1318,
      "others": 1319,
      "open": 1320,
      "cit": 1321,
      "day": 1322,
      "ear": 1323,
      "defic": 1324,
      "dollar": 1325,
      "further": 1326,
      "different": 1327,
      "though": 1328,
      "question": 1329,
      "##uge": 1330,
      "##ted": 1331,
      "deep": 1332,
      "reason": 1333,
      "ira": 1334,
      "##hold": 1335,
      "civ": 1336,
      "##ecially": 1337,
      "children": 1338,
      "mass": 1339,
      "means": 1340,
      "exper": 1341,
      "opportun": 1342,
      "##iver": 1343,
      "##aged": 1344,
      "especially": 1345,
      "understand": 1346,
      "school": 1347,
      "potential": 1348,
      "##pes": 1349,
      "address": 1350,
      "best": 1351,
      "##ases": 1352,
      "iraq": 1353,
      "##olution": 1354,
      "beg": 1355,
      "costs": 1356,
      "return": 1357,
      "viol": 1358,
      "longer": 1359,
      "##ute": 1360,
      "life": 1361,
      "tell": 1362,
      "post": 1363,
      "let": 1364,
      "const": 1365,
      "isl": 1366,
      "russian": 1367,
      "signific": 1368,
      "##ived": 1369,
      "establish": 1370,
      "##acc": 1371,
      "##ecess": 1372,
      "##ination": 1373,
      "foc": 1374,
      "respons": 1375,
      "domest": 1376,
      "problems": 1377,
      "thus": 1378,
      "mor": 1379,
      "however": 1380,
      "south": 1381,
      "keep": 1382,
      "##eral": 1383,
      "education": 1384,
      "citiz": 1385,
      "within": 1386,
      "##ogn": 1387,
      "face": 1388,
      "##ised": 1389,
      "once": 1390,
      "middle": 1391,
      "##aim": 1392,
      "democratic": 1393,
      "prevent": 1394,
      "##ators": 1395,
      "relations": 1396,
      "##ission": 1397,
      "west": 1398,
      "food": 1399,
      "seems": 1400,
      "free": 1401,
      "##br": 1402,
      "arab": 1403,
      "##idence": 1404,
      "##ned": 1405,
      "euroz": 1406,
      "hal": 1407,
      "##uction": 1408,
      "mult": 1409,
      "deal": 1410,
      "price": 1411,
      "non": 1412,
      "loc": 1413,
      "##19": 1414,
      "##estern": 1415,
      "##ember": 1416,
      "liber": 1417,
      "suff": 1418,
      "##par": 1419,
      "spending": 1420,
      "##ucture": 1421,
      "ago": 1422,
      "read": 1423,
      "east": 1424,
      "##itional": 1425,
      "accord": 1426,
      "civil": 1427,
      "domestic": 1428,
      "cle": 1429,
      "##ivid": 1430,
      "##az": 1431,
      "requir": 1432,
      "pat": 1433,
      "share": 1434,
      "##vious": 1435,
      "significant": 1436,
      "##ark": 1437,
      "inn": 1438,
      "pal": 1439,
      "##iate": 1440,
      "##anger": 1441,
      "something": 1442,
      "access": 1443,
      "africa": 1444,
      "##ush": 1445,
      "election": 1446,
      "inform": 1447,
      "targ": 1448,
      "income": 1449,
      "labor": 1450,
      "lot": 1451,
      "##izing": 1452,
      "hold": 1453,
      "conflic": 1454,
      "credit": 1455,
      "number": 1456,
      "sing": 1457,
      "recogn": 1458,
      "research": 1459,
      "workers": 1460,
      "youn": 1461,
      "##rop": 1462,
      "##anced": 1463,
      "progress": 1464,
      "expl": 1465,
      "##onal": 1466,
      "youre": 1467,
      "init": 1468,
      "unt": 1469,
      "challeng": 1470,
      "efforts": 1471,
      "western": 1472,
      "doesnt": 1473,
      "##20": 1474,
      "early": 1475,
      "##epend": 1476,
      "##ann": 1477,
      "##ivity": 1478,
      "believe": 1479,
      "ur": 1480,
      "##ither": 1481,
      "true": 1482,
      "decades": 1483,
      "citizens": 1484,
      "doing": 1485,
      "##sel": 1486,
      "prosp": 1487,
      "rich": 1488,
      "project": 1489,
      "serious": 1490,
      "sure": 1491,
      "kore": 1492,
      "sug": 1493,
      "ec": 1494,
      "##king": 1495,
      "##sequ": 1496,
      "##ention": 1497,
      "##te": 1498,
      "stop": 1499,
      "report": 1500,
      "india": 1501,
      "services": 1502,
      "reach": 1503,
      "concern": 1504,
      "occ": 1505,
      "##ats": 1506,
      "##omes": 1507,
      "place": 1508,
      "##astr": 1509,
      "##verage": 1510,
      "rise": 1511,
      "continue": 1512,
      "remains": 1513,
      "population": 1514,
      "agreement": 1515,
      "##ength": 1516,
      "common": 1517,
      "##ief": 1518,
      "cho": 1519,
      "##mm": 1520,
      "met": 1521,
      "##ale": 1522,
      "europes": 1523,
      "arr": 1524,
      "certain": 1525,
      "lat": 1526,
      "fear": 1527,
      "##istan": 1528,
      "despite": 1529,
      "##egr": 1530,
      "former": 1531,
      "##lex": 1532,
      "tog": 1533,
      "##por": 1534,
      "##by": 1535,
      "industr": 1536,
      "recently": 1537,
      "obam": 1538,
      "hand": 1539,
      "together": 1540,
      "lower": 1541,
      "camp": 1542,
      "##tion": 1543,
      "##bon": 1544,
      "##selves": 1545,
      "itself": 1546,
      "##ody": 1547,
      "##ateral": 1548,
      "##for": 1549,
      "##aly": 1550,
      "give": 1551,
      "ple": 1552,
      "##itive": 1553,
      "possible": 1554,
      "republic": 1555,
      "resources": 1556,
      "repres": 1557,
      "##ained": 1558,
      "emerging": 1559,
      "##ban": 1560,
      "north": 1561,
      "##ects": 1562,
      "claim": 1563,
      "##ered": 1564,
      "france": 1565,
      "net": 1566,
      "pand": 1567,
      "##ird": 1568,
      "provide": 1569,
      "##ently": 1570,
      "##issions": 1571,
      "times": 1572,
      "benefits": 1573,
      "terror": 1574,
      "history": 1575,
      "greater": 1576,
      "eurozone": 1577,
      "negot": 1578,
      "##ensive": 1579,
      "##iting": 1580,
      "increasingly": 1581,
      "univers": 1582,
      "##ising": 1583,
      "coop": 1584,
      "##ased": 1585,
      "##ering": 1586,
      "##ew": 1587,
      "until": 1588,
      "soon": 1589,
      "growing": 1590,
      "##atch": 1591,
      "require": 1592,
      "constit": 1593,
      "##imin": 1594,
      "compl": 1595,
      "suggest": 1596,
      "innov": 1597,
      "budg": 1598,
      "action": 1599,
      "systems": 1600,
      "sector": 1601,
      "four": 1602,
      "recover": 1603,
      "cov": 1604,
      "able": 1605,
      "individ": 1606,
      "risks": 1607,
      "dat": 1608,
      "head": 1609,
      "ru": 1610,
      "done": 1611,
      "strength": 1612,
      "##aining": 1613,
      "broad": 1614,
      "sav": 1615,
      "wee": 1616,
      "longterm": 1617,
      "##ri": 1618,
      "##ners": 1619,
      "dest": 1620,
      "##atives": 1621,
      "putin": 1622,
      "politics": 1623,
      "rap": 1624,
      "##ev": 1625,
      "disp": 1626,
      "particularly": 1627,
      "prime": 1628,
      "islam": 1629,
      "dou": 1630,
      "hope": 1631,
      "necess": 1632,
      "##ee": 1633,
      "##oph": 1634,
      "bad": 1635,
      "char": 1636,
      "instead": 1637,
      "reduce": 1638,
      "##icient": 1639,
      "exch": 1640,
      "extrem": 1641,
      "rules": 1642,
      "across": 1643,
      "individual": 1644,
      "aust": 1645,
      "effective": 1646,
      "vict": 1647,
      "pred": 1648,
      "refl": 1649,
      "administration": 1650,
      "making": 1651,
      "##akers": 1652,
      "reduc": 1653,
      "##ming": 1654,
      "cult": 1655,
      "##where": 1656,
      "col": 1657,
      "force": 1658,
      "lear": 1659,
      "shar": 1660,
      "half": 1661,
      "deb": 1662,
      "slow": 1663,
      "opt": 1664,
      "##ilateral": 1665,
      "palest": 1666,
      "##ike": 1667,
      "water": 1668,
      "member": 1669,
      "got": 1670,
      "lack": 1671,
      "##iod": 1672,
      "interests": 1673,
      "##cr": 1674,
      "##ards": 1675,
      "independ": 1676,
      "##ipl": 1677,
      "finance": 1678,
      "accept": 1679,
      "young": 1680,
      "mus": 1681,
      "fri": 1682,
      "reforms": 1683,
      "consum": 1684,
      "spec": 1685,
      "away": 1686,
      "society": 1687,
      "strategy": 1688,
      "step": 1689,
      "pa": 1690,
      "mer": 1691,
      "else": 1692,
      "nations": 1693,
      "local": 1694,
      "region": 1695,
      "unl": 1696,
      "policym": 1697,
      "nothing": 1698,
      "russias": 1699,
      "shif": 1700,
      "expect": 1701,
      "##come": 1702,
      "summ": 1703,
      "ukraine": 1704,
      "##ified": 1705,
      "integr": 1706,
      "alone": 1707,
      "appear": 1708,
      "covid": 1709,
      "corpor": 1710,
      "##haps": 1711,
      "contrib": 1712,
      "##gress": 1713,
      "influ": 1714,
      "##erate": 1715,
      "enc": 1716,
      "sit": 1717,
      "thought": 1718,
      "perhaps": 1719,
      "stability": 1720,
      "syr": 1721,
      "value": 1722,
      "exist": 1723,
      "infr": 1724,
      "terms": 1725,
      "according": 1726,
      "data": 1727,
      "fight": 1728,
      "bring": 1729,
      "lost": 1730,
      "##oid": 1731,
      "oppos": 1732,
      "issues": 1733,
      "impact": 1734,
      "joh": 1735,
      "currency": 1736,
      "technology": 1737,
      "isnt": 1738,
      "##den": 1739,
      "##work": 1740,
      "comb": 1741,
      "##ceed": 1742,
      "##aken": 1743,
      "unemp": 1744,
      "themselves": 1745,
      "ten": 1746,
      "covid19": 1747,
      "sup": 1748,
      "sense": 1749,
      "##ena": 1750,
      "princ": 1751,
      "##gn": 1752,
      "danger": 1753,
      "commit": 1754,
      "anything": 1755,
      "jobs": 1756,
      "focus": 1757,
      "##man": 1758,
      "firms": 1759,
      "vis": 1760,
      "politic": 1761,
      "community": 1762,
      "measures": 1763,
      "##arian": 1764,
      "infrastr": 1765,
      "##acks": 1766,
      "negoti": 1767,
      "pandemic": 1768,
      "##aging": 1769,
      "rapid": 1770,
      "pover": 1771,
      "create": 1772,
      "similar": 1773,
      "simply": 1774,
      "##oming": 1775,
      "infrastructure": 1776,
      "poverty": 1777,
      "consequ": 1778,
      "##istic": 1779,
      "##enge": 1780,
      "told": 1781,
      "leadership": 1782,
      "investors": 1783,
      "er": 1784,
      "##red": 1785,
      "##onse": 1786,
      "challenges": 1787,
      "five": 1788,
      "decision": 1789,
      "produc": 1790,
      "wealth": 1791,
      "working": 1792,
      "##cil": 1793,
      "##ining": 1794,
      "kind": 1795,
      "##encies": 1796,
      "forces": 1797,
      "cy": 1798,
      "ty": 1799,
      "green": 1800,
      "subs": 1801,
      "dist": 1802,
      "todays": 1803,
      "begin": 1804,
      "dev": 1805,
      "called": 1806,
      "response": 1807,
      "##sw": 1808,
      "win": 1809,
      "trumps": 1810,
      "##tract": 1811,
      "pract": 1812,
      "tra": 1813,
      "ensure": 1814,
      "please": 1815,
      "abs": 1816,
      "bond": 1817,
      "##ged": 1818,
      "emissions": 1819,
      "feel": 1820,
      "death": 1821,
      "##ective": 1822,
      "##ises": 1823,
      "idea": 1824,
      "turke": 1825,
      "##aw": 1826,
      "##abil": 1827,
      "198": 1828,
      "##ended": 1829,
      "rising": 1830,
      "unf": 1831,
      "federal": 1832,
      "div": 1833,
      "sk": 1834,
      "seen": 1835,
      "rece": 1836,
      "##oks": 1837,
      "regime": 1838,
      "achieve": 1839,
      "vacc": 1840,
      "temp": 1841,
      "stat": 1842,
      "live": 1843,
      "implement": 1844,
      "full": 1845,
      "##dom": 1846,
      "##ari": 1847,
      "funda": 1848,
      "constr": 1849,
      "conflict": 1850,
      "modern": 1851,
      "##land": 1852,
      "months": 1853,
      "##side": 1854,
      "fav": 1855,
      "led": 1856,
      "kill": 1857,
      "rule": 1858,
      "took": 1859,
      "information": 1860,
      "increased": 1861,
      "norm": 1862,
      "##uation": 1863,
      "bey": 1864,
      "self": 1865,
      "leave": 1866,
      "beyond": 1867,
      "asia": 1868,
      "wa": 1869,
      "supply": 1870,
      "##aign": 1871,
      "unc": 1872,
      "##raw": 1873,
      "book": 1874,
      "##ones": 1875,
      "imf": 1876,
      "campaign": 1877,
      "eg": 1878,
      "pass": 1879,
      "issue": 1880,
      "speak": 1881,
      "regional": 1882,
      "##onstr": 1883,
      "dise": 1884,
      "bur": 1885,
      "palestin": 1886,
      "##ured": 1887,
      "mac": 1888,
      "parties": 1889,
      "decade": 1890,
      "air": 1891,
      "alth": 1892,
      "##med": 1893,
      "top": 1894,
      "although": 1895,
      "challenge": 1896,
      "late": 1897,
      "adop": 1898,
      "came": 1899,
      "century": 1900,
      "levels": 1901,
      "represent": 1902,
      "##unch": 1903,
      "sustainable": 1904,
      "purs": 1905,
      "class": 1906,
      "bush": 1907,
      "intell": 1908,
      "wrong": 1909,
      "revolution": 1910,
      "princip": 1911,
      "##cent": 1912,
      "things": 1913,
      "##illions": 1914,
      "ess": 1915,
      "ident": 1916,
      "having": 1917,
      "improve": 1918,
      "maint": 1919,
      "lives": 1920,
      "several": 1921,
      "manage": 1922,
      "prob": 1923,
      "budget": 1924,
      "dam": 1925,
      "histor": 1926,
      "loss": 1927,
      "unemployment": 1928,
      "tot": 1929,
      "15": 1930,
      "##isions": 1931,
      "parl": 1932,
      "##erve": 1933,
      "##augh": 1934,
      "partners": 1935,
      "##utional": 1936,
      "break": 1937,
      "policymakers": 1938,
      "answ": 1939,
      "exc": 1940,
      "mis": 1941,
      "##viet": 1942,
      "americans": 1943,
      "##tions": 1944,
      "##be": 1945,
      "##fer": 1946,
      "vir": 1947,
      "third": 1948,
      "avoid": 1949,
      "miss": 1950,
      "##aster": 1951,
      "based": 1952,
      "##erc": 1953,
      "coal": 1954,
      "liberal": 1955,
      "british": 1956,
      "parlia": 1957,
      "##ival": 1958,
      "favor": 1959,
      "production": 1960,
      "##eth": 1961,
      "regard": 1962,
      "mal": 1963,
      "##iation": 1964,
      "##ton": 1965,
      "##erity": 1966,
      "doc": 1967,
      "##self": 1968,
      "event": 1969,
      "struct": 1970,
      "period": 1971,
      "conv": 1972,
      "test": 1973,
      "target": 1974,
      "media": 1975,
      "##umption": 1976,
      "advanced": 1977,
      "funds": 1978,
      "makes": 1979,
      "##bor": 1980,
      "conditions": 1981,
      "news": 1982,
      "buy": 1983,
      "cooperation": 1984,
      "##omp": 1985,
      "general": 1986,
      "promot": 1987,
      "model": 1988,
      "areas": 1989,
      "##vereign": 1990,
      "2008": 1991,
      "##app": 1992,
      "hun": 1993,
      "developed": 1994,
      "weap": 1995,
      "sovereign": 1996,
      "whose": 1997,
      "thats": 1998,
      "entire": 1999,
      "ive": 2000,
      "quick": 2001,
      "surpr": 2002,
      "went": 2003,
      "##000": 2004,
      "gas": 2005,
      "leading": 2006,
      "obama": 2007,
      "##lose": 2008,
      "committ": 2009,
      "king": 2010,
      "deliver": 2011,
      "finally": 2012,
      "initi": 2013,
      "land": 2014,
      "enter": 2015,
      "##lim": 2016,
      "aid": 2017,
      "aim": 2018,
      "mom": 2019,
      "##ium": 2020,
      "greec": 2021,
      "won": 2022,
      "creat": 2023,
      "council": 2024,
      "later": 2025,
      "politicians": 2026,
      "##trib": 2027,
      "##ypt": 2028,
      "coming": 2029,
      "secret": 2030,
      "recovery": 2031,
      "position": 2032,
      "york": 2033,
      "groups": 2034,
      "soviet": 2035,
      "refuge": 2036,
      "inequ": 2037,
      "##ream": 2038,
      "encour": 2039,
      "##wise": 2040,
      "exchange": 2041,
      "worse": 2042,
      "restr": 2043,
      "ways": 2044,
      "mind": 2045,
      "sanc": 2046,
      "opportunity": 2047,
      "##down": 2048,
      "##ara": 2049,
      "clos": 2050,
      "freed": 2051,
      "living": 2052,
      "everyone": 2053,
      "behind": 2054,
      "close": 2055,
      "necessary": 2056,
      "invol": 2057,
      "effects": 2058,
      "##acity": 2059,
      "taken": 2060,
      "household": 2061,
      "##go": 2062,
      "##ove": 2063,
      "geor": 2064,
      "average": 2065,
      "den": 2066,
      "amount": 2067,
      "##ify": 2068,
      "matter": 2069,
      "##ried": 2070,
      "cal": 2071,
      "##uing": 2072,
      "stay": 2073,
      "wants": 2074,
      "bra": 2075,
      "carbon": 2076,
      "commission": 2077,
      "failed": 2078,
      "essential": 2079,
      "##iding": 2080,
      "programs": 2081,
      "deficit": 2082,
      "##ows": 2083,
      "boost": 2084,
      "asked": 2085,
      "total": 2086,
      "became": 2087,
      "parliament": 2088,
      "employment": 2089,
      "room": 2090,
      "##irc": 2091,
      "ul": 2092,
      "##onom": 2093,
      "oper": 2094,
      "##ipp": 2095,
      "##ls": 2096,
      "bost": 2097,
      "##ished": 2098,
      "pressure": 2099,
      "balance": 2100,
      "consequences": 2101,
      "##ugg": 2102,
      "defense": 2103,
      "##lation": 2104,
      "natural": 2105,
      "changes": 2106,
      "boston": 2107,
      "single": 2108,
      "##just": 2109,
      "art": 2110,
      "fun": 2111,
      "freedom": 2112,
      "vol": 2113,
      "##ired": 2114,
      "migr": 2115,
      "violence": 2116,
      "dig": 2117,
      "massive": 2118,
      "taking": 2119,
      "10": 2120,
      "recession": 2121,
      "scient": 2122,
      "corrupt": 2123,
      "demonstr": 2124,
      "##lin": 2125,
      "##ma": 2126,
      "##iplom": 2127,
      "prec": 2128,
      "amb": 2129,
      "relig": 2130,
      "korea": 2131,
      "popular": 2132,
      "officials": 2133,
      "subst": 2134,
      "diplom": 2135,
      "counter": 2136,
      "agend": 2137,
      "talk": 2138,
      "protection": 2139,
      "##nam": 2140,
      "powerful": 2141,
      "##ories": 2142,
      "##imul": 2143,
      "experi": 2144,
      "altern": 2145,
      "nearly": 2146,
      "created": 2147,
      "prior": 2148,
      "rad": 2149,
      "##sc": 2150,
      "##ison": 2151,
      "along": 2152,
      "particip": 2153,
      "leader": 2154,
      "began": 2155,
      "##atory": 2156,
      "goods": 2157,
      "afgh": 2158,
      "industrial": 2159,
      "probably": 2160,
      "strategic": 2161,
      "##mar": 2162,
      "mist": 2163,
      "days": 2164,
      "assets": 2165,
      "ecb": 2166,
      "following": 2167,
      "tre": 2168,
      "depend": 2169,
      "neigh": 2170,
      "requires": 2171,
      "##body": 2172,
      "soph": 2173,
      "either": 2174,
      "cause": 2175,
      "##owers": 2176,
      "trust": 2177,
      "annual": 2178,
      "gl": 2179,
      "stimul": 2180,
      "attemp": 2181,
      "immed": 2182,
      "cold": 2183,
      "behav": 2184,
      "african": 2185,
      "environmental": 2186,
      "muslim": 2187,
      "##fact": 2188,
      "##xic": 2189,
      "comes": 2190,
      "##omm": 2191,
      "elections": 2192,
      "##aced": 2193,
      "sus": 2194,
      "##ob": 2195,
      "##izations": 2196,
      "everything": 2197,
      "yes": 2198,
      "congress": 2199,
      "discuss": 2200,
      "capacity": 2201,
      "environment": 2202,
      "legal": 2203,
      "##ield": 2204,
      "determ": 2205,
      "##istance": 2206,
      "##day": 2207,
      "##ource": 2208,
      "object": 2209,
      "borrow": 2210,
      "week": 2211,
      "cand": 2212,
      "##ront": 2213,
      "gir": 2214,
      "afghan": 2215,
      "##itarian": 2216,
      "##aring": 2217,
      "##oint": 2218,
      "mob": 2219,
      "##sh": 2220,
      "influence": 2221,
      "activ": 2222,
      "vul": 2223,
      "##eless": 2224,
      "##ne": 2225,
      "thing": 2226,
      "effort": 2227,
      "moment": 2228,
      "largest": 2229,
      "##ectr": 2230,
      "##iance": 2231,
      "increasing": 2232,
      "failure": 2233,
      "majority": 2234,
      "voters": 2235,
      "john": 2236,
      "transform": 2237,
      "##lies": 2238,
      "##ection": 2239,
      "eth": 2240,
      "list": 2241,
      "meeting": 2242,
      "sanctions": 2243,
      "##rist": 2244,
      "ste": 2245,
      "expected": 2246,
      "design": 2247,
      "##mb": 2248,
      "bid": 2249,
      "pak": 2250,
      "circ": 2251,
      "197": 2252,
      "##ented": 2253,
      "expand": 2254,
      "##ane": 2255,
      "vulner": 2256,
      "##rod": 2257,
      "largely": 2258,
      "rene": 2259,
      "forg": 2260,
      "##use": 2261,
      "family": 2262,
      "respond": 2263,
      "person": 2264,
      "path": 2265,
      "##ously": 2266,
      "watch": 2267,
      "##inated": 2268,
      "achie": 2269,
      "##uted": 2270,
      "using": 2271,
      "perform": 2272,
      "agenda": 2273,
      "egypt": 2274,
      "propos": 2275,
      "##ph": 2276,
      "office": 2277,
      "turkey": 2278,
      "successful": 2279,
      "predict": 2280,
      "stock": 2281,
      "investments": 2282,
      "regions": 2283,
      "electr": 2284,
      "underm": 2285,
      "##iveness": 2286,
      "sal": 2287,
      "decline": 2288,
      "experience": 2289,
      "debate": 2290,
      "fundamental": 2291,
      "weapons": 2292,
      "men": 2293,
      "##uth": 2294,
      "prim": 2295,
      "##uses": 2296,
      "lond": 2297,
      "answer": 2298,
      "drug": 2299,
      "attention": 2300,
      "subsid": 2301,
      "##based": 2302,
      "##ored": 2303,
      "near": 2304,
      "front": 2305,
      "##arily": 2306,
      "values": 2307,
      "##ault": 2308,
      "evidence": 2309,
      "wanted": 2310,
      "##ests": 2311,
      "relationship": 2312,
      "opposition": 2313,
      "obvious": 2314,
      "##atively": 2315,
      "attack": 2316,
      "industry": 2317,
      "##wide": 2318,
      "technologies": 2319,
      "easy": 2320,
      "city": 2321,
      "##tle": 2322,
      "candid": 2323,
      "ign": 2324,
      "excess": 2325,
      "taxes": 2326,
      "cases": 2327,
      "inequality": 2328,
      "push": 2329,
      "consumption": 2330,
      "cat": 2331,
      "cam": 2332,
      "##hood": 2333,
      "##rec": 2334,
      "ah": 2335,
      "fuel": 2336,
      "situation": 2337,
      "shift": 2338,
      "ability": 2339,
      "quickly": 2340,
      "highly": 2341,
      "braz": 2342,
      "sen": 2343,
      "##port": 2344,
      "##onald": 2345,
      "globalization": 2346,
      "innovation": 2347,
      "kingdom": 2348,
      "30": 2349,
      "##uck": 2350,
      "sent": 2351,
      "wont": 2352,
      "age": 2353,
      "presidential": 2354,
      "estim": 2355,
      "safe": 2356,
      "##vention": 2357,
      "complet": 2358,
      "productivity": 2359,
      "greece": 2360,
      "digital": 2361,
      "##ator": 2362,
      "record": 2363,
      "owing": 2364,
      "willing": 2365,
      "##ape": 2366,
      "london": 2367,
      "particular": 2368,
      "try": 2369,
      "che": 2370,
      "italy": 2371,
      "##nal": 2372,
      "trillion": 2373,
      "##action": 2374,
      "ult": 2375,
      "frame": 2376,
      "banking": 2377,
      "exports": 2378,
      "governance": 2379,
      "benefit": 2380,
      "previous": 2381,
      "hes": 2382,
      "goal": 2383,
      "ground": 2384,
      "conserv": 2385,
      "fair": 2386,
      "depr": 2387,
      "ask": 2388,
      "spread": 2389,
      "actually": 2390,
      "##bo": 2391,
      "25": 2392,
      "paris": 2393,
      "clearly": 2394,
      "arm": 2395,
      "brazil": 2396,
      "##ron": 2397,
      "friends": 2398,
      "happened": 2399,
      "above": 2400,
      "##inal": 2401,
      "himself": 2402,
      "saud": 2403,
      "confront": 2404,
      "special": 2405,
      "##ricult": 2406,
      "##he": 2407,
      "jour": 2408,
      "repl": 2409,
      "uns": 2410,
      "name": 2411,
      "dollars": 2412,
      "##iqu": 2413,
      "sharp": 2414,
      "eat": 2415,
      "##arant": 2416,
      "critical": 2417,
      "vote": 2418,
      "##line": 2419,
      "behavior": 2420,
      "agricult": 2421,
      "huge": 2422,
      "strugg": 2423,
      "organization": 2424,
      "wind": 2425,
      "economists": 2426,
      "obs": 2427,
      "currently": 2428,
      "building": 2429,
      "solution": 2430,
      "##ta": 2431,
      "avail": 2432,
      "##erves": 2433,
      "nato": 2434,
      "unp": 2435,
      "attract": 2436,
      "side": 2437,
      "limited": 2438,
      "outside": 2439,
      "##ular": 2440,
      "traditional": 2441,
      "immigr": 2442,
      "##ological": 2443,
      "reven": 2444,
      "##alled": 2445,
      "argu": 2446,
      "pain": 2447,
      "competition": 2448,
      "##ufact": 2449,
      "50": 2450,
      "incent": 2451,
      "mess": 2452,
      "japanese": 2453,
      "certainly": 2454,
      "nar": 2455,
      "six": 2456,
      "known": 2457,
      "var": 2458,
      "rein": 2459,
      "##aph": 2460,
      "knows": 2461,
      "love": 2462,
      "eus": 2463,
      "##thern": 2464,
      "##aper": 2465,
      "insur": 2466,
      "hy": 2467,
      "##cl": 2468,
      "##utes": 2469,
      "##ici": 2470,
      "manufact": 2471,
      "##omb": 2472,
      "##ven": 2473,
      "organizations": 2474,
      "renew": 2475,
      "und": 2476,
      "##ledge": 2477,
      "dangerous": 2478,
      "millions": 2479,
      "##opol": 2480,
      "##ony": 2481,
      "##alys": 2482,
      "##ills": 2483,
      "study": 2484,
      "stre": 2485,
      "employ": 2486,
      "wid": 2487,
      "standards": 2488,
      "authorities": 2489,
      "##30": 2490,
      "respect": 2491,
      "leav": 2492,
      "goals": 2493,
      "deficits": 2494,
      "offer": 2495,
      "saw": 2496,
      "syria": 2497,
      "surv": 2498,
      "mech": 2499,
      "##jo": 2500,
      "##force": 2501,
      "structural": 2502,
      "12": 2503,
      "cities": 2504,
      "host": 2505,
      "powers": 2506,
      "mechan": 2507,
      "18": 2508,
      "doubt": 2509,
      "europeans": 2510,
      "##imately": 2511,
      "##put": 2512,
      "rob": 2513,
      "100": 2514,
      "fell": 2515,
      "held": 2516,
      "assoc": 2517,
      "opportunities": 2518,
      "cop": 2519,
      "launch": 2520,
      "putins": 2521,
      "##year": 2522,
      "decisions": 2523,
      "heav": 2524,
      "##apse": 2525,
      "indic": 2526,
      "legit": 2527,
      "words": 2528,
      "corporate": 2529,
      "wal": 2530,
      "##ars": 2531,
      "##ank": 2532,
      "emb": 2533,
      "guarant": 2534,
      "##ex": 2535,
      "dav": 2536,
      "advant": 2537,
      "helped": 2538,
      "##urt": 2539,
      "worth": 2540,
      "contrast": 2541,
      "financing": 2542,
      "include": 2543,
      "assum": 2544,
      "bonds": 2545,
      "##verse": 2546,
      "washing": 2547,
      "mexic": 2548,
      "belie": 2549,
      "##olic": 2550,
      "##lig": 2551,
      "##wor": 2552,
      "line": 2553,
      "truth": 2554,
      "reality": 2555,
      "##uly": 2556,
      "questions": 2557,
      "businesses": 2558,
      "announ": 2559,
      "aw": 2560,
      "bat": 2561,
      "sat": 2562,
      "surp": 2563,
      "##itable": 2564,
      "export": 2565,
      "expert": 2566,
      "britain": 2567,
      "road": 2568,
      "pakistan": 2569,
      "##ogr": 2570,
      "basic": 2571,
      "uncertain": 2572,
      "##part": 2573,
      "urg": 2574,
      "negotiations": 2575,
      "fast": 2576,
      "##eres": 2577,
      "except": 2578,
      "##ites": 2579,
      "peoples": 2580,
      "larger": 2581,
      "##ender": 2582,
      "hour": 2583,
      "trying": 2584,
      "happen": 2585,
      "donald": 2586,
      "sectors": 2587,
      "transition": 2588,
      "concerns": 2589,
      "looking": 2590,
      "hit": 2591,
      "##ulation": 2592,
      "whats": 2593,
      "court": 2594,
      "anyone": 2595,
      "##ternal": 2596,
      "treaty": 2597,
      "brought": 2598,
      "sud": 2599,
      "dog": 2600,
      "##iated": 2601,
      "reducing": 2602,
      "integration": 2603,
      "personal": 2604,
      "collapse": 2605,
      "disease": 2606,
      "science": 2607,
      "twent": 2608,
      "##ction": 2609,
      "##ames": 2610,
      "corruption": 2611,
      "##xit": 2612,
      "latin": 2613,
      "##ension": 2614,
      "##erence": 2615,
      "afford": 2616,
      "forced": 2617,
      "creating": 2618,
      "##lying": 2619,
      "lu": 2620,
      "palestinian": 2621,
      "relatively": 2622,
      "##ification": 2623,
      "##ots": 2624,
      "##osing": 2625,
      "produce": 2626,
      "legis": 2627,
      "dy": 2628,
      "police": 2629,
      "multilateral": 2630,
      "clean": 2631,
      "independent": 2632,
      "complex": 2633,
      "prep": 2634,
      "purch": 2635,
      "wars": 2636,
      "##ology": 2637,
      "farm": 2638,
      "turned": 2639,
      "##oring": 2640,
      "responsibility": 2641,
      "tel": 2642,
      "gave": 2643,
      "##ortion": 2644,
      "confidence": 2645,
      "saudi": 2646,
      "##orrow": 2647,
      "reb": 2648,
      "commitment": 2649,
      "alternative": 2650,
      "##ees": 2651,
      "chance": 2652,
      "additional": 2653,
      "tried": 2654,
      "hous": 2655,
      "succeed": 2656,
      "##while": 2657,
      "started": 2658,
      "fig": 2659,
      "asset": 2660,
      "movement": 2661,
      "recognize": 2662,
      "choice": 2663,
      "##crib": 2664,
      "##reg": 2665,
      "center": 2666,
      "##eal": 2667,
      "projects": 2668,
      "afghanistan": 2669,
      "##agn": 2670,
      "journal": 2671,
      "dict": 2672,
      "soft": 2673,
      "substant": 2674,
      "father": 2675,
      "mechanism": 2676,
      "night": 2677,
      "crises": 2678,
      "external": 2679,
      "compr": 2680,
      "##inary": 2681,
      "caused": 2682,
      "beginning": 2683,
      "##ols": 2684,
      "company": 2685,
      "##lier": 2686,
      "supposed": 2687,
      "reasons": 2688,
      "susp": 2689,
      "ep": 2690,
      "attacks": 2691,
      "jan": 2692,
      "##urs": 2693,
      "rat": 2694,
      "results": 2695,
      "austral": 2696,
      "status": 2697,
      "available": 2698,
      "happy": 2699,
      "##ox": 2700,
      "##lood": 2701,
      "summit": 2702,
      "becoming": 2703,
      "##reed": 2704,
      "##income": 2705,
      "unlik": 2706,
      "unlikely": 2707,
      "asian": 2708,
      "university": 2709,
      "##now": 2710,
      "##econom": 2711,
      "##angu": 2712,
      "established": 2713,
      "##ecut": 2714,
      "products": 2715,
      "tend": 2716,
      "moral": 2717,
      "##oot": 2718,
      "elsewhere": 2719,
      "islamic": 2720,
      "refugees": 2721,
      "##ero": 2722,
      "trou": 2723,
      "internet": 2724,
      "washington": 2725,
      "mir": 2726,
      "##of": 2727,
      "thinking": 2728,
      "communities": 2729,
      "domin": 2730,
      "##ocks": 2731,
      "outcome": 2732,
      "sil": 2733,
      "##ially": 2734,
      "##aries": 2735,
      "reserve": 2736,
      "##ilt": 2737,
      "intellig": 2738,
      "territ": 2739,
      "11": 2740,
      "similarly": 2741,
      "unfortun": 2742,
      "eastern": 2743,
      "students": 2744,
      "##tra": 2745,
      "adjust": 2746,
      "##enn": 2747,
      "repe": 2748,
      "framework": 2749,
      "stimulus": 2750,
      "ones": 2751,
      "2015": 2752,
      "restrict": 2753,
      "##ilities": 2754,
      "mot": 2755,
      "resol": 2756,
      "allies": 2757,
      "funding": 2758,
      "getting": 2759,
      "wish": 2760,
      "scale": 2761,
      "##ika": 2762,
      "##ograph": 2763,
      "wall": 2764,
      "##une": 2765,
      "continued": 2766,
      "##rel": 2767,
      "sound": 2768,
      "plans": 2769,
      "##airs": 2770,
      "nature": 2771,
      "religious": 2772,
      "existing": 2773,
      "electric": 2774,
      "vulnerable": 2775,
      "sometimes": 2776,
      "raise": 2777,
      "allowed": 2778,
      "##fet": 2779,
      "reserves": 2780,
      "relative": 2781,
      "mater": 2782,
      "forward": 2783,
      "##ancing": 2784,
      "paul": 2785,
      "normal": 2786,
      "damage": 2787,
      "white": 2788,
      "famil": 2789,
      "meanwhile": 2790,
      "authority": 2791,
      "ahead": 2792,
      "secretary": 2793,
      "expans": 2794,
      "solutions": 2795,
      "dram": 2796,
      "##try": 2797,
      "imposs": 2798,
      "2020": 2799,
      "eventually": 2800,
      "below": 2801,
      "ey": 2802,
      "ben": 2803,
      "worldwide": 2804,
      "cruc": 2805,
      "##undred": 2806,
      "express": 2807,
      "pub": 2808,
      "##ights": 2809,
      "hundred": 2810,
      "story": 2811,
      "looks": 2812,
      "households": 2813,
      "thous": 2814,
      "##ature": 2815,
      "enjo": 2816,
      "remember": 2817,
      "brexit": 2818,
      "40": 2819,
      "fully": 2820,
      "surplus": 2821,
      "negative": 2822,
      "neither": 2823,
      "##ibly": 2824,
      "march": 2825,
      "##ude": 2826,
      "ce": 2827,
      "economics": 2828,
      "202": 2829,
      "##la": 2830,
      "##mas": 2831,
      "drive": 2832,
      "cross": 2833,
      "distrib": 2834,
      "george": 2835,
      "sell": 2836,
      "grad": 2837,
      "followed": 2838,
      "ultimately": 2839,
      "##opolit": 2840,
      "tas": 2841,
      "worry": 2842,
      "sun": 2843,
      "disrupt": 2844,
      "2010": 2845,
      "extreme": 2846,
      "usually": 2847,
      "justice": 2848,
      "independence": 2849,
      "engage": 2850,
      "draw": 2851,
      "matters": 2852,
      "pan": 2853,
      "##to": 2854,
      "##aces": 2855,
      "imper": 2856,
      "##ensus": 2857,
      "dead": 2858,
      "changed": 2859,
      "cuts": 2860,
      "##af": 2861,
      "virt": 2862,
      "fix": 2863,
      "langu": 2864,
      "coord": 2865,
      "##orters": 2866,
      "impossible": 2867,
      "rough": 2868,
      "##fully": 2869,
      "proposed": 2870,
      "individuals": 2871,
      "conn": 2872,
      "disapp": 2873,
      "##orders": 2874,
      "christ": 2875,
      "source": 2876,
      "##road": 2877,
      "learn": 2878,
      "agreed": 2879,
      "imag": 2880,
      "laws": 2881,
      "2000": 2882,
      "therefore": 2883,
      "##ossil": 2884,
      "maintain": 2885,
      "service": 2886,
      "poll": 2887,
      "simple": 2888,
      "##tom": 2889,
      "societies": 2890,
      "##oking": 2891,
      "management": 2892,
      "##idge": 2893,
      "subject": 2894,
      "don": 2895,
      "facing": 2896,
      "fossil": 2897,
      "inev": 2898,
      "##ensions": 2899,
      "socalled": 2900,
      "unfortunately": 2901,
      "reject": 2902,
      "expansion": 2903,
      "opin": 2904,
      "whole": 2905,
      "fel": 2906,
      "wasnt": 2907,
      "institutional": 2908,
      "##cer": 2909,
      "appar": 2910,
      "liqu": 2911,
      "seemed": 2912,
      "partnership": 2913,
      "ii": 2914,
      "elector": 2915,
      "implic": 2916,
      "knowledge": 2917,
      "##ients": 2918,
      "hands": 2919,
      "##asion": 2920,
      "provided": 2921,
      "shared": 2922,
      "196": 2923,
      "prosperity": 2924,
      "victory": 2925,
      "dynam": 2926,
      "spent": 2927,
      "ord": 2928,
      "##atically": 2929,
      "save": 2930,
      "phys": 2931,
      "earlier": 2932,
      "##set": 2933,
      "fort": 2934,
      "sept": 2935,
      "era": 2936,
      "david": 2937,
      "minor": 2938,
      "paid": 2939,
      "##leg": 2940,
      "##oses": 2941,
      "wonder": 2942,
      "##leep": 2943,
      "providing": 2944,
      "##has": 2945,
      "sad": 2946,
      "leon": 2947,
      "lets": 2948,
      "star": 2949,
      "easily": 2950,
      "##more": 2951,
      "argue": 2952,
      "required": 2953,
      "none": 2954,
      "enab": 2955,
      "consensus": 2956,
      "increases": 2957,
      "basis": 2958,
      "speech": 2959,
      "##acies": 2960,
      "ber": 2961,
      "##iers": 2962,
      "##essed": 2963,
      "minim": 2964,
      "consumers": 2965,
      "pen": 2966,
      "technological": 2967,
      "wait": 2968,
      "##iam": 2969,
      "positive": 2970,
      "accel": 2971,
      "gold": 2972,
      "performance": 2973,
      "accomp": 2974,
      "intervention": 2975,
      "effectively": 2976,
      "1990s": 2977,
      "scen": 2978,
      "vision": 2979,
      "orig": 2980,
      "##ife": 2981,
      "game": 2982,
      "overall": 2983,
      "door": 2984,
      "internal": 2985,
      "germanys": 2986,
      "wel": 2987,
      "##oud": 2988,
      "##ffs": 2989,
      "parts": 2990,
      "output": 2991,
      "surve": 2992,
      "spend": 2993,
      "ideas": 2994,
      "phil": 2995,
      "##osp": 2996,
      "warming": 2997,
      "mort": 2998,
      "##cle": 2999,
      "september": 3000,
      "coup": 3001,
      "##acter": 3002,
      "advoc": 3003,
      "contract": 3004,
      "republican": 3005,
      "hor": 3006,
      "##arter": 3007,
      "seek": 3008,
      "##oke": 3009,
      "shows": 3010,
      "crucial": 3011,
      "lose": 3012,
      "embr": 3013,
      "present": 3014,
      "##ugh": 3015,
      "reflect": 3016,
      "fu": 3017,
      "##sy": 3018,
      "##pl": 3019,
      "urban": 3020,
      "promise": 3021,
      "targets": 3022,
      "withd": 3023,
      "plat": 3024,
      "limit": 3025,
      "argent": 3026,
      "mand": 3027,
      "whate": 3028,
      "critic": 3029,
      "advantage": 3030,
      "takes": 3031,
      "##gen": 3032,
      "##uctive": 3033,
      "decided": 3034,
      "knew": 3035,
      "whatever": 3036,
      "refer": 3037,
      "creation": 3038,
      "responsible": 3039,
      "link": 3040,
      "stronger": 3041,
      "committed": 3042,
      "solid": 3043,
      "port": 3044,
      "events": 3045,
      "factors": 3046,
      "##arity": 3047,
      "heart": 3048,
      "terrorism": 3049,
      "liquid": 3050,
      "##ested": 3051,
      "marg": 3052,
      "appears": 3053,
      "vast": 3054,
      "heard": 3055,
      "australia": 3056,
      "says": 3057,
      "generation": 3058,
      "cover": 3059,
      "actions": 3060,
      "krem": 3061,
      "##antic": 3062,
      "friend": 3063,
      "##reh": 3064,
      "##enced": 3065,
      "saving": 3066,
      "borders": 3067,
      "quality": 3068,
      "ve": 3069,
      "purp": 3070,
      "border": 3071,
      "harm": 3072,
      "describ": 3073,
      "##ler": 3074,
      "reduced": 3075,
      "##val": 3076,
      "cultural": 3077,
      "radical": 3078,
      "mia": 3079,
      "##aff": 3080,
      "quite": 3081,
      "compared": 3082,
      "culture": 3083,
      "rapidly": 3084,
      "regulation": 3085,
      "competit": 3086,
      "hot": 3087,
      "##equ": 3088,
      "squ": 3089,
      "intelligence": 3090,
      "##care": 3091,
      "##50": 3092,
      "difference": 3093,
      "##co": 3094,
      "occup": 3095,
      "macro": 3096,
      "ran": 3097,
      "roughly": 3098,
      "area": 3099,
      "##gs": 3100,
      "##using": 3101,
      "threats": 3102,
      "reached": 3103,
      "lena": 3104,
      "theres": 3105,
      "throughout": 3106,
      "##ai": 3107,
      "chair": 3108,
      "frag": 3109,
      "consumer": 3110,
      "goes": 3111,
      "black": 3112,
      "meaning": 3113,
      "constitution": 3114,
      "doct": 3115,
      "asp": 3116,
      "emphas": 3117,
      "spain": 3118,
      "gap": 3119,
      "mother": 3120,
      "continues": 3121,
      "japans": 3122,
      "tari": 3123,
      "##ull": 3124,
      "points": 3125,
      "##aught": 3126,
      "gree": 3127,
      "##cing": 3128,
      "##ustr": 3129,
      "wages": 3130,
      "##ging": 3131,
      "unions": 3132,
      "bi": 3133,
      "assistance": 3134,
      "tro": 3135,
      "bot": 3136,
      "light": 3137,
      "shortterm": 3138,
      "insurance": 3139,
      "engine": 3140,
      "size": 3141,
      "bit": 3142,
      "gains": 3143,
      "##umb": 3144,
      "widely": 3145,
      "presid": 3146,
      "imports": 3147,
      "gone": 3148,
      "##ector": 3149,
      "democrats": 3150,
      "treas": 3151,
      "##economic": 3152,
      "coalition": 3153,
      "initiative": 3154,
      "housing": 3155,
      "2009": 3156,
      "##iger": 3157,
      "prefer": 3158,
      "immediate": 3159,
      "nation": 3160,
      "son": 3161,
      "suggests": 3162,
      "transpar": 3163,
      "biden": 3164,
      "savings": 3165,
      "incentives": 3166,
      "alliance": 3167,
      "comput": 3168,
      "industries": 3169,
      "material": 3170,
      "##pped": 3171,
      "regulatory": 3172,
      "team": 3173,
      "yester": 3174,
      "core": 3175,
      "##arch": 3176,
      "built": 3177,
      "shock": 3178,
      "medic": 3179,
      "destro": 3180,
      "geopolit": 3181,
      "##market": 3182,
      "jew": 3183,
      "thereby": 3184,
      "elimin": 3185,
      "crime": 3186,
      "conference": 3187,
      "dan": 3188,
      "##gry": 3189,
      "politically": 3190,
      "assess": 3191,
      "reduction": 3192,
      "directly": 3193,
      "severe": 3194,
      "unless": 3195,
      "likewise": 3196,
      "opinion": 3197,
      "##de": 3198,
      "##light": 3199,
      "##nic": 3200,
      "gain": 3201,
      "##xim": 3202,
      "inclus": 3203,
      "parents": 3204,
      "strengthen": 3205,
      "sold": 3206,
      "##onents": 3207,
      "significantly": 3208,
      "weeks": 3209,
      "withdraw": 3210,
      "correct": 3211,
      "vaccine": 3212,
      "platform": 3213,
      "regimes": 3214,
      "separ": 3215,
      "loans": 3216,
      "israeli": 3217,
      "treatment": 3218,
      "##illed": 3219,
      "calls": 3220,
      "##abilities": 3221,
      "vital": 3222,
      "medical": 3223,
      "presidency": 3224,
      "log": 3225,
      "trig": 3226,
      "demands": 3227,
      "someone": 3228,
      "prem": 3229,
      "teach": 3230,
      "bir": 3231,
      "travel": 3232,
      "hardly": 3233,
      "fire": 3234,
      "steps": 3235,
      "##roduc": 3236,
      "abroad": 3237,
      "block": 3238,
      "elected": 3239,
      "g20": 3240,
      "pret": 3241,
      "rely": 3242,
      "sources": 3243,
      "##ilit": 3244,
      "##etic": 3245,
      "activities": 3246,
      "mit": 3247,
      "rom": 3248,
      "collective": 3249,
      "adopted": 3250,
      "subsidies": 3251,
      "deg": 3252,
      "intellect": 3253,
      "killed": 3254,
      "##fety": 3255,
      "##inks": 3256,
      "depart": 3257,
      "promote": 3258,
      "street": 3259,
      "16": 3260,
      "adap": 3261,
      "secure": 3262,
      "capitalism": 3263,
      "understanding": 3264,
      "vo": 3265,
      "standard": 3266,
      "claims": 3267,
      "mut": 3268,
      "sens": 3269,
      "##itz": 3270,
      "super": 3271,
      "girls": 3272,
      "judg": 3273,
      "agreements": 3274,
      "english": 3275,
      "dism": 3276,
      "sudden": 3277,
      "base": 3278,
      "mos": 3279,
      "##gu": 3280,
      "biggest": 3281,
      "barack": 3282,
      "leaving": 3283,
      "sufficient": 3284,
      "merely": 3285,
      "yesterday": 3286,
      "##ext": 3287,
      "anim": 3288,
      "capt": 3289,
      "whereas": 3290,
      "populist": 3291,
      "il": 3292,
      "propert": 3293,
      "serve": 3294,
      "manufacturing": 3295,
      "bill": 3296,
      "primary": 3297,
      "##istent": 3298,
      "earth": 3299,
      "losses": 3300,
      "sides": 3301,
      "extra": 3302,
      "irans": 3303,
      "##aut": 3304,
      "compreh": 3305,
      "ready": 3306,
      "sel": 3307,
      "circum": 3308,
      "##het": 3309,
      "14": 3310,
      "##ishing": 3311,
      "playing": 3312,
      "meant": 3313,
      "##ventional": 3314,
      "unlike": 3315,
      "##amed": 3316,
      "safety": 3317,
      "round": 3318,
      "addition": 3319,
      "es": 3320,
      "##ops": 3321,
      "dream": 3322,
      "##yed": 3323,
      "aband": 3324,
      "faster": 3325,
      "##elfare": 3326,
      "leban": 3327,
      "bub": 3328,
      "cash": 3329,
      "talks": 3330,
      "colle": 3331,
      "mexico": 3332,
      "thousands": 3333,
      "##amin": 3334,
      "2016": 3335,
      "works": 3336,
      "otherwise": 3337,
      "shown": 3338,
      "typ": 3339,
      "helping": 3340,
      "principle": 3341,
      "trigger": 3342,
      "hear": 3343,
      "efficient": 3344,
      "default": 3345,
      "farmers": 3346,
      "60": 3347,
      "##vert": 3348,
      "enorm": 3349,
      "insp": 3350,
      "stable": 3351,
      "##tered": 3352,
      "exact": 3353,
      "mistake": 3354,
      "##iciency": 3355,
      "17": 3356,
      "pack": 3357,
      "canad": 3358,
      "visit": 3359,
      "##going": 3360,
      "##war": 3361,
      "neighbor": 3362,
      "##lad": 3363,
      "##orn": 3364,
      "##ulated": 3365,
      "##itting": 3366,
      "conduct": 3367,
      "character": 3368,
      "worst": 3369,
      "austerity": 3370,
      "##orary": 3371,
      "produced": 3372,
      "2014": 3373,
      "flor": 3374,
      "flows": 3375,
      "bed": 3376,
      "commod": 3377,
      "worked": 3378,
      "##dr": 3379,
      "contrary": 3380,
      "##ring": 3381,
      "drink": 3382,
      "pursue": 3383,
      "principles": 3384,
      "abandon": 3385,
      "rele": 3386,
      "hours": 3387,
      "13": 3388,
      "jud": 3389,
      "palestinians": 3390,
      "aimed": 3391,
      "hosp": 3392,
      "partly": 3393,
      "clint": 3394,
      "quant": 3395,
      "communist": 3396,
      "victim": 3397,
      "theory": 3398,
      "##olid": 3399,
      "died": 3400,
      "couldnt": 3401,
      "message": 3402,
      "##bors": 3403,
      "argued": 3404,
      "received": 3405,
      "dut": 3406,
      "importance": 3407,
      "encourage": 3408,
      "enem": 3409,
      "sea": 3410,
      "193": 3411,
      "##works": 3412,
      "gaz": 3413,
      "intellectual": 3414,
      "pun": 3415,
      "##fect": 3416,
      "defe": 3417,
      "grand": 3418,
      "looked": 3419,
      "##bre": 3420,
      "lock": 3421,
      "competitive": 3422,
      "running": 3423,
      "scientific": 3424,
      "compar": 3425,
      "focused": 3426,
      "profess": 3427,
      "broader": 3428,
      "ed": 3429,
      "fa": 3430,
      "prison": 3431,
      "poland": 3432,
      "continent": 3433,
      "direction": 3434,
      "falling": 3435,
      "membership": 3436,
      "jac": 3437,
      "greek": 3438,
      "##per": 3439,
      "healthcare": 3440,
      "eight": 3441,
      "hung": 3442,
      "referend": 3443,
      "models": 3444,
      "resil": 3445,
      "announced": 3446,
      "kh": 3447,
      "sett": 3448,
      "legitim": 3449,
      "##vem": 3450,
      "enh": 3451,
      "cur": 3452,
      "##oes": 3453,
      "##isely": 3454,
      "limits": 3455,
      "latest": 3456,
      "novem": 3457,
      "context": 3458,
      "##iter": 3459,
      "task": 3460,
      "nom": 3461,
      "##repr": 3462,
      "skills": 3463,
      "##ique": 3464,
      "bought": 3465,
      "hon": 3466,
      "pict": 3467,
      "carry": 3468,
      "##izes": 3469,
      "destr": 3470,
      "neighbors": 3471,
      "bilateral": 3472,
      "due": 3473,
      "indias": 3474,
      "belief": 3475,
      "conclud": 3476,
      "reflects": 3477,
      "boom": 3478,
      "##iety": 3479,
      "affect": 3480,
      "crimin": 3481,
      "autom": 3482,
      "hospital": 3483,
      "##iately": 3484,
      "whom": 3485,
      "burden": 3486,
      "migration": 3487,
      "achieved": 3488,
      "perman": 3489,
      "##ustom": 3490,
      "constitutional": 3491,
      "optim": 3492,
      "mount": 3493,
      "sex": 3494,
      "zero": 3495,
      "##uary": 3496,
      "mur": 3497,
      "ol": 3498,
      "commerc": 3499,
      "bomb": 3500,
      "##uff": 3501,
      "depression": 3502,
      "maxim": 3503,
      "communic": 3504,
      "equity": 3505,
      "expectations": 3506,
      "unpre": 3507,
      "language": 3508,
      "##entr": 3509,
      "democracies": 3510,
      "provides": 3511,
      "planning": 3512,
      "historical": 3513,
      "wage": 3514,
      "##iable": 3515,
      "seeking": 3516,
      "fighting": 3517,
      "bol": 3518,
      "wides": 3519,
      "##hic": 3520,
      "##iw": 3521,
      "execut": 3522,
      "expensive": 3523,
      "ren": 3524,
      "##pread": 3525,
      "##ete": 3526,
      "reve": 3527,
      "played": 3528,
      "##ij": 3529,
      "managed": 3530,
      "spir": 3531,
      "bail": 3532,
      "ele": 3533,
      "##min": 3534,
      "transport": 3535,
      "diplomatic": 3536,
      "apprec": 3537,
      "protests": 3538,
      "authoritarian": 3539,
      "##ele": 3540,
      "generally": 3541,
      "displ": 3542,
      "widespread": 3543,
      "2007": 3544,
      "likes": 3545,
      "argument": 3546,
      "##alysis": 3547,
      "electricity": 3548,
      "liv": 3549,
      "profits": 3550,
      "vlad": 3551,
      "2013": 3552,
      "diseases": 3553,
      "1980s": 3554,
      "army": 3555,
      "december": 3556,
      "activity": 3557,
      "property": 3558,
      "perm": 3559,
      "underst": 3560,
      "trend": 3561,
      "##ifying": 3562,
      "universal": 3563,
      "republicans": 3564,
      "mach": 3565,
      "##aled": 3566,
      "tow": 3567,
      "##enth": 3568,
      "concentr": 3569,
      "##ky": 3570,
      "geopolitical": 3571,
      "lending": 3572,
      "arent": 3573,
      "deaths": 3574,
      "conservative": 3575,
      "uncertainty": 3576,
      "foot": 3577,
      "##ha": 3578,
      "rural": 3579,
      "tools": 3580,
      "diss": 3581,
      "becomes": 3582,
      "divers": 3583,
      "##century": 3584,
      "designed": 3585,
      "##urred": 3586,
      "##lantic": 3587,
      "ang": 3588,
      "deeply": 3589,
      "meth": 3590,
      "##ns": 3591,
      "brother": 3592,
      "##itted": 3593,
      "vers": 3594,
      "2011": 3595,
      "extent": 3596,
      "trading": 3597,
      "various": 3598,
      "##sych": 3599,
      "families": 3600,
      "##ails": 3601,
      "194": 3602,
      "##ping": 3603,
      "comprom": 3604,
      "vladim": 3605,
      "flex": 3606,
      "final": 3607,
      "accident": 3608,
      "range": 3609,
      "isol": 3610,
      "agencies": 3611,
      "sleep": 3612,
      "welfare": 3613,
      "##polic": 3614,
      "books": 3615,
      "vladimir": 3616,
      "ensuring": 3617,
      "pattern": 3618,
      "liquidity": 3619,
      "commercial": 3620,
      "board": 3621,
      "percent": 3622,
      "capit": 3623,
      "arrange": 3624,
      "promised": 3625,
      "explain": 3626,
      "sovereignty": 3627,
      "publish": 3628,
      "giving": 3629,
      "forec": 3630,
      "option": 3631,
      "merk": 3632,
      "fuels": 3633,
      "psych": 3634,
      "trip": 3635,
      "##cont": 3636,
      "##pro": 3637,
      "##ela": 3638,
      "measure": 3639,
      "##holders": 3640,
      "##policy": 3641,
      "stabil": 3642,
      "incomes": 3643,
      "accounts": 3644,
      "substantial": 3645,
      "november": 3646,
      "sar": 3647,
      "##ulate": 3648,
      "chec": 3649,
      "improved": 3650,
      "hundreds": 3651,
      "referendum": 3652,
      "der": 3653,
      "tight": 3654,
      "##ids": 3655,
      "2012": 3656,
      "excessive": 3657,
      "terrorist": 3658,
      "charl": 3659,
      "obamas": 3660,
      "fat": 3661,
      "bound": 3662,
      "faces": 3663,
      "initiatives": 3664,
      "fortun": 3665,
      "kremlin": 3666,
      "comprehensive": 3667,
      "russians": 3668,
      "possibility": 3669,
      "northern": 3670,
      "january": 3671,
      "remained": 3672,
      "##ression": 3673,
      "estimated": 3674,
      "struggle": 3675,
      "oct": 3676,
      "##acher": 3677,
      "arabia": 3678,
      "prove": 3679,
      "mostly": 3680,
      "##yle": 3681,
      "prol": 3682,
      "kept": 3683,
      "learned": 3684,
      "agricultural": 3685,
      "experts": 3686,
      "enormous": 3687,
      "##urch": 3688,
      "##illing": 3689,
      "introduc": 3690,
      "##cedented": 3691,
      "revenues": 3692,
      "lies": 3693,
      "indian": 3694,
      "outc": 3695,
      "clim": 3696,
      "appropr": 3697,
      "operations": 3698,
      "attempt": 3699,
      "distr": 3700,
      "populations": 3701,
      "firm": 3702,
      "depends": 3703,
      "payments": 3704,
      "prospects": 3705,
      "girl": 3706,
      "unprecedented": 3707,
      "advance": 3708,
      "##ields": 3709,
      "specific": 3710,
      "receive": 3711,
      "word": 3712,
      "##bast": 3713,
      "acqu": 3714,
      "space": 3715,
      "instru": 3716,
      "driving": 3717,
      "insist": 3718,
      "octo": 3719,
      "liby": 3720,
      "agg": 3721,
      "immediately": 3722,
      "##bit": 3723,
      "upon": 3724,
      "emil": 3725,
      "priority": 3726,
      "pet": 3727,
      "unable": 3728,
      "oblig": 3729,
      "differences": 3730,
      "2001": 3731,
      "function": 3732,
      "quarter": 3733,
      "bure": 3734,
      "tim": 3735,
      "##ario": 3736,
      "blame": 3737,
      "vaccines": 3738,
      "##ucr": 3739,
      "investig": 3740,
      "boy": 3741,
      "changing": 3742,
      "electoral": 3743,
      "##abor": 3744,
      "niger": 3745,
      "pick": 3746,
      "birth": 3747,
      "supported": 3748,
      "je": 3749,
      "busy": 3750,
      "prepared": 3751,
      "##ped": 3752,
      "##aria": 3753,
      "mobil": 3754,
      "strategies": 3755,
      "trouble": 3756,
      "october": 3757,
      "resulting": 3758,
      "promises": 3759,
      "equal": 3760,
      "commitments": 3761,
      "rhet": 3762,
      "##ax": 3763,
      "##arm": 3764,
      "analy": 3765,
      "##standing": 3766,
      "rhetor": 3767,
      "associated": 3768,
      "sebast": 3769,
      "imbal": 3770,
      "raised": 3771,
      "schools": 3772,
      "##arbon": 3773,
      "ital": 3774,
      "enable": 3775,
      "scientists": 3776,
      "launched": 3777,
      "battle": 3778,
      "chief": 3779,
      "##ius": 3780,
      "##ague": 3781,
      "joint": 3782,
      "mic": 3783,
      "os": 3784,
      "##cale": 3785,
      "exactly": 3786,
      "##etr": 3787,
      "join": 3788,
      "everywhere": 3789,
      "considered": 3790,
      "artic": 3791,
      "precisely": 3792,
      "train": 3793,
      "faced": 3794,
      "convinc": 3795,
      "immigration": 3796,
      "custom": 3797,
      "##iful": 3798,
      "circumst": 3799,
      "stake": 3800,
      "##uro": 3801,
      "beaut": 3802,
      "xi": 3803,
      "antic": 3804,
      "affairs": 3805,
      "legitimacy": 3806,
      "body": 3807,
      "##iles": 3808,
      "bear": 3809,
      "taiw": 3810,
      "involved": 3811,
      "daniel": 3812,
      "mad": 3813,
      "##wing": 3814,
      "pled": 3815,
      "nobody": 3816,
      "defend": 3817,
      "candidates": 3818,
      "debts": 3819,
      "proper": 3820,
      "absence": 3821,
      "alloc": 3822,
      "africas": 3823,
      "gender": 3824,
      "appoint": 3825,
      "emergency": 3826,
      "multip": 3827,
      "johann": 3828,
      "##acing": 3829,
      "##urity": 3830,
      "##unt": 3831,
      "table": 3832,
      "complic": 3833,
      "hong": 3834,
      "##off": 3835,
      "smaller": 3836,
      "frequ": 3837,
      "journalists": 3838,
      "repeated": 3839,
      "treasury": 3840,
      "acad": 3841,
      "seven": 3842,
      "views": 3843,
      "reported": 3844,
      "prev": 3845,
      "waiting": 3846,
      "georg": 3847,
      "eyes": 3848,
      "scenario": 3849,
      "##abr": 3850,
      "drugs": 3851,
      "june": 3852,
      "disaster": 3853,
      "##cy": 3854,
      "morning": 3855,
      "jul": 3856,
      "tack": 3857,
      "##bles": 3858,
      "##ores": 3859,
      "dro": 3860,
      "stagn": 3861,
      "practices": 3862,
      "identity": 3863,
      "legislation": 3864,
      "##itious": 3865,
      "raising": 3866,
      "macroeconomic": 3867,
      "##lied": 3868,
      "summer": 3869,
      "kong": 3870,
      "wouldnt": 3871,
      "arms": 3872,
      "talking": 3873,
      "estimates": 3874,
      "adapt": 3875,
      "stem": 3876,
      "economist": 3877,
      "crow": 3878,
      "paper": 3879,
      "woman": 3880,
      "ethnic": 3881,
      "##power": 3882,
      "##utr": 3883,
      "##right": 3884,
      "highest": 3885,
      "causes": 3886,
      "choose": 3887,
      "enterpr": 3888,
      "ordinary": 3889,
      "##iders": 3890,
      "concept": 3891,
      "currencies": 3892,
      "##reprene": 3893,
      "sebastian": 3894,
      "##bs": 3895,
      "##uit": 3896,
      "noneth": 3897,
      "hann": 3898,
      "##rote": 3899,
      "potentially": 3900,
      "closer": 3901,
      "sarah": 3902,
      "nonetheless": 3903,
      "married": 3904,
      "charlot": 3905,
      "##bi": 3906,
      "solidarity": 3907,
      "2030": 3908,
      "recognized": 3909,
      "proposal": 3910,
      "narrow": 3911,
      "aggress": 3912,
      "interv": 3913,
      "entreprene": 3914,
      "improving": 3915,
      "##asing": 3916,
      "israels": 3917,
      "##account": 3918,
      "corporations": 3919,
      "write": 3920,
      "facilit": 3921,
      "combined": 3922,
      "revers": 3923,
      "chann": 3924,
      "practice": 3925,
      "circumstances": 3926,
      "structure": 3927,
      "##bridge": 3928,
      "twenty": 3929,
      "competitiveness": 3930,
      "stage": 3931,
      "##actions": 3932,
      "coff": 3933,
      "efficiency": 3934,
      "candidate": 3935,
      "hannah": 3936,
      "tensions": 3937,
      "clinton": 3938,
      "ap": 3939,
      "remark": 3940,
      "anton": 3941,
      "##hib": 3942,
      "driven": 3943,
      "regulations": 3944,
      "benj": 3945,
      "online": 3946,
      "bankers": 3947,
      "gra": 3948,
      "##do": 3949,
      "places": 3950,
      "lessons": 3951,
      "mention": 3952,
      "moving": 3953,
      "wrote": 3954,
      "##pay": 3955,
      "##ery": 3956,
      "exceed": 3957,
      "greatest": 3958,
      "esc": 3959,
      "##know": 3960,
      "##eli": 3961,
      "unw": 3962,
      "amel": 3963,
      "equally": 3964,
      "mitig": 3965,
      "##illy": 3966,
      "##ailed": 3967,
      "forget": 3968,
      "agriculture": 3969,
      "##na": 3970,
      "##ges": 3971,
      "##raid": 3972,
      "teacher": 3973,
      "kl": 3974,
      "##lands": 3975,
      "##ria": 3976,
      "##atures": 3977,
      "##itation": 3978,
      "##asc": 3979,
      "offered": 3980,
      "earn": 3981,
      "purpose": 3982,
      "jacob": 3983,
      "charg": 3984,
      "instability": 3985,
      "##whel": 3986,
      "aug": 3987,
      "sustained": 3988,
      "suffering": 3989,
      "creditors": 3990,
      "sophia": 3991,
      "mortg": 3992,
      "nina": 3993,
      "closed": 3994,
      "##iction": 3995,
      "swed": 3996,
      "suffer": 3997,
      "##anted": 3998,
      "##ogue": 3999,
      "outcomes": 4000,
      "training": 4001,
      "##ella": 4002,
      "credibility": 4003,
      "conflicts": 4004,
      "committee": 4005,
      "##anda": 4006,
      "starting": 4007,
      "##riers": 4008,
      "type": 4009,
      "tariffs": 4010,
      "ken": 4011,
      "##ift": 4012,
      "monit": 4013,
      "die": 4014,
      "ut": 4015,
      "thanks": 4016,
      "ended": 4017,
      "##iled": 4018,
      "contain": 4019,
      "guarantee": 4020,
      "asse": 4021,
      "construction": 4022,
      "##antly": 4023,
      "declared": 4024,
      "illeg": 4025,
      "expend": 4026,
      "overwhel": 4027,
      "persp": 4028,
      "cambridge": 4029,
      "burea": 4030,
      "##zy": 4031,
      "##ading": 4032,
      "afraid": 4033,
      "presidents": 4034,
      "fallen": 4035,
      "permanent": 4036,
      "2017": 4037,
      "felt": 4038,
      "##aks": 4039,
      "acknow": 4040,
      "forms": 4041,
      "entirely": 4042,
      "##bled": 4043,
      "##itude": 4044,
      "weather": 4045,
      "imposed": 4046,
      "includes": 4047,
      "##house": 4048,
      "##usion": 4049,
      "##aints": 4050,
      "trial": 4051,
      "agency": 4052,
      "regulators": 4053,
      "perfect": 4054,
      "matth": 4055,
      "kim": 4056,
      "thir": 4057,
      "protest": 4058,
      "emma": 4059,
      "nationalism": 4060,
      "poorest": 4061,
      "administrations": 4062,
      "analysis": 4063,
      "youve": 4064,
      "resistance": 4065,
      "achieving": 4066,
      "sor": 4067,
      "ongoing": 4068,
      "##lled": 4069,
      "suprem": 4070,
      "troops": 4071,
      "##back": 4072,
      "##erous": 4073,
      "feed": 4074,
      "undermine": 4075,
      "relief": 4076,
      "##here": 4077,
      "##ze": 4078,
      "decide": 4079,
      "sought": 4080,
      "transf": 4081,
      "marys": 4082,
      "lesson": 4083,
      "ministers": 4084,
      "##ipped": 4085,
      "revenue": 4086,
      "resist": 4087,
      "southern": 4088,
      "ineff": 4089,
      "bureaucr": 4090,
      "dark": 4091,
      "##ken": 4092,
      "benjamin": 4093,
      "rout": 4094,
      "seriously": 4095,
      "factor": 4096,
      "expendit": 4097,
      "70": 4098,
      "##bed": 4099,
      "##astrop": 4100,
      "generate": 4101,
      "numbers": 4102,
      "murder": 4103,
      "dra": 4104,
      "##men": 4105,
      "##itch": 4106,
      "waste": 4107,
      "saying": 4108,
      "contribute": 4109,
      "devast": 4110,
      "catastrop": 4111,
      "method": 4112,
      "fem": 4113,
      "##ties": 4114,
      "##ope": 4115,
      "appeal": 4116,
      "easier": 4117,
      "planet": 4118,
      "swim": 4119,
      "letter": 4120,
      "temper": 4121,
      "##nes": 4122,
      "##uk": 4123,
      "##ieth": 4124,
      "supporting": 4125,
      "learning": 4126,
      "##bted": 4127,
      "tradition": 4128,
      "iranian": 4129,
      "rhetoric": 4130,
      "tough": 4131,
      "hamas": 4132,
      "born": 4133,
      "emerged": 4134,
      "##aded": 4135,
      "elias": 4136,
      "allowing": 4137,
      "charlotte": 4138,
      "showed": 4139,
      "race": 4140,
      "##enom": 4141,
      "##ode": 4142,
      "solar": 4143,
      "schem": 4144,
      "weakness": 4145,
      "volat": 4146,
      "lines": 4147,
      "eva": 4148,
      "intens": 4149,
      "dc": 4150,
      "relev": 4151,
      "##erb": 4152,
      "addressing": 4153,
      "picture": 4154,
      "##uild": 4155,
      "##ager": 4156,
      "controls": 4157,
      "returns": 4158,
      "##making": 4159,
      "##oted": 4160,
      "exam": 4161,
      "explo": 4162,
      "happens": 4163,
      "##yal": 4164,
      "anymore": 4165,
      "fears": 4166,
      "figure": 4167,
      "cast": 4168,
      "exerc": 4169,
      "borrowing": 4170,
      "heavy": 4171,
      "ho": 4172,
      "##bel": 4173,
      "##uting": 4174,
      "consolid": 4175,
      "docu": 4176,
      "capita": 4177,
      "##uries": 4178,
      "##ushing": 4179,
      "assemb": 4180,
      "impose": 4181,
      "supporters": 4182,
      "genu": 4183,
      "nav": 4184,
      "enforce": 4185,
      "surprise": 4186,
      "klara": 4187,
      "church": 4188,
      "##ocratic": 4189,
      "mainly": 4190,
      "patients": 4191,
      "options": 4192,
      "vene": 4193,
      "alina": 4194,
      "owners": 4195,
      "barriers": 4196,
      "lotta": 4197,
      "1970s": 4198,
      "maja": 4199,
      "##ables": 4200,
      "##ander": 4201,
      "##ancell": 4202,
      "july": 4203,
      "rain": 4204,
      "co2": 4205,
      "symp": 4206,
      "believed": 4207,
      "urgent": 4208,
      "restrictions": 4209,
      "taiwan": 4210,
      "##ef": 4211,
      "overcome": 4212,
      "muslims": 4213,
      "pi": 4214,
      "##time": 4215,
      "cancer": 4216,
      "positions": 4217,
      "rac": 4218,
      "elites": 4219,
      "lilly": 4220,
      "##kept": 4221,
      "easing": 4222,
      "trends": 4223,
      "2005": 4224,
      "solve": 4225,
      "turkeys": 4226,
      "##book": 4227,
      "implications": 4228,
      "criminal": 4229,
      "replace": 4230,
      "percentage": 4231,
      "conventional": 4232,
      "adequ": 4233,
      "sharply": 4234,
      "appropriate": 4235,
      "hurt": 4236,
      "surr": 4237,
      "spring": 4238,
      "##licit": 4239,
      "supplies": 4240,
      "forecast": 4241,
      "lend": 4242,
      "represents": 4243,
      "pros": 4244,
      "chancell": 4245,
      "ambitious": 4246,
      "sophie": 4247,
      "coffee": 4248,
      "##zuel": 4249,
      "truly": 4250,
      "fal": 4251,
      "35": 4252,
      "temporary": 4253,
      "macron": 4254,
      "venezuel": 4255,
      "fif": 4256,
      "ment": 4257,
      "offers": 4258,
      "towards": 4259,
      "migrants": 4260,
      "alex": 4261,
      "##han": 4262,
      "restore": 4263,
      "cutting": 4264,
      "ties": 4265,
      "advice": 4266,
      "movements": 4267,
      "crimes": 4268,
      "armed": 4269,
      "##loyed": 4270,
      "smart": 4271,
      "##urd": 4272,
      "collabor": 4273,
      "track": 4274,
      "mov": 4275,
      "producers": 4276,
      "cell": 4277,
      "sis": 4278,
      "##ded": 4279,
      "##acific": 4280,
      "lie": 4281,
      "rational": 4282,
      "##uous": 4283,
      "advis": 4284,
      "older": 4285,
      "cheap": 4286,
      "bul": 4287,
      "shocks": 4288,
      "2018": 4289,
      "diplomacy": 4290,
      "participation": 4291,
      "physical": 4292,
      "secular": 4293,
      "foundation": 4294,
      "##ulf": 4295,
      "interp": 4296,
      "outl": 4297,
      "sustainability": 4298,
      "faith": 4299,
      "##fort": 4300,
      "##enh": 4301,
      "##erred": 4302,
      "discover": 4303,
      "fundament": 4304,
      "tv": 4305,
      "##inent": 4306,
      "recomm": 4307,
      "##iny": 4308,
      "economically": 4309,
      "195": 4310,
      "80": 4311,
      "swe": 4312,
      "resolution": 4313,
      "assert": 4314,
      "phone": 4315,
      "argentina": 4316,
      "blood": 4317,
      "developments": 4318,
      "prospect": 4319,
      "catch": 4320,
      "stands": 4321,
      "korean": 4322,
      "restruct": 4323,
      "##oked": 4324,
      "dictators": 4325,
      "inevitable": 4326,
      "compens": 4327,
      "productive": 4328,
      "studies": 4329,
      "##ps": 4330,
      "healthy": 4331,
      "merkel": 4332,
      "invasion": 4333,
      "calling": 4334,
      "viewed": 4335,
      "shr": 4336,
      "medium": 4337,
      "establishment": 4338,
      "networks": 4339,
      "syrian": 4340,
      "amounts": 4341,
      "beautiful": 4342,
      "review": 4343,
      "implemented": 4344,
      "objectives": 4345,
      "hus": 4346,
      "declining": 4347,
      "condition": 4348,
      "refugee": 4349,
      "apr": 4350,
      "##ya": 4351,
      "actors": 4352,
      "imagine": 4353,
      "commodity": 4354,
      "dial": 4355,
      "active": 4356,
      "flow": 4357,
      "degree": 4358,
      "hed": 4359,
      "losing": 4360,
      "##arket": 4361,
      "globally": 4362,
      "ukraines": 4363,
      "camer": 4364,
      "ire": 4365,
      "##son": 4366,
      "calc": 4367,
      "determined": 4368,
      "havent": 4369,
      "holding": 4370,
      "##0000": 4371,
      "currentaccount": 4372,
      "standing": 4373,
      "divided": 4374,
      "newsp": 4375,
      "perce": 4376,
      "humanitarian": 4377,
      "experienced": 4378,
      "mosc": 4379,
      "apart": 4380,
      "##esh": 4381,
      "hopes": 4382,
      "double": 4383,
      "territory": 4384,
      "ball": 4385,
      "##fall": 4386,
      "moved": 4387,
      "fewer": 4388,
      "affected": 4389,
      "lebanon": 4390,
      "victims": 4391,
      "shut": 4392,
      "recon": 4393,
      "putting": 4394,
      "humanity": 4395,
      "issued": 4396,
      "april": 4397,
      "lif": 4398,
      "implies": 4399,
      "formal": 4400,
      "iron": 4401,
      "concerned": 4402,
      "##iant": 4403,
      "##inct": 4404,
      "violent": 4405,
      "completely": 4406,
      "micro": 4407,
      "chancellor": 4408,
      "flood": 4409,
      "proved": 4410,
      "enjoy": 4411,
      "typically": 4412,
      "gaza": 4413,
      "fortunately": 4414,
      "##ula": 4415,
      "deflation": 4416,
      "walk": 4417,
      "virtually": 4418,
      "acceler": 4419,
      "adopt": 4420,
      "hom": 4421,
      "##ecurity": 4422,
      "virus": 4423,
      "immigrants": 4424,
      "pollution": 4425,
      "pace": 4426,
      "reports": 4427,
      "computer": 4428,
      "##itten": 4429,
      "explan": 4430,
      "transparency": 4431,
      "credible": 4432,
      "turk": 4433,
      "malaria": 4434,
      "transformation": 4435,
      "robust": 4436,
      "italian": 4437,
      "confir": 4438,
      "extremely": 4439,
      "##ball": 4440,
      "##anz": 4441,
      "asy": 4442,
      "scr": 4443,
      "involve": 4444,
      "parliamentary": 4445,
      "heavily": 4446,
      "ky": 4447,
      "search": 4448,
      "##iced": 4449,
      "youll": 4450,
      "count": 4451,
      "indones": 4452,
      "complete": 4453,
      "uncon": 4454,
      "##ancy": 4455,
      "##igned": 4456,
      "generations": 4457,
      "network": 4458,
      "##fin": 4459,
      "##ayed": 4460,
      "##coming": 4461,
      "##ivalent": 4462,
      "previously": 4463,
      "mission": 4464,
      "strik": 4465,
      "senior": 4466,
      "inclusive": 4467,
      "21": 4468,
      "drop": 4469,
      "useful": 4470,
      "peaceful": 4471,
      "keeping": 4472,
      "##hol": 4473,
      "##gl": 4474,
      "ruling": 4475,
      "deeper": 4476,
      "distribution": 4477,
      "mix": 4478,
      "oce": 4479,
      "yield": 4480,
      "##com": 4481,
      "persu": 4482,
      "renewable": 4483,
      "destruction": 4484,
      "lag": 4485,
      "##emics": 4486,
      "related": 4487,
      "scar": 4488,
      "welcome": 4489,
      "dow": 4490,
      "tob": 4491,
      "##rew": 4492,
      "vill": 4493,
      "mistakes": 4494,
      "proposals": 4495,
      "##fuel": 4496,
      "youth": 4497,
      "euros": 4498,
      "underlying": 4499,
      "deter": 4500,
      "slowdown": 4501,
      "combination": 4502,
      "##isk": 4503,
      "considerable": 4504,
      "choices": 4505,
      "field": 4506,
      "gather": 4507,
      "##fir": 4508,
      "##ventions": 4509,
      "cele": 4510,
      "##icious": 4511,
      "resc": 4512,
      "begun": 4513,
      "absol": 4514,
      "aggreg": 4515,
      "ireland": 4516,
      "##iling": 4517,
      "##ections": 4518,
      "leverage": 4519,
      "##ussels": 4520,
      "investing": 4521,
      "strengthening": 4522,
      "imbalances": 4523,
      "##oon": 4524,
      "continuing": 4525,
      "legisl": 4526,
      "celebr": 4527,
      "sick": 4528,
      "##istics": 4529,
      "opening": 4530,
      "conclus": 4531,
      "accompan": 4532,
      "##aling": 4533,
      "manip": 4534,
      "declar": 4535,
      "paying": 4536,
      "mechanisms": 4537,
      "##itative": 4538,
      "##oles": 4539,
      "transl": 4540,
      "profound": 4541,
      "telev": 4542,
      "perspective": 4543,
      "##ni": 4544,
      "twentieth": 4545,
      "##ster": 4546,
      "lift": 4547,
      "grew": 4548,
      "engagement": 4549,
      "introduced": 4550,
      "hurr": 4551,
      "inher": 4552,
      "##rown": 4553,
      "opponents": 4554,
      "##lla": 4555,
      "depos": 4556,
      "passed": 4557,
      "cars": 4558,
      "##ressive": 4559,
      "harder": 4560,
      "24": 4561,
      "bab": 4562,
      "wake": 4563,
      "ratio": 4564,
      "##idents": 4565,
      "brussels": 4566,
      "nationalist": 4567,
      "cycle": 4568,
      "doctor": 4569,
      "obst": 4570,
      "turning": 4571,
      "narr": 4572,
      "partner": 4573,
      "wave": 4574,
      "##ios": 4575,
      "chem": 4576,
      "possibly": 4577,
      "published": 4578,
      "##elihood": 4579,
      "caught": 4580,
      "fish": 4581,
      "##bru": 4582,
      "reading": 4583,
      "epid": 4584,
      "mel": 4585,
      "##mented": 4586,
      "shape": 4587,
      "desire": 4588,
      "subsequ": 4589,
      "satis": 4590,
      "described": 4591,
      "alle": 4592,
      "decis": 4593,
      "exception": 4594,
      "##related": 4595,
      "berlin": 4596,
      "suddenly": 4597,
      "##bruary": 4598,
      "trib": 4599,
      "arch": 4600,
      "wife": 4601,
      "defin": 4602,
      "modest": 4603,
      "technical": 4604,
      "bringing": 4605,
      "hungary": 4606,
      "frances": 4607,
      "parad": 4608,
      "motiv": 4609,
      "resilience": 4610,
      "defeat": 4611,
      "dimin": 4612,
      "lay": 4613,
      "pension": 4614,
      "worried": 4615,
      "homes": 4616,
      "send": 4617,
      "tact": 4618,
      "tired": 4619,
      "viet": 4620,
      "##acle": 4621,
      "##ounded": 4622,
      "underp": 4623,
      "2004": 4624,
      "stopped": 4625,
      "maintaining": 4626,
      "moscow": 4627,
      "symb": 4628,
      "institution": 4629,
      "bottom": 4630,
      "womens": 4631,
      "arrived": 4632,
      "billions": 4633,
      "weight": 4634,
      "##elling": 4635,
      "contemp": 4636,
      "dynamic": 4637,
      "mark": 4638,
      "courts": 4639,
      "universities": 4640,
      "relevant": 4641,
      "causing": 4642,
      "objective": 4643,
      "fil": 4644,
      "wild": 4645,
      "##aid": 4646,
      "february": 4647,
      "protecting": 4648,
      "gets": 4649,
      "empower": 4650,
      "outbre": 4651,
      "discour": 4652,
      "larges": 4653,
      "fulf": 4654,
      "##resp": 4655,
      "accepted": 4656,
      "starters": 4657,
      "vietnam": 4658,
      "sam": 4659,
      "regardless": 4660,
      "burn": 4661,
      "##fri": 4662,
      "bailout": 4663,
      "##erican": 4664,
      "suffered": 4665,
      "od": 4666,
      "##ung": 4667,
      "preced": 4668,
      "priorities": 4669,
      "##ney": 4670,
      "2003": 4671,
      "broke": 4672,
      "fourth": 4673,
      "traff": 4674,
      "assume": 4675,
      "hiv": 4676,
      "##mark": 4677,
      "pursuing": 4678,
      "demonstrated": 4679,
      "employees": 4680,
      "canada": 4681,
      "kiss": 4682,
      "##oil": 4683,
      "##icing": 4684,
      "careful": 4685,
      "##itness": 4686,
      "unique": 4687,
      "managing": 4688,
      "grown": 4689,
      "executive": 4690,
      "refused": 4691,
      "brut": 4692,
      "2006": 4693,
      "collect": 4694,
      "opposite": 4695,
      "pushed": 4696,
      "marginal": 4697,
      "interested": 4698,
      "occurred": 4699,
      "greenhouse": 4700,
      "disappoint": 4701,
      "christian": 4702,
      "embrace": 4703,
      "wide": 4704,
      "##imination": 4705,
      "2019": 4706,
      "equivalent": 4707,
      "determine": 4708,
      "escal": 4709,
      "august": 4710,
      "##oe": 4711,
      "##ographic": 4712,
      "mandate": 4713,
      "understood": 4714,
      "##arely": 4715,
      "chains": 4716,
      "yourself": 4717,
      "wider": 4718,
      "staff": 4719,
      "plants": 4720,
      "entrepreneurs": 4721,
      "downt": 4722,
      "22": 4723,
      "lived": 4724,
      "##ips": 4725,
      "remaining": 4726,
      "rival": 4727,
      "##roc": 4728,
      "critics": 4729,
      "obser": 4730,
      "##orial": 4731,
      "station": 4732,
      "accum": 4733,
      "assembly": 4734,
      "cub": 4735,
      "##iment": 4736,
      "##iagn": 4737,
      "stress": 4738,
      "remo": 4739,
      "signed": 4740,
      "threatened": 4741,
      "promoting": 4742,
      "disappear": 4743,
      "##itably": 4744,
      "##acerb": 4745,
      "charge": 4746,
      "exacerb": 4747,
      "##ground": 4748,
      "##owned": 4749,
      "resolve": 4750,
      "dramatically": 4751,
      "minority": 4752,
      "##ote": 4753,
      "leads": 4754,
      "twice": 4755,
      "ideological": 4756,
      "talib": 4757,
      "23": 4758,
      "closely": 4759,
      "obviously": 4760,
      "flo": 4761,
      "##hes": 4762,
      "franc": 4763,
      "##aped": 4764,
      "##erved": 4765,
      "bankrupt": 4766,
      "##astic": 4767,
      "realize": 4768,
      "equip": 4769,
      "equality": 4770,
      "discussion": 4771,
      "compromise": 4772,
      "illegal": 4773,
      "aggregate": 4774,
      "hat": 4775,
      "roll": 4776,
      "introd": 4777,
      "carried": 4778,
      "nin": 4779,
      "##dam": 4780,
      "##200": 4781,
      "react": 4782,
      "outs": 4783,
      "expanding": 4784,
      "establishing": 4785,
      "criticism": 4786,
      "thom": 4787,
      "##atr": 4788,
      "stead": 4789,
      "##ibilities": 4790,
      "##ailing": 4791,
      "##anging": 4792,
      "costly": 4793,
      "lowc": 4794,
      "supreme": 4795,
      "rig": 4796,
      "##anch": 4797,
      "decisionmaking": 4798,
      "sn": 4799,
      "snow": 4800,
      "vac": 4801,
      "##stream": 4802,
      "##arko": 4803,
      "restructuring": 4804,
      "contributed": 4805,
      "nice": 4806,
      "##bing": 4807,
      "elite": 4808,
      "flaw": 4809,
      "setting": 4810,
      "dramatic": 4811,
      "dialogue": 4812,
      "sd": 4813,
      "opened": 4814,
      "sarko": 4815,
      "william": 4816,
      "##eted": 4817,
      "innovative": 4818,
      "superv": 4819,
      "forum": 4820,
      "minimum": 4821,
      "hen": 4822,
      "warned": 4823,
      "included": 4824,
      "collaps": 4825,
      "##rich": 4826,
      "economys": 4827,
      "san": 4828,
      "presence": 4829,
      "match": 4830,
      "forgot": 4831,
      "dail": 4832,
      "gained": 4833,
      "james": 4834,
      "pushing": 4835,
      "conver": 4836,
      "##odies": 4837,
      "signs": 4838,
      "vari": 4839,
      "##ries": 4840,
      "##usal": 4841,
      "favorite": 4842,
      "rose": 4843,
      "##iff": 4844,
      "libya": 4845,
      "turkish": 4846,
      "revol": 4847,
      "reflected": 4848,
      "norms": 4849,
      "extraord": 4850,
      "largescale": 4851,
      "daily": 4852,
      "fost": 4853,
      "magn": 4854,
      "##rate": 4855,
      "stra": 4856,
      "bubble": 4857,
      "##friend": 4858,
      "biod": 4859,
      "##erge": 4860,
      "defined": 4861,
      "##inded": 4862,
      "added": 4863,
      "promising": 4864,
      "cyber": 4865,
      "exclud": 4866,
      "cha": 4867,
      "surely": 4868,
      "music": 4869,
      "apparent": 4870,
      "beij": 4871,
      "unity": 4872,
      "nobel": 4873,
      "##ollah": 4874,
      "processes": 4875,
      "counterpart": 4876,
      "survive": 4877,
      "interpret": 4878,
      "television": 4879,
      "##room": 4880,
      "transfer": 4881,
      "ending": 4882,
      "occur": 4883,
      "representatives": 4884,
      "sand": 4885,
      "angry": 4886,
      "entr": 4887,
      "systemic": 4888,
      "tun": 4889,
      "##inter": 4890,
      "exclus": 4891,
      "voice": 4892,
      "witness": 4893,
      "##uctions": 4894,
      "necessarily": 4895,
      "package": 4896,
      "convinced": 4897,
      "comment": 4898,
      "moderate": 4899,
      "index": 4900,
      "sales": 4901,
      "adjustment": 4902,
      "liter": 4903,
      "exposed": 4904,
      "disag": 4905,
      "slight": 4906,
      "minutes": 4907,
      "90": 4908,
      "gun": 4909,
      "##osy": 4910,
      "qual": 4911,
      "perp": 4912,
      "highlight": 4913,
      "capable": 4914,
      "student": 4915,
      "legitimate": 4916,
      "##utrition": 4917,
      "span": 4918,
      "intended": 4919,
      "##encing": 4920,
      "served": 4921,
      "profit": 4922,
      "unsustain": 4923,
      "window": 4924,
      "##onent": 4925,
      "applic": 4926,
      "essentially": 4927,
      "arrangements": 4928,
      "sorry": 4929,
      "##iot": 4930,
      "##ror": 4931,
      "##asters": 4932,
      "##adays": 4933,
      "marked": 4934,
      "nowadays": 4935,
      "glass": 4936,
      "ignore": 4937,
      "aggressive": 4938,
      "rating": 4939,
      "prepar": 4940,
      "consist": 4941,
      "securities": 4942,
      "legacy": 4943,
      "discipl": 4944,
      "##cel": 4945,
      "##adequ": 4946,
      "addressed": 4947,
      "victor": 4948,
      "identify": 4949,
      "vehic": 4950,
      "blo": 4951,
      "##agers": 4952,
      "initial": 4953,
      "encouraging": 4954,
      "500": 4955,
      "##ih": 4956,
      "##level": 4957,
      "votes": 4958,
      "mutual": 4959,
      "enterprises": 4960,
      "thomas": 4961,
      "27": 4962,
      "bold": 4963,
      "italys": 4964,
      "exit": 4965,
      "imped": 4966,
      "leaves": 4967,
      "purchases": 4968,
      "sort": 4969,
      "hate": 4970,
      "apply": 4971,
      "wellbe": 4972,
      "autonom": 4973,
      "players": 4974,
      "director": 4975,
      "logic": 4976,
      "discr": 4977,
      "lawy": 4978,
      "2021": 4979,
      "cz": 4980,
      "structures": 4981,
      "wellbeing": 4982,
      "river": 4983,
      "serb": 4984,
      "broken": 4985,
      "pressures": 4986,
      "constraints": 4987,
      "targeted": 4988,
      "##ommun": 4989,
      "reinfor": 4990,
      "renmin": 4991,
      "wood": 4992,
      "emerge": 4993,
      "fixed": 4994,
      "medicine": 4995,
      "false": 4996,
      "diagn": 4997,
      "historic": 4998,
      "fate": 4999,
      "explicit": 5000,
      "famous": 5001,
      "holds": 5002,
      "sac": 5003,
      "##uations": 5004,
      "interesting": 5005,
      "approaches": 5006,
      "requirements": 5007,
      "quantitative": 5008,
      "gives": 5009,
      "kos": 5010,
      "polls": 5011,
      "everybody": 5012,
      "coordination": 5013,
      "taliban": 5014,
      "cup": 5015,
      "irre": 5016,
      "senate": 5017,
      "figures": 5018,
      "fert": 5019,
      "##iferation": 5020,
      "undert": 5021,
      "emot": 5022,
      "facilities": 5023,
      "keynes": 5024,
      "watching": 5025,
      "##inate": 5026,
      "inadequ": 5027,
      "enl": 5028,
      "equipment": 5029,
      "champ": 5030,
      "##aughter": 5031,
      "religion": 5032,
      "spirit": 5033,
      "hol": 5034,
      "storm": 5035,
      "park": 5036,
      "retire": 5037,
      "slowly": 5038,
      "survival": 5039,
      "##rian": 5040,
      "##unk": 5041,
      "theyre": 5042,
      "reluct": 5043,
      "opposed": 5044,
      "ideal": 5045,
      "series": 5046,
      "fragile": 5047,
      "pretty": 5048,
      "##iversity": 5049,
      "hunger": 5050,
      "downturn": 5051,
      "##osis": 5052,
      "suggested": 5053,
      "biodiversity": 5054,
      "stance": 5055,
      "rightwing": 5056,
      "annually": 5057,
      "preventing": 5058,
      "eurozones": 5059,
      "expanded": 5060,
      "article": 5061,
      "piec": 5062,
      "crop": 5063,
      "rarely": 5064,
      "frustr": 5065,
      "accounting": 5066,
      "postp": 5067,
      "din": 5068,
      "##gence": 5069,
      "inside": 5070,
      "speed": 5071,
      "genuine": 5072,
      "beijing": 5073,
      "##isingly": 5074,
      "feds": 5075,
      "liberalization": 5076,
      "surprising": 5077,
      "mobile": 5078,
      "town": 5079,
      "resource": 5080,
      "maybe": 5081,
      "aud": 5082,
      "##atlantic": 5083,
      "reward": 5084,
      "reverse": 5085,
      "##agen": 5086,
      "scand": 5087,
      "believes": 5088,
      "philos": 5089,
      "##state": 5090,
      "##utral": 5091,
      "stal": 5092,
      "empire": 5093,
      "returned": 5094,
      "youd": 5095,
      "enact": 5096,
      "##bert": 5097,
      "singap": 5098,
      "attractive": 5099,
      "adequate": 5100,
      "##enk": 5101,
      "shouldnt": 5102,
      "britains": 5103,
      "female": 5104,
      "##first": 5105,
      "syn": 5106,
      "failing": 5107,
      "text": 5108,
      "combat": 5109,
      "willingness": 5110,
      "soldiers": 5111,
      "sexual": 5112,
      "##conn": 5113,
      "publicly": 5114,
      "failures": 5115,
      "terrorists": 5116,
      "dismiss": 5117,
      "content": 5118,
      "written": 5119,
      "iraqi": 5120,
      "department": 5121,
      "remarkable": 5122,
      "##ania": 5123,
      "anx": 5124,
      "fresh": 5125,
      "##iberal": 5126,
      "command": 5127,
      "taxpay": 5128,
      "happening": 5129,
      "carefully": 5130,
      "calif": 5131,
      "inevitably": 5132,
      "unsustainable": 5133,
      "mag": 5134,
      "nik": 5135,
      "##iar": 5136,
      "incomp": 5137,
      "publics": 5138,
      "feeling": 5139,
      "perceived": 5140,
      "californ": 5141,
      "##erately": 5142,
      "steel": 5143,
      "hyp": 5144,
      "kosov": 5145,
      "##apers": 5146,
      "decent": 5147,
      "lob": 5148,
      "responses": 5149,
      "listen": 5150,
      "explanation": 5151,
      "naz": 5152,
      "slo": 5153,
      "##ipher": 5154,
      "cloth": 5155,
      "scope": 5156,
      "harv": 5157,
      "recognition": 5158,
      "practical": 5159,
      "lands": 5160,
      "users": 5161,
      "belong": 5162,
      "reasonable": 5163,
      "skept": 5164,
      "aside": 5165,
      "offset": 5166,
      "concluded": 5167,
      "declaration": 5168,
      "##iring": 5169,
      "novel": 5170,
      "barely": 5171,
      "##ecd": 5172,
      "2050": 5173,
      "partys": 5174,
      "phase": 5175,
      "enemy": 5176,
      "observers": 5177,
      "mere": 5178,
      "##ding": 5179,
      "##bling": 5180,
      "##ett": 5181,
      "percept": 5182,
      "centuries": 5183,
      "##irect": 5184,
      "amp": 5185,
      "##vant": 5186,
      "##istans": 5187,
      "platforms": 5188,
      "transfers": 5189,
      "underpin": 5190,
      "interventions": 5191,
      "##elled": 5192,
      "privates": 5193,
      "ideology": 5194,
      "integrated": 5195,
      "##ume": 5196,
      "##aching": 5197,
      "1930s": 5198,
      "punish": 5199,
      "henry": 5200,
      "mill": 5201,
      "hair": 5202,
      "surge": 5203,
      "poorer": 5204,
      "reaching": 5205,
      "streets": 5206,
      "gradually": 5207,
      "dictatorship": 5208,
      "germ": 5209,
      "##hi": 5210,
      "##ountry": 5211,
      "institute": 5212,
      "incentive": 5213,
      "college": 5214,
      "##ley": 5215,
      "thank": 5216,
      "intent": 5217,
      "offic": 5218,
      "quiet": 5219,
      "settle": 5220,
      "##bank": 5221,
      "wealthy": 5222,
      "pact": 5223,
      "##ck": 5224,
      "stories": 5225,
      "##look": 5226,
      "capabilities": 5227,
      "##pping": 5228,
      "##yself": 5229,
      "civilian": 5230,
      "##ipping": 5231,
      "wis": 5232,
      "actual": 5233,
      "progressive": 5234,
      "latter": 5235,
      "privatesector": 5236,
      "ali": 5237,
      "box": 5238,
      "operate": 5239,
      "educational": 5240,
      "finding": 5241,
      "indonesia": 5242,
      "laugh": 5243,
      "proceed": 5244,
      "guard": 5245,
      "researchers": 5246,
      "professional": 5247,
      "luck": 5248,
      "##nis": 5249,
      "chairman": 5250,
      "anticip": 5251,
      "channel": 5252,
      "fle": 5253,
      "threatening": 5254,
      "claimed": 5255,
      "repeatedly": 5256,
      "##gas": 5257,
      "buying": 5258,
      "england": 5259,
      "colon": 5260,
      "attempts": 5261,
      "fueled": 5262,
      "animals": 5263,
      "devastating": 5264,
      "overse": 5265,
      "bigger": 5266,
      "honest": 5267,
      "dil": 5268,
      "nine": 5269,
      "##oly": 5270,
      "amaz": 5271,
      "communism": 5272,
      "allows": 5273,
      "accountability": 5274,
      "withdrawal": 5275,
      "nigeria": 5276,
      "myself": 5277,
      "tool": 5278,
      "applied": 5279,
      "reliable": 5280,
      "divide": 5281,
      "twentyfirst": 5282,
      "jack": 5283,
      "persist": 5284,
      "##ashion": 5285,
      "dependent": 5286,
      "accomplish": 5287,
      "##arr": 5288,
      "##ocket": 5289,
      "wearing": 5290,
      "risky": 5291,
      "engaged": 5292,
      "##los": 5293,
      "##eness": 5294,
      "##oto": 5295,
      "redis": 5296,
      "populism": 5297,
      "voting": 5298,
      "implementation": 5299,
      "treated": 5300,
      "tour": 5301,
      "prohib": 5302,
      "blue": 5303,
      "condem": 5304,
      "finished": 5305,
      "surprised": 5306,
      "astr": 5307,
      "vet": 5308,
      "##ham": 5309,
      "stood": 5310,
      "phenom": 5311,
      "speaking": 5312,
      "escape": 5313,
      "reaction": 5314,
      "##ivia": 5315,
      "offering": 5316,
      "qe": 5317,
      "governing": 5318,
      "plant": 5319,
      "peripher": 5320,
      "humans": 5321,
      "badly": 5322,
      "isolation": 5323,
      "georgia": 5324,
      "osc": 5325,
      "reass": 5326,
      "crash": 5327,
      "evol": 5328,
      "instruments": 5329,
      "##ris": 5330,
      "##aed": 5331,
      "##orb": 5332,
      "##eline": 5333,
      "##ads": 5334,
      "shop": 5335,
      "telling": 5336,
      "hungry": 5337,
      "jews": 5338,
      "sister": 5339,
      "gulf": 5340,
      "intr": 5341,
      "accur": 5342,
      "bushs": 5343,
      "linked": 5344,
      "check": 5345,
      "##uable": 5346,
      "oneth": 5347,
      "chron": 5348,
      "seas": 5349,
      "coast": 5350,
      "centers": 5351,
      "##inking": 5352,
      "rejected": 5353,
      "jord": 5354,
      "alike": 5355,
      "##abeth": 5356,
      "heat": 5357,
      "backed": 5358,
      "broadly": 5359,
      "multiple": 5360,
      "joined": 5361,
      "delivered": 5362,
      "primarily": 5363,
      "replaced": 5364,
      "##cs": 5365,
      "convers": 5366,
      "peak": 5367,
      "##ounding": 5368,
      "origin": 5369,
      "##orient": 5370,
      "ukrainian": 5371,
      "artific": 5372,
      "imperial": 5373,
      "fossilfuel": 5374,
      "doctors": 5375,
      "##osystem": 5376,
      "consult": 5377,
      "initially": 5378,
      "jewish": 5379,
      "eliminate": 5380,
      "settlement": 5381,
      "mine": 5382,
      "asking": 5383,
      "plent": 5384,
      "reput": 5385,
      "ecosystem": 5386,
      "innovations": 5387,
      "released": 5388,
      "stagnation": 5389,
      "onethird": 5390,
      "via": 5391,
      "facts": 5392,
      "##crip": 5393,
      "erdo": 5394,
      "unders": 5395,
      "##och": 5396,
      "loyal": 5397,
      "compete": 5398,
      "contributions": 5399,
      "copenh": 5400,
      "apparently": 5401,
      "enhance": 5402,
      "##fl": 5403,
      "##ura": 5404,
      "koreas": 5405,
      "##govern": 5406,
      "alexander": 5407,
      "polar": 5408,
      "##angers": 5409,
      "propag": 5410,
      "threaten": 5411,
      "operating": 5412,
      "##las": 5413,
      "##agues": 5414,
      "##ultane": 5415,
      "usual": 5416,
      "mun": 5417,
      "suit": 5418,
      "##aves": 5419,
      "##inding": 5420,
      "simultane": 5421,
      "proportion": 5422,
      "disagree": 5423,
      "singapore": 5424,
      "##atization": 5425,
      "##any": 5426,
      "##ingu": 5427,
      "1989": 5428,
      "ocean": 5429,
      "touch": 5430,
      "##arters": 5431,
      "shes": 5432,
      "##american": 5433,
      "quo": 5434,
      "bloc": 5435,
      "mainstream": 5436,
      "warning": 5437,
      "killing": 5438,
      "deterior": 5439,
      "##country": 5440,
      "congressional": 5441,
      "activists": 5442,
      "donors": 5443,
      "##contro": 5444,
      "volatility": 5445,
      "inadequate": 5446,
      "dub": 5447,
      "##ros": 5448,
      "adult": 5449,
      "reck": 5450,
      "brothers": 5451,
      "##ahar": 5452,
      "greeces": 5453,
      "gis": 5454,
      "wto": 5455,
      "yields": 5456,
      "##upp": 5457,
      "israelis": 5458,
      "weaker": 5459,
      "75": 5460,
      "los": 5461,
      "sin": 5462,
      "convention": 5463,
      "##illance": 5464,
      "strike": 5465,
      "1990": 5466,
      "##phere": 5467,
      "tackle": 5468,
      "germans": 5469,
      "nether": 5470,
      "stup": 5471,
      "asias": 5472,
      "##agm": 5473,
      "predecess": 5474,
      "participants": 5475,
      "arguments": 5476,
      "copenhagen": 5477,
      "clin": 5478,
      "controvers": 5479,
      "viable": 5480,
      "saddam": 5481,
      "budgets": 5482,
      "curt": 5483,
      "tall": 5484,
      "comfort": 5485,
      "evident": 5486,
      "transatlantic": 5487,
      "courage": 5488,
      "obt": 5489,
      "##kn": 5490,
      "coverage": 5491,
      "acting": 5492,
      "contracts": 5493,
      "conducted": 5494,
      "dinner": 5495,
      "##mon": 5496,
      "##ola": 5497,
      "wors": 5498,
      "regarding": 5499,
      "ignored": 5500,
      "hyd": 5501,
      "couple": 5502,
      "hu": 5503,
      "##ador": 5504,
      "seat": 5505,
      "declined": 5506,
      "surveillance": 5507,
      "45": 5508,
      "##order": 5509,
      "prize": 5510,
      "abd": 5511,
      "examples": 5512,
      "younger": 5513,
      "saved": 5514,
      "destabil": 5515,
      "implementing": 5516,
      "dominant": 5517,
      "##eteenth": 5518,
      "movie": 5519,
      "netherlands": 5520,
      "ak": 5521,
      "g7": 5522,
      "##li": 5523,
      "##eg": 5524,
      "##grow": 5525,
      "##otic": 5526,
      "deals": 5527,
      "proced": 5528,
      "frank": 5529,
      "extend": 5530,
      "aware": 5531,
      "bodies": 5532,
      "thinks": 5533,
      "toler": 5534,
      "dealing": 5535,
      "entered": 5536,
      "undermining": 5537,
      "enabling": 5538,
      "por": 5539,
      "##ny": 5540,
      "notably": 5541,
      "joe": 5542,
      "##others": 5543,
      "2002": 5544,
      "strongly": 5545,
      "meaningful": 5546,
      "##idden": 5547,
      "##emen": 5548,
      "sharing": 5549,
      "producing": 5550,
      "chemical": 5551,
      "dim": 5552,
      "##ja": 5553,
      "delib": 5554,
      "demanding": 5555,
      "##rete": 5556,
      "lad": 5557,
      "oecd": 5558,
      "##how": 5559,
      "##mad": 5560,
      "##iest": 5561,
      "helps": 5562,
      "advances": 5563,
      "deprec": 5564,
      "lowincome": 5565,
      "voted": 5566,
      "emergingmarket": 5567,
      "appeared": 5568,
      "portug": 5569,
      "narrative": 5570,
      "na": 5571,
      "pip": 5572,
      "neutral": 5573,
      "##under": 5574,
      "transm": 5575,
      "emergence": 5576,
      "facebook": 5577,
      "imfs": 5578,
      "demonstrate": 5579,
      "ecbs": 5580,
      "struggling": 5581,
      "stupid": 5582,
      "26": 5583,
      "barg": 5584,
      "nic": 5585,
      "##ware": 5586,
      "##ulating": 5587,
      "diver": 5588,
      "demographic": 5589,
      "regarded": 5590,
      "eye": 5591,
      "mental": 5592,
      "ts": 5593,
      "##acles": 5594,
      "##adic": 5595,
      "pointed": 5596,
      "song": 5597,
      "##zen": 5598,
      "##oned": 5599,
      "##isan": 5600,
      "resort": 5601,
      "strict": 5602,
      "safegu": 5603,
      "enabled": 5604,
      "cath": 5605,
      "##bur": 5606,
      "showing": 5607,
      "islamist": 5608,
      "enemies": 5609,
      "complicated": 5610,
      "academic": 5611,
      "fundamentally": 5612,
      "weve": 5613,
      "##agger": 5614,
      "harry": 5615,
      "aims": 5616,
      "supposedly": 5617,
      "##uilding": 5618,
      "accompanied": 5619,
      "toky": 5620,
      "posed": 5621,
      "exemp": 5622,
      "transactions": 5623,
      "weaken": 5624,
      "thirty": 5625,
      "##thr": 5626,
      "traged": 5627,
      "hasnt": 5628,
      "decre": 5629,
      "creates": 5630,
      "exercise": 5631,
      "ok": 5632,
      "postwar": 5633,
      "island": 5634,
      "##roductive": 5635,
      "mortgage": 5636,
      "ownership": 5637,
      "pul": 5638,
      "uses": 5639,
      "distort": 5640,
      "destroy": 5641,
      "subsequent": 5642,
      "renminbi": 5643,
      "##hr": 5644,
      "##ifically": 5645,
      "brain": 5646,
      "effectiveness": 5647,
      "populists": 5648,
      "cooper": 5649,
      "revolutionary": 5650,
      "protectionism": 5651,
      "satisf": 5652,
      "##ki": 5653,
      "##ford": 5654,
      "##adow": 5655,
      "fine": 5656,
      "profession": 5657,
      "sooner": 5658,
      "boosting": 5659,
      "urgently": 5660,
      "advocates": 5661,
      "jordan": 5662,
      "##aharan": 5663,
      "gene": 5664,
      "##tog": 5665,
      "##aur": 5666,
      "##zz": 5667,
      "##mos": 5668,
      "##ires": 5669,
      "root": 5670,
      "##ressed": 5671,
      "subsaharan": 5672,
      "expressed": 5673,
      "##known": 5674,
      "##band": 5675,
      "plays": 5676,
      "guid": 5677,
      "evolution": 5678,
      "proven": 5679,
      "organized": 5680,
      "nominal": 5681,
      "##urope": 5682,
      "tunis": 5683,
      "luc": 5684,
      "##orter": 5685,
      "renewed": 5686,
      "flexibility": 5687,
      "decisive": 5688,
      "lunch": 5689,
      "##olf": 5690,
      "debates": 5691,
      "focusing": 5692,
      "weapon": 5693,
      "association": 5694,
      "extraordinary": 5695,
      "placed": 5696,
      "consistent": 5697,
      "contrad": 5698,
      "kinds": 5699,
      "historically": 5700,
      "accelerate": 5701,
      "##ufficient": 5702,
      "prolong": 5703,
      "california": 5704,
      "tokyo": 5705,
      "300": 5706,
      "##hab": 5707,
      "##uate": 5708,
      "##irus": 5709,
      "proud": 5710,
      "stateowned": 5711,
      "##enedict": 5712,
      "1999": 5713,
      "weakened": 5714,
      "##abriel": 5715,
      "charges": 5716,
      "ker": 5717,
      "##iche": 5718,
      "seeing": 5719,
      "middleincome": 5720,
      "species": 5721,
      "discussions": 5722,
      "substantially": 5723,
      "capture": 5724,
      "baby": 5725,
      "date": 5726,
      "jon": 5727,
      "recip": 5728,
      "managers": 5729,
      "statement": 5730,
      "coron": 5731,
      "planned": 5732,
      "considering": 5733,
      "##adesh": 5734,
      "missed": 5735,
      "bidens": 5736,
      "assumed": 5737,
      "survey": 5738,
      "vice": 5739,
      "##ocol": 5740,
      "newly": 5741,
      "preserve": 5742,
      "negl": 5743,
      "deterr": 5744,
      "obligations": 5745,
      "sweden": 5746,
      "sarkozy": 5747,
      "spanish": 5748,
      "erupt": 5749,
      "fasc": 5750,
      "announce": 5751,
      "lockdown": 5752,
      "revealed": 5753,
      "redistrib": 5754,
      "benedict": 5755,
      "gabriel": 5756,
      "##elines": 5757,
      "##aping": 5758,
      "##fast": 5759,
      "##ica": 5760,
      "forest": 5761,
      "club": 5762,
      "contact": 5763,
      "furthermore": 5764,
      "##border": 5765,
      "johannes": 5766,
      "yell": 5767,
      "##va": 5768,
      "##isis": 5769,
      "acts": 5770,
      "concrete": 5771,
      "alternatives": 5772,
      "venezuela": 5773,
      "conclusion": 5774,
      "unilateral": 5775,
      "aging": 5776,
      "diverse": 5777,
      "valuable": 5778,
      "##lines": 5779,
      "heid": 5780,
      "height": 5781,
      "expense": 5782,
      "genetic": 5783,
      "resulted": 5784,
      "affordable": 5785,
      "ai": 5786,
      "##eds": 5787,
      "patient": 5788,
      "policymaking": 5789,
      "winning": 5790,
      "diversity": 5791,
      "rescue": 5792,
      "nineteenth": 5793,
      "czech": 5794,
      "28": 5795,
      "ton": 5796,
      "##fs": 5797,
      "accused": 5798,
      "tests": 5799,
      "1960s": 5800,
      "occupation": 5801,
      "elements": 5802,
      "fool": 5803,
      "##rights": 5804,
      "##ole": 5805,
      "##fun": 5806,
      "warm": 5807,
      "approval": 5808,
      "prepare": 5809,
      "cook": 5810,
      "irr": 5811,
      "dominated": 5812,
      "tea": 5813,
      "meetings": 5814,
      "sentiment": 5815,
      "crossborder": 5816,
      "version": 5817,
      "anc": 5818,
      "image": 5819,
      "concert": 5820,
      "##incent": 5821,
      "shares": 5822,
      "burd": 5823,
      "missing": 5824,
      "chant": 5825,
      "milo": 5826,
      "connect": 5827,
      "original": 5828,
      "eating": 5829,
      "mu": 5830,
      "##uts": 5831,
      "##urally": 5832,
      "polish": 5833,
      "blow": 5834,
      "ruled": 5835,
      "expenditures": 5836,
      "chaos": 5837,
      "##rog": 5838,
      "##sts": 5839,
      "reel": 5840,
      "##tering": 5841,
      "pharm": 5842,
      "contribution": 5843,
      "encouraged": 5844,
      "##the": 5845,
      "operation": 5846,
      "seemingly": 5847,
      "balanced": 5848,
      "pursued": 5849,
      "dependence": 5850,
      "paula": 5851,
      "florence": 5852,
      "dutch": 5853,
      "enforcement": 5854,
      "oscar": 5855,
      "pill": 5856,
      "franz": 5857,
      "##urring": 5858,
      "balances": 5859,
      "shareholders": 5860,
      "heads": 5861,
      "facilitate": 5862,
      "taxpayers": 5863,
      "mas": 5864,
      "throw": 5865,
      "simon": 5866,
      "attend": 5867,
      "protected": 5868,
      "##ashed": 5869,
      "patri": 5870,
      "##ommod": 5871,
      "johnson": 5872,
      "properly": 5873,
      "recommend": 5874,
      "##math": 5875,
      "##moil": 5876,
      "participate": 5877,
      "brutal": 5878,
      "erod": 5879,
      "krist": 5880,
      "katr": 5881,
      "spoke": 5882,
      "taxation": 5883,
      "blind": 5884,
      "guide": 5885,
      "postc": 5886,
      "##crisis": 5887,
      "emilia": 5888,
      "##aud": 5889,
      "##elle": 5890,
      "reag": 5891,
      "warn": 5892,
      "aftermath": 5893,
      "mood": 5894,
      "turmoil": 5895,
      "colomb": 5896,
      "store": 5897,
      "goog": 5898,
      "longerterm": 5899,
      "##place": 5900,
      "earnings": 5901,
      "ded": 5902,
      "##bl": 5903,
      "alive": 5904,
      "lia": 5905,
      "abuse": 5906,
      "marria": 5907,
      "##angerate": 5908,
      "fill": 5909,
      "lenn": 5910,
      "##era": 5911,
      "##inational": 5912,
      "##esters": 5913,
      "whos": 5914,
      "realized": 5915,
      "guarantees": 5916,
      "luis": 5917,
      "games": 5918,
      "hence": 5919,
      "##theless": 5920,
      "shouldve": 5921,
      "anywhere": 5922,
      "generated": 5923,
      "nevertheless": 5924,
      "erik": 5925,
      "representative": 5926,
      "imperative": 5927,
      "bern": 5928,
      "tort": 5929,
      "zone": 5930,
      "ship": 5931,
      "bangl": 5932,
      "delay": 5933,
      "chronic": 5934,
      "bes": 5935,
      "attrib": 5936,
      "##odox": 5937,
      "robert": 5938,
      "##what": 5939,
      "##through": 5940,
      "jump": 5941,
      "##bollah": 5942,
      "##oubted": 5943,
      "##uls": 5944,
      "governor": 5945,
      "immun": 5946,
      "surprisingly": 5947,
      "sophistic": 5948,
      "undoubted": 5949,
      "publ": 5950,
      "triggered": 5951,
      "rub": 5952,
      "tb": 5953,
      "##har": 5954,
      "##inely": 5955,
      "##aint": 5956,
      "pragm": 5957,
      "shia": 5958,
      "manner": 5959,
      "justify": 5960,
      "1997": 5961,
      "##ught": 5962,
      "lacks": 5963,
      "##lum": 5964,
      "##zbollah": 5965,
      "##inas": 5966,
      "isab": 5967,
      "##igor": 5968,
      "##avirus": 5969,
      "scot": 5970,
      "purchase": 5971,
      "square": 5972,
      "assessment": 5973,
      "bubbles": 5974,
      "neighborhood": 5975,
      "mitigate": 5976,
      "methods": 5977,
      "phenomen": 5978,
      "plenty": 5979,
      "##icy": 5980,
      "##omed": 5981,
      "##style": 5982,
      "##ched": 5983,
      "outlook": 5984,
      "schol": 5985,
      "exchangerate": 5986,
      "testing": 5987,
      "mobility": 5988,
      "ice": 5989,
      "strange": 5990,
      "elis": 5991,
      "brings": 5992,
      "vera": 5993,
      "##athan": 5994,
      "speaks": 5995,
      "felix": 5996,
      "flexible": 5997,
      "straight": 5998,
      "aver": 5999,
      "fault": 6000,
      "##intensive": 6001,
      "ourselves": 6002,
      "prompt": 6003,
      "writing": 6004,
      "recognizing": 6005,
      "destroyed": 6006,
      "nam": 6007,
      "##eff": 6008,
      "##enous": 6009,
      "granted": 6010,
      "restaur": 6011,
      "anna": 6012,
      "limiting": 6013,
      "negotiating": 6014,
      "asylum": 6015,
      "enlarge": 6016,
      "##oriented": 6017,
      "artificial": 6018,
      "##erning": 6019,
      "unr": 6020,
      "##udes": 6021,
      "##enses": 6022,
      "nowhere": 6023,
      "##aving": 6024,
      "rulers": 6025,
      "runs": 6026,
      "eradic": 6027,
      "selling": 6028,
      "samuel": 6029,
      "discrimination": 6030,
      "wisdom": 6031,
      "ought": 6032,
      "wat": 6033,
      "##rid": 6034,
      "##bas": 6035,
      "##eni": 6036,
      "shifting": 6037,
      "succeeded": 6038,
      "frequently": 6039,
      "dropped": 6040,
      "traffic": 6041,
      "kerst": 6042,
      "##opoly": 6043,
      "marius": 6044,
      "accommod": 6045,
      "brief": 6046,
      "milena": 6047,
      "extended": 6048,
      "measured": 6049,
      "informal": 6050,
      "unfair": 6051,
      "breakthrough": 6052,
      "doctr": 6053,
      "acknowled": 6054,
      "counterparts": 6055,
      "kosovo": 6056,
      "ble": 6057,
      "rare": 6058,
      "##ana": 6059,
      "hezbollah": 6060,
      "convince": 6061,
      "epis": 6062,
      "gh": 6063,
      "##east": 6064,
      "##fol": 6065,
      "incon": 6066,
      "suic": 6067,
      "liam": 6068,
      "##agement": 6069,
      "somewhat": 6070,
      "provision": 6071,
      "doubled": 6072,
      "experiment": 6073,
      "successfully": 6074,
      "variety": 6075,
      "communication": 6076,
      "outbreak": 6077,
      "undoubtedly": 6078,
      "##ionary": 6079,
      "noted": 6080,
      "surpluses": 6081,
      "angela": 6082,
      "scheme": 6083,
      "vehicles": 6084,
      "gisela": 6085,
      "heidi": 6086,
      "elisabeth": 6087,
      "orb": 6088,
      "ella": 6089,
      "pref": 6090,
      "emily": 6091,
      "drought": 6092,
      "ends": 6093,
      "responded": 6094,
      "##clical": 6095,
      "materials": 6096,
      "simultaneously": 6097,
      "fit": 6098,
      "gam": 6099,
      "##erving": 6100,
      "oppose": 6101,
      "matild": 6102,
      "insufficient": 6103,
      "openly": 6104,
      "minds": 6105,
      "miriam": 6106,
      "franzisk": 6107,
      "##kar": 6108,
      "aggr": 6109,
      "loan": 6110,
      "explos": 6111,
      "explained": 6112,
      "negotiate": 6113,
      "palestine": 6114,
      "ultimate": 6115,
      "unwilling": 6116,
      "sacr": 6117,
      "hill": 6118,
      "lina": 6119,
      "inj": 6120,
      "##ulative": 6121,
      "leo": 6122,
      "##que": 6123,
      "threatens": 6124,
      "controlled": 6125,
      "successor": 6126,
      "minorities": 6127,
      "breat": 6128,
      "math": 6129,
      "##iances": 6130,
      "##ils": 6131,
      "##ereg": 6132,
      "persistent": 6133,
      "##icking": 6134,
      "antis": 6135,
      "disputes": 6136,
      "radio": 6137,
      "transparent": 6138,
      "separate": 6139,
      "colleagues": 6140,
      "autonomy": 6141,
      "mond": 6142,
      "##outh": 6143,
      "##ilian": 6144,
      "##aked": 6145,
      "protesters": 6146,
      "annivers": 6147,
      "poses": 6148,
      "coordinated": 6149,
      "boss": 6150,
      "divid": 6151,
      "##icket": 6152,
      "stocks": 6153,
      "elena": 6154,
      "carla": 6155,
      "momentum": 6156,
      "epidemic": 6157,
      "discipline": 6158,
      "niklas": 6159,
      "tragedy": 6160,
      "cab": 6161,
      "olig": 6162,
      "##free": 6163,
      "rebal": 6164,
      "stream": 6165,
      "sheets": 6166,
      "estimate": 6167,
      "desperate": 6168,
      "multinational": 6169,
      "portfol": 6170,
      "julian": 6171,
      "archit": 6172,
      "theo": 6173,
      "##essions": 6174,
      "##inds": 6175,
      "laura": 6176,
      "concerning": 6177,
      "educated": 6178,
      "foundations": 6179,
      "weakening": 6180,
      "specifically": 6181,
      "undermined": 6182,
      "patterns": 6183,
      "undersc": 6184,
      "lennard": 6185,
      "dar": 6186,
      "ox": 6187,
      "pose": 6188,
      "vent": 6189,
      "forcing": 6190,
      "##umm": 6191,
      "inflows": 6192,
      "##roportion": 6193,
      "disproportion": 6194,
      "confrontation": 6195,
      "luke": 6196,
      "##aeda": 6197,
      "##anyah": 6198,
      "daughter": 6199,
      "eb": 6200,
      "sight": 6201,
      "##irds": 6202,
      "lea": 6203,
      "hege": 6204,
      "reconstr": 6205,
      "innoc": 6206,
      "netanyah": 6207,
      "grounds": 6208,
      "painful": 6209,
      "removed": 6210,
      "slightly": 6211,
      "fashion": 6212,
      "map": 6213,
      "##flation": 6214,
      "##onia": 6215,
      "##isp": 6216,
      "##add": 6217,
      "##udd": 6218,
      "##ipal": 6219,
      "dispar": 6220,
      "invested": 6221,
      "socialist": 6222,
      "mats": 6223,
      "studying": 6224,
      "types": 6225,
      "deval": 6226,
      "missile": 6227,
      "territorial": 6228,
      "jer": 6229,
      "##rees": 6230,
      "benefited": 6231,
      "arrested": 6232,
      "millenn": 6233,
      "benedicta": 6234,
      "bag": 6235,
      "card": 6236,
      "wed": 6237,
      "yemen": 6238,
      "##head": 6239,
      "##att": 6240,
      "##reaching": 6241,
      "atlantic": 6242,
      "overs": 6243,
      "challenging": 6244,
      "glad": 6245,
      "machine": 6246,
      "draft": 6247,
      "alleged": 6248,
      "kerstin": 6249,
      "bias": 6250,
      "anger": 6251,
      "absent": 6252,
      "functioning": 6253,
      "notion": 6254,
      "smoking": 6255,
      "importantly": 6256,
      "illness": 6257,
      "##exp": 6258,
      "propaganda": 6259,
      "##osen": 6260,
      "crack": 6261,
      "finds": 6262,
      "noah": 6263,
      "bridge": 6264,
      "substit": 6265,
      "philipp": 6266,
      "aspir": 6267,
      "##uropean": 6268,
      "publiche": 6269,
      "jun": 6270,
      "ally": 6271,
      "imposing": 6272,
      "##agon": 6273,
      "puts": 6274,
      "corin": 6275,
      "fails": 6276,
      "ambitions": 6277,
      "victoria": 6278,
      "publichealth": 6279,
      "vincent": 6280,
      "##iating": 6281,
      "clara": 6282,
      "192": 6283,
      "realistic": 6284,
      "raises": 6285,
      "duty": 6286,
      "julia": 6287,
      "collapsed": 6288,
      "luca": 6289,
      "coronavirus": 6290,
      "mire": 6291,
      "yara": 6292,
      "##ama": 6293,
      "##ocracy": 6294,
      "hero": 6295,
      "retail": 6296,
      "player": 6297,
      "avo": 6298,
      "identified": 6299,
      "animal": 6300,
      "customers": 6301,
      "johanna": 6302,
      "overwhelming": 6303,
      "matilda": 6304,
      "franziska": 6305,
      "lara": 6306,
      "pure": 6307,
      "##oning": 6308,
      "##ano": 6309,
      "shoes": 6310,
      "contag": 6311,
      "longstanding": 6312,
      "constant": 6313,
      "distinct": 6314,
      "winter": 6315,
      "aids": 6316,
      "maximilian": 6317,
      "paradox": 6318,
      "consistently": 6319,
      "avoided": 6320,
      "kil": 6321,
      "##thodox": 6322,
      "farreaching": 6323,
      "reductions": 6324,
      "statements": 6325,
      "memory": 6326,
      "reporting": 6327,
      "livia": 6328,
      "sabr": 6329,
      "downward": 6330,
      "improvements": 6331,
      "displaced": 6332,
      "isabella": 6333,
      "##itudes": 6334,
      "twoth": 6335,
      "privile": 6336,
      "openness": 6337,
      "predicted": 6338,
      "matthew": 6339,
      "newspaper": 6340,
      "clothes": 6341,
      "lic": 6342,
      "##utical": 6343,
      "conce": 6344,
      "##aceutical": 6345,
      "consc": 6346,
      "argues": 6347,
      "robin": 6348,
      "jana": 6349,
      "abandoned": 6350,
      "oliver": 6351,
      "monitoring": 6352,
      "anniversary": 6353,
      "twothirds": 6354,
      "##ipe": 6355,
      "##inder": 6356,
      "##usted": 6357,
      "presented": 6358,
      "pool": 6359,
      "interestrate": 6360,
      "restrain": 6361,
      "secondary": 6362,
      "prevented": 6363,
      "ip": 6364,
      "mothers": 6365,
      "shot": 6366,
      "alliances": 6367,
      "cry": 6368,
      "evely": 6369,
      "humil": 6370,
      "acknowledge": 6371,
      "reconcil": 6372,
      "chantal": 6373,
      "marriage": 6374,
      "dur": 6375,
      "dign": 6376,
      "pu": 6377,
      "financed": 6378,
      "matthias": 6379,
      "incor": 6380,
      "creative": 6381,
      "horr": 6382,
      "emphasis": 6383,
      "##enko": 6384,
      "male": 6385,
      "##iro": 6386,
      "##irable": 6387,
      "annab": 6388,
      "facility": 6389,
      "##anne": 6390,
      "sky": 6391,
      "volunt": 6392,
      "advantages": 6393,
      "ast": 6394,
      "rid": 6395,
      "sitting": 6396,
      "parall": 6397,
      "terrible": 6398,
      "difficulties": 6399,
      "shifts": 6400,
      "erika": 6401,
      "kingdoms": 6402,
      "transportation": 6403,
      "bangladesh": 6404,
      "aggression": 6405,
      "ug": 6406,
      "zer": 6407,
      "repay": 6408,
      "stimulate": 6409,
      "walked": 6410,
      "expression": 6411,
      "partnerships": 6412,
      "crimea": 6413,
      "jonas": 6414,
      "sem": 6415,
      "##eded": 6416,
      "seg": 6417,
      "adrian": 6418,
      "spl": 6419,
      "prosperous": 6420,
      "cheaper": 6421,
      "antonia": 6422,
      "kristin": 6423,
      "mich": 6424,
      "mika": 6425,
      "##eu": 6426,
      "procl": 6427,
      "enth": 6428,
      "meat": 6429,
      "greens": 6430,
      "foreignpolicy": 6431,
      "maintained": 6432,
      "purchasing": 6433,
      "leonie": 6434,
      "daniela": 6435,
      "tobias": 6436,
      "portugal": 6437,
      "pharmaceutical": 6438,
      "dereg": 6439,
      "##eed": 6440,
      "##zys": 6441,
      "prud": 6442,
      "disasters": 6443,
      "apple": 6444,
      "underway": 6445,
      "annika": 6446,
      "responsibilities": 6447,
      "visited": 6448,
      "relationships": 6449,
      "penal": 6450,
      "florian": 6451,
      "collaboration": 6452,
      "astrid": 6453,
      "bicy": 6454,
      "eager": 6455,
      "##onic": 6456,
      "stella": 6457,
      "exists": 6458,
      "adverse": 6459,
      "anti": 6460,
      "sudan": 6461,
      "sunni": 6462,
      "obstacles": 6463,
      "oly": 6464,
      "yen": 6465,
      "##depend": 6466,
      "advers": 6467,
      "recall": 6468,
      "##iev": 6469,
      "##icted": 6470,
      "confident": 6471,
      "severely": 6472,
      "leonard": 6473,
      "sonja": 6474,
      "analysts": 6475,
      "sdgs": 6476,
      "olymp": 6477,
      "jin": 6478,
      "##energy": 6479,
      "god": 6480,
      "impressive": 6481,
      "disorder": 6482,
      "regina": 6483,
      "eleni": 6484,
      "##eping": 6485,
      "monopoly": 6486,
      "flight": 6487,
      "insecurity": 6488,
      "divisions": 6489,
      "construct": 6490,
      "mira": 6491,
      "teachers": 6492,
      "bankruptcy": 6493,
      "retirement": 6494,
      "gar": 6495,
      "##iterr": 6496,
      "chile": 6497,
      "elli": 6498,
      "background": 6499,
      "continents": 6500,
      "arrest": 6501,
      "enlargement": 6502,
      "corinna": 6503,
      "kids": 6504,
      "tit": 6505,
      "##inform": 6506,
      "dress": 6507,
      "greta": 6508,
      "civilians": 6509,
      "malays": 6510,
      "appreciation": 6511,
      "reputation": 6512,
      "dangers": 6513,
      "tri": 6514,
      "risen": 6515,
      "entit": 6516,
      "prevention": 6517,
      "panel": 6518,
      "philosoph": 6519,
      "sophisticated": 6520,
      "enthus": 6521,
      "##15": 6522,
      "note": 6523,
      "notice": 6524,
      "justified": 6525,
      "assist": 6526,
      "arguing": 6527,
      "ava": 6528,
      "labour": 6529,
      "breakfast": 6530,
      "stayed": 6531,
      "egypts": 6532,
      "conservatives": 6533,
      "dragh": 6534,
      "symptom": 6535,
      "tree": 6536,
      "stated": 6537,
      "##opard": 6538,
      "##odes": 6539,
      "consp": 6540,
      "repression": 6541,
      "reliance": 6542,
      "##ictions": 6543,
      "rightly": 6544,
      "boys": 6545,
      "moves": 6546,
      "greatly": 6547,
      "inflationary": 6548,
      "campaigns": 6549,
      "improvement": 6550,
      "engineering": 6551,
      "olivia": 6552,
      "phenomenon": 6553,
      "wear": 6554,
      "##ifies": 6555,
      "iris": 6556,
      "approved": 6557,
      "antib": 6558,
      "consequence": 6559,
      "evelyn": 6560,
      "ther": 6561,
      "##eria": 6562,
      "underest": 6563,
      "damaging": 6564,
      "fueling": 6565,
      "##irt": 6566,
      "marie": 6567,
      "lasting": 6568,
      "prominent": 6569,
      "moritz": 6570,
      "nonpro": 6571,
      "introduce": 6572,
      "google": 6573,
      "sabrina": 6574,
      "links": 6575,
      "residents": 6576,
      "meg": 6577,
      "verena": 6578,
      "guess": 6579,
      "strengthened": 6580,
      "mirella": 6581,
      "master": 6582,
      "##rant": 6583,
      "##stan": 6584,
      "chain": 6585,
      "trap": 6586,
      "##berg": 6587,
      "flu": 6588,
      "judges": 6589,
      "appreciate": 6590,
      "concentrated": 6591,
      "oskar": 6592,
      "unrest": 6593,
      "annabelle": 6594,
      "rice": 6595,
      "##itter": 6596,
      "##ashing": 6597,
      "concess": 6598,
      "ham": 6599,
      "disastr": 6600,
      "hoped": 6601,
      "##born": 6602,
      "livelihood": 6603,
      "amelie": 6604,
      "document": 6605,
      "fulfill": 6606,
      "katrin": 6607,
      "unn": 6608,
      "extract": 6609,
      "resem": 6610,
      "component": 6611,
      "balk": 6612,
      "involving": 6613,
      "experiencing": 6614,
      "apolog": 6615,
      "absolute": 6616,
      "greenhousegas": 6617,
      "categ": 6618,
      "taught": 6619,
      "unit": 6620,
      "humanrights": 6621,
      "pakistans": 6622,
      "dominance": 6623,
      "mobilize": 6624,
      "rail": 6625,
      "##hel": 6626,
      "##me": 6627,
      "##bod": 6628,
      "##osition": 6629,
      "##ago": 6630,
      "spur": 6631,
      "regis": 6632,
      "delivery": 6633,
      "##iciary": 6634,
      "##debt": 6635,
      "jeopard": 6636,
      "kid": 6637,
      "##erce": 6638,
      "forth": 6639,
      "arbit": 6640,
      "eval": 6641,
      "belar": 6642,
      "accountable": 6643,
      "cypr": 6644,
      "naval": 6645,
      "zoe": 6646,
      "##ecution": 6647,
      "forese": 6648,
      "haven": 6649,
      "myth": 6650,
      "features": 6651,
      "deploy": 6652,
      "constitu": 6653,
      "unemployed": 6654,
      "alongside": 6655,
      "susanne": 6656,
      "employers": 6657,
      "release": 6658,
      "jur": 6659,
      "print": 6660,
      "spect": 6661,
      "##integr": 6662,
      "backing": 6663,
      "admitted": 6664,
      "distingu": 6665,
      "excuse": 6666,
      "transformed": 6667,
      "indicators": 6668,
      "cells": 6669,
      "230": 6670,
      "##rage": 6671,
      "##point": 6672,
      "##aise": 6673,
      "ate": 6674,
      "seats": 6675,
      "##oken": 6676,
      "##iously": 6677,
      "talent": 6678,
      "division": 6679,
      "avoiding": 6680,
      "oligarch": 6681,
      "tens": 6682,
      "##lash": 6683,
      "##uity": 6684,
      "forever": 6685,
      "##owed": 6686,
      "web": 6687,
      "intention": 6688,
      "driver": 6689,
      "1991": 6690,
      "iraqs": 6691,
      "requiring": 6692,
      "occasion": 6693,
      "fairly": 6694,
      "expertise": 6695,
      "neighboring": 6696,
      "##holder": 6697,
      "uks": 6698,
      "overt": 6699,
      "drivers": 6700,
      "provisions": 6701,
      "turns": 6702,
      "falls": 6703,
      "drawing": 6704,
      "panic": 6705,
      "judge": 6706,
      "##perform": 6707,
      "catastrophe": 6708,
      "consolidation": 6709,
      "kar": 6710,
      "tib": 6711,
      "##run": 6712,
      "generous": 6713,
      "signal": 6714,
      "estate": 6715,
      "influential": 6716,
      "fellow": 6717,
      "amelia": 6718,
      "gaining": 6719,
      "beat": 6720,
      "impr": 6721,
      "outright": 6722,
      "backlash": 6723,
      "restoring": 6724,
      "poorly": 6725,
      "islands": 6726,
      "egyptian": 6727,
      "enjoyed": 6728,
      "lowcarbon": 6729,
      "dilem": 6730,
      "bos": 6731,
      "##national": 6732,
      "##zed": 6733,
      "##thy": 6734,
      "brand": 6735,
      "mah": 6736,
      "payment": 6737,
      "statistics": 6738,
      "connected": 6739,
      "flat": 6740,
      "details": 6741,
      "vulnerability": 6742,
      "##interest": 6743,
      "doctrine": 6744,
      "cul": 6745,
      "element": 6746,
      "##let": 6747,
      "##oms": 6748,
      "##apital": 6749,
      "finish": 6750,
      "compelling": 6751,
      "floor": 6752,
      "periphery": 6753,
      "zeal": 6754,
      "##amb": 6755,
      "indirect": 6756,
      "##iang": 6757,
      "repair": 6758,
      "workforce": 6759,
      "flag": 6760,
      "talked": 6761,
      "deleg": 6762,
      "adopting": 6763,
      "represented": 6764,
      "borrowers": 6765,
      "confronting": 6766,
      "tariff": 6767,
      "mounting": 6768,
      "reagan": 6769,
      "marine": 6770,
      "##umph": 6771,
      "assumption": 6772,
      "targeting": 6773,
      "hotel": 6774,
      "catastrophic": 6775,
      "schemes": 6776,
      "##mosphere": 6777,
      "nix": 6778,
      "tom": 6779,
      "shadow": 6780,
      "enrich": 6781,
      "atmosphere": 6782,
      "##anges": 6783,
      "embraced": 6784,
      "inclusion": 6785,
      "nutrition": 6786,
      "nathan": 6787,
      "thail": 6788,
      "##vez": 6789,
      "struck": 6790,
      "pla": 6791,
      "invited": 6792,
      "whenever": 6793,
      "appe": 6794,
      "internationally": 6795,
      "deserve": 6796,
      "##ikes": 6797,
      "attempting": 6798,
      "##yearold": 6799,
      "expenditure": 6800,
      "perpet": 6801,
      "burdens": 6802,
      "fan": 6803,
      "##zero": 6804,
      "##erent": 6805,
      "##areness": 6806,
      "##quality": 6807,
      "finances": 6808,
      "remove": 6809,
      "milk": 6810,
      "predictable": 6811,
      "piece": 6812,
      "##ooth": 6813,
      "##lav": 6814,
      "##inction": 6815,
      "shortages": 6816,
      "##luscon": 6817,
      "tennis": 6818,
      "drawn": 6819,
      "fifth": 6820,
      "chose": 6821,
      "##ums": 6822,
      "uphold": 6823,
      "anybody": 6824,
      "existence": 6825,
      "earthqu": 6826,
      "foster": 6827,
      "##ihad": 6828,
      "triumph": 6829,
      "supports": 6830,
      "retain": 6831,
      "funct": 6832,
      "berluscon": 6833,
      "compensation": 6834,
      "tibet": 6835,
      "bon": 6836,
      "cas": 6837,
      "##oy": 6838,
      "wash": 6839,
      "resent": 6840,
      "resign": 6841,
      "##ubar": 6842,
      "##print": 6843,
      "seeks": 6844,
      "citizen": 6845,
      "dispute": 6846,
      "discussed": 6847,
      "erdoan": 6848,
      "rock": 6849,
      "##inger": 6850,
      "beach": 6851,
      "assault": 6852,
      "genoc": 6853,
      "richer": 6854,
      "adoption": 6855,
      "familiar": 6856,
      "implicit": 6857,
      "kyoto": 6858,
      "##bul": 6859,
      "stark": 6860,
      "##ighted": 6861,
      "subm": 6862,
      "mortality": 6863,
      "champion": 6864,
      "reluctant": 6865,
      "architect": 6866,
      "65": 6867,
      "fought": 6868,
      "pacific": 6869,
      "sdr": 6870,
      "##fr": 6871,
      "unre": 6872,
      "unle": 6873,
      "closing": 6874,
      "ethical": 6875,
      "disruption": 6876,
      "sensible": 6877,
      "reconstruction": 6878,
      "##iences": 6879,
      "##nel": 6880,
      "crypt": 6881,
      "sounds": 6882,
      "##general": 6883,
      "eliminating": 6884,
      "##lers": 6885,
      "unus": 6886,
      "unexp": 6887,
      "##ounds": 6888,
      "infect": 6889,
      "define": 6890,
      "drag": 6891,
      "##wards": 6892,
      "lowest": 6893,
      "pandemics": 6894,
      "visible": 6895,
      "deny": 6896,
      "gradual": 6897,
      "resilient": 6898,
      "deposit": 6899,
      "cp": 6900,
      "eld": 6901,
      "holl": 6902,
      "nerv": 6903,
      "##ighter": 6904,
      "##change": 6905,
      "commissions": 6906,
      "coher": 6907,
      "feature": 6908,
      "pressing": 6909,
      "geograph": 6910,
      "##oxide": 6911,
      "investigation": 6912,
      "temperature": 6913,
      "temperatures": 6914,
      "monday": 6915,
      "disastrous": 6916,
      "##ek": 6917,
      "##fire": 6918,
      "input": 6919,
      "##uced": 6920,
      "coinc": 6921,
      "quot": 6922,
      "##price": 6923,
      "deput": 6924,
      "delivering": 6925,
      "jihad": 6926,
      "md": 6927,
      "##za": 6928,
      "##utely": 6929,
      "loves": 6930,
      "aftern": 6931,
      "surf": 6932,
      "contributing": 6933,
      "purposes": 6934,
      "##itzer": 6935,
      "football": 6936,
      "birthday": 6937,
      "waters": 6938,
      "gross": 6939,
      "hug": 6940,
      "##rons": 6941,
      "##vest": 6942,
      "polio": 6943,
      "amend": 6944,
      "indig": 6945,
      "accession": 6946,
      "privacy": 6947,
      "extremists": 6948,
      "receiving": 6949,
      "lux": 6950,
      "multilateralism": 6951,
      "characterized": 6952,
      "motivated": 6953,
      "safeguard": 6954,
      "hell": 6955,
      "mubar": 6956,
      "fraud": 6957,
      "attitudes": 6958,
      "sched": 6959,
      "projected": 6960,
      "color": 6961,
      "acceptable": 6962,
      "negotiated": 6963,
      "##beit": 6964,
      "protectionist": 6965,
      "translate": 6966,
      "preparing": 6967,
      "bicycle": 6968,
      "34": 6969,
      "36": 6970,
      "##mony": 6971,
      "toxic": 6972,
      "stuck": 6973,
      "align": 6974,
      "cool": 6975,
      "slower": 6976,
      "ministry": 6977,
      "numerous": 6978,
      "denied": 6979,
      "resolved": 6980,
      "prolonged": 6981,
      "##lec": 6982,
      "##oration": 6983,
      "manif": 6984,
      "##eph": 6985,
      "refuse": 6986,
      "blair": 6987,
      "1998": 6988,
      "explains": 6989,
      "politician": 6990,
      "pursuit": 6991,
      "reinforce": 6992,
      "mortgages": 6993,
      "involvement": 6994,
      "village": 6995,
      "sund": 6996,
      "##lass": 6997,
      "degr": 6998,
      "league": 6999,
      "expos": 7000,
      "clash": 7001,
      "actively": 7002,
      "instr": 7003,
      "farright": 7004,
      "headed": 7005,
      "ambition": 7006,
      "indicate": 7007,
      "awareness": 7008,
      "unexpected": 7009,
      "ath": 7010,
      "##wa": 7011,
      "##eshold": 7012,
      "complement": 7013,
      "threshold": 7014,
      "adding": 7015,
      "integrity": 7016,
      "syrias": 7017,
      "drinking": 7018,
      "honor": 7019,
      "unnecess": 7020,
      "31": 7021,
      "fields": 7022,
      "##fare": 7023,
      "##eton": 7024,
      "dioxide": 7025,
      "remote": 7026,
      "laure": 7027,
      "ordered": 7028,
      "missiles": 7029,
      "popularity": 7030,
      "houses": 7031,
      "code": 7032,
      "fishing": 7033,
      "##hand": 7034,
      "abe": 7035,
      "advert": 7036,
      "facto": 7037,
      "deepening": 7038,
      "err": 7039,
      "worrying": 7040,
      "orders": 7041,
      "superior": 7042,
      "afternoon": 7043,
      "giant": 7044,
      "wine": 7045,
      "##icks": 7046,
      "albeit": 7047,
      "unch": 7048,
      "fruit": 7049,
      "orthodox": 7050,
      "infections": 7051,
      "regular": 7052,
      "guaranteed": 7053,
      "voices": 7054,
      "pledged": 7055,
      "29": 7056,
      "tends": 7057,
      "##pan": 7058,
      "##get": 7059,
      "##icated": 7060,
      "weigh": 7061,
      "##cher": 7062,
      "marsh": 7063,
      "breaking": 7064,
      "raw": 7065,
      "freetr": 7066,
      "sympath": 7067,
      "striking": 7068,
      "tactics": 7069,
      "perception": 7070,
      "belarus": 7071,
      "##ini": 7072,
      "##roll": 7073,
      "unst": 7074,
      "##echn": 7075,
      "generating": 7076,
      "foreigners": 7077,
      "attacked": 7078,
      "teleph": 7079,
      "thousand": 7080,
      "prisoners": 7081,
      "prosecut": 7082,
      "alien": 7083,
      "##itely": 7084,
      "forests": 7085,
      "##ounced": 7086,
      "extr": 7087,
      "191": 7088,
      "famously": 7089,
      "switzer": 7090,
      "favorable": 7091,
      "experiences": 7092,
      "aspects": 7093,
      "comparison": 7094,
      "suicide": 7095,
      "proclaim": 7096,
      "pocket": 7097,
      "rome": 7098,
      "sets": 7099,
      "##alities": 7100,
      "##asive": 7101,
      "amid": 7102,
      "wests": 7103,
      "achievement": 7104,
      "circle": 7105,
      "horiz": 7106,
      "hospitals": 7107,
      "definition": 7108,
      "symbol": 7109,
      "##connected": 7110,
      "catholic": 7111,
      "theor": 7112,
      "enfor": 7113,
      "sequ": 7114,
      "laid": 7115,
      "##ikh": 7116,
      "directed": 7117,
      "dogs": 7118,
      "kenya": 7119,
      "lying": 7120,
      "##wr": 7121,
      "onto": 7122,
      "deem": 7123,
      "##okes": 7124,
      "admit": 7125,
      "harsh": 7126,
      "reversed": 7127,
      "trials": 7128,
      "colonial": 7129,
      "dignity": 7130,
      "juris": 7131,
      "freetrade": 7132,
      "van": 7133,
      "chosen": 7134,
      "lever": 7135,
      "regularly": 7136,
      "homework": 7137,
      "produces": 7138,
      "distur": 7139,
      "excell": 7140,
      "salv": 7141,
      "dynamics": 7142,
      "arrangement": 7143,
      "tightening": 7144,
      "harvard": 7145,
      "officers": 7146,
      "bench": 7147,
      "asleep": 7148,
      "empty": 7149,
      "informed": 7150,
      "extremism": 7151,
      "princeton": 7152,
      "optimistic": 7153,
      "stabilize": 7154,
      "cuba": 7155,
      "1000": 7156,
      "##water": 7157,
      "##atism": 7158,
      "wheres": 7159,
      "pricing": 7160,
      "indebted": 7161,
      "arrive": 7162,
      "##anean": 7163,
      "software": 7164,
      "computers": 7165,
      "inefficient": 7166,
      "persuade": 7167,
      "bread": 7168,
      "ticket": 7169,
      "vide": 7170,
      "##imb": 7171,
      "##ocrats": 7172,
      "phot": 7173,
      "forgotten": 7174,
      "holland": 7175,
      "indigenous": 7176,
      "tast": 7177,
      "trick": 7178,
      "##aming": 7179,
      "calcul": 7180,
      "newspapers": 7181,
      "manipulation": 7182,
      "woods": 7183,
      "brown": 7184,
      "hide": 7185,
      "umb": 7186,
      "acute": 7187,
      "assass": 7188,
      "begins": 7189,
      "principal": 7190,
      "assuming": 7191,
      "##world": 7192,
      "instrument": 7193,
      "confirmed": 7194,
      "livelihoods": 7195,
      "names": 7196,
      "##cles": 7197,
      "##anmar": 7198,
      "##estation": 7199,
      "hait": 7200,
      "imply": 7201,
      "plumm": 7202,
      "##anged": 7203,
      "mao": 7204,
      "realities": 7205,
      "irish": 7206,
      "inex": 7207,
      "distance": 7208,
      "comparable": 7209,
      "communications": 7210,
      "drove": 7211,
      "adaptation": 7212,
      "accelerating": 7213,
      "hurric": 7214,
      "ga": 7215,
      "exporters": 7216,
      "poison": 7217,
      "annex": 7218,
      "manufactur": 7219,
      "traditionally": 7220,
      "legislative": 7221,
      "ba": 7222,
      "gard": 7223,
      "ramp": 7224,
      "##case": 7225,
      "##zing": 7226,
      "##usible": 7227,
      "corner": 7228,
      "shortfall": 7229,
      "illustr": 7230,
      "##lessly": 7231,
      "keeps": 7232,
      "existential": 7233,
      "optimism": 7234,
      "lenders": 7235,
      "##cription": 7236,
      "depreciation": 7237,
      "bull": 7238,
      "dys": 7239,
      "lit": 7240,
      "##oo": 7241,
      "##estr": 7242,
      "chances": 7243,
      "recru": 7244,
      "natos": 7245,
      "territories": 7246,
      "disruptions": 7247,
      "hurry": 7248,
      "da": 7249,
      "owe": 7250,
      "rally": 7251,
      "##lins": 7252,
      "unh": 7253,
      "emman": 7254,
      "providers": 7255,
      "difficulty": 7256,
      "argentinas": 7257,
      "interview": 7258,
      "channels": 7259,
      "racial": 7260,
      "innocent": 7261,
      "philippines": 7262,
      "umbre": 7263,
      "fro": 7264,
      "tail": 7265,
      "##ilib": 7266,
      "##quarters": 7267,
      "intense": 7268,
      "periods": 7269,
      "conven": 7270,
      "calm": 7271,
      "##exchange": 7272,
      "serbia": 7273,
      "##iterranean": 7274,
      "dir": 7275,
      "gaps": 7276,
      "rent": 7277,
      "##building": 7278,
      "##eding": 7279,
      "cohes": 7280,
      "demanded": 7281,
      "roads": 7282,
      "proliferation": 7283,
      "prevailing": 7284,
      "kenned": 7285,
      "unconventional": 7286,
      "portr": 7287,
      "ebola": 7288,
      "nervous": 7289,
      "##vis": 7290,
      "##wi": 7291,
      "isis": 7292,
      "somehow": 7293,
      "valid": 7294,
      "cooperate": 7295,
      "emphasized": 7296,
      "weaknesses": 7297,
      "entrench": 7298,
      "emmanuel": 7299,
      "##tor": 7300,
      "chic": 7301,
      "##aker": 7302,
      "reth": 7303,
      "treaties": 7304,
      "shifted": 7305,
      "tempt": 7306,
      "responding": 7307,
      "executives": 7308,
      "amazon": 7309,
      "millennium": 7310,
      "ease": 7311,
      "ring": 7312,
      "##offs": 7313,
      "inability": 7314,
      "endors": 7315,
      "naturally": 7316,
      "liberty": 7317,
      "roman": 7318,
      "flawed": 7319,
      "foresee": 7320,
      "hers": 7321,
      "rush": 7322,
      "##cut": 7323,
      "##gos": 7324,
      "toll": 7325,
      "anal": 7326,
      "##essing": 7327,
      "invent": 7328,
      "grant": 7329,
      "feas": 7330,
      "claiming": 7331,
      "modernization": 7332,
      "entering": 7333,
      "insurg": 7334,
      "renewables": 7335,
      "2022": 7336,
      "elev": 7337,
      "discovered": 7338,
      "ratings": 7339,
      "veto": 7340,
      "accurate": 7341,
      "professionals": 7342,
      "antisem": 7343,
      "named": 7344,
      "chvez": 7345,
      "africans": 7346,
      "classes": 7347,
      "denmark": 7348,
      "donor": 7349,
      "advocate": 7350,
      "horse": 7351,
      "destructive": 7352,
      "husse": 7353,
      "explicitly": 7354,
      "nazi": 7355,
      "cabin": 7356,
      "jurisd": 7357,
      "33": 7358,
      "dying": 7359,
      "doses": 7360,
      "##iop": 7361,
      "##11": 7362,
      "beer": 7363,
      "pregn": 7364,
      "attitude": 7365,
      "mediterranean": 7366,
      "extensive": 7367,
      "guys": 7368,
      "halt": 7369,
      "lacking": 7370,
      "volume": 7371,
      "brazils": 7372,
      "pakistani": 7373,
      "veget": 7374,
      "typical": 7375,
      "frequent": 7376,
      "grave": 7377,
      "adults": 7378,
      "sacrif": 7379,
      "bosn": 7380,
      "hub": 7381,
      "mont": 7382,
      "##fit": 7383,
      "##estate": 7384,
      "unequ": 7385,
      "##inej": 7386,
      "defending": 7387,
      "rooted": 7388,
      "likelihood": 7389,
      "deployed": 7390,
      "considerably": 7391,
      "founded": 7392,
      "skilled": 7393,
      "respectively": 7394,
      "judgment": 7395,
      "locked": 7396,
      "professor": 7397,
      "intervene": 7398,
      "overseas": 7399,
      "binding": 7400,
      "##throp": 7401,
      "haw": 7402,
      "libr": 7403,
      "##looking": 7404,
      "interdepend": 7405,
      "discont": 7406,
      "collateral": 7407,
      "career": 7408,
      "southeast": 7409,
      "sensitive": 7410,
      "canadian": 7411,
      "controversial": 7412,
      "tunisia": 7413,
      "cart": 7414,
      "hidden": 7415,
      "wise": 7416,
      "incumb": 7417,
      "soccer": 7418,
      "loved": 7419,
      "demonstrations": 7420,
      "doubts": 7421,
      "conclude": 7422,
      "settlements": 7423,
      "umbrella": 7424,
      "##adjust": 7425,
      "stick": 7426,
      "evil": 7427,
      "disintegr": 7428,
      "spot": 7429,
      "relax": 7430,
      "feelings": 7431,
      "macrons": 7432,
      "telec": 7433,
      "dominate": 7434,
      "premium": 7435,
      "advisers": 7436,
      "accelerated": 7437,
      "rebalancing": 7438,
      "##information": 7439,
      "switzerland": 7440,
      "habit": 7441,
      "##occ": 7442,
      "entry": 7443,
      "abol": 7444,
      "##ption": 7445,
      "competing": 7446,
      "1992": 7447,
      "##class": 7448,
      "inspired": 7449,
      "madrid": 7450,
      "crops": 7451,
      "cens": 7452,
      "##anes": 7453,
      "##omin": 7454,
      "genes": 7455,
      "imported": 7456,
      "foreignexchange": 7457,
      "arabs": 7458,
      "vaccination": 7459,
      "hostile": 7460,
      "christmas": 7461,
      "commodities": 7462,
      "judicial": 7463,
      "##tic": 7464,
      "exha": 7465,
      "fried": 7466,
      "sees": 7467,
      "components": 7468,
      "scre": 7469,
      "##athers": 7470,
      "considerations": 7471,
      "1980": 7472,
      "covered": 7473,
      "judiciary": 7474,
      "husband": 7475,
      "anxiety": 7476,
      "procedures": 7477,
      "exposure": 7478,
      "##uated": 7479,
      "##eck": 7480,
      "##imm": 7481,
      "##aying": 7482,
      "##osm": 7483,
      "implying": 7484,
      "##outs": 7485,
      "funded": 7486,
      "enhanced": 7487,
      "district": 7488,
      "deposits": 7489,
      "bills": 7490,
      "fly": 7491,
      "filled": 7492,
      "gi": 7493,
      "g8": 7494,
      "tan": 7495,
      "##orage": 7496,
      "smooth": 7497,
      "reduces": 7498,
      "ultr": 7499,
      "observed": 7500,
      "dysfun": 7501,
      "pull": 7502,
      "inject": 7503,
      "looming": 7504,
      "contraction": 7505,
      "antim": 7506,
      "suspic": 7507,
      "tendency": 7508,
      "dynamism": 7509,
      "relying": 7510,
      "affecting": 7511,
      "concentration": 7512,
      "contemporary": 7513,
      "orbn": 7514,
      "dilemma": 7515,
      "kurd": 7516,
      "upp": 7517,
      "stun": 7518,
      "##istical": 7519,
      "##grade": 7520,
      "serves": 7521,
      "starts": 7522,
      "findings": 7523,
      "##ophob": 7524,
      "sites": 7525,
      "distant": 7526,
      "##ference": 7527,
      "cope": 7528,
      "allocation": 7529,
      "enacted": 7530,
      "erupted": 7531,
      "38": 7532,
      "400": 7533,
      "bip": 7534,
      "cake": 7535,
      "mush": 7536,
      "sale": 7537,
      "##cend": 7538,
      "##zh": 7539,
      "##mans": 7540,
      "##alf": 7541,
      "plun": 7542,
      "##ached": 7543,
      "fired": 7544,
      "##assed": 7545,
      "safer": 7546,
      "##industr": 7547,
      "problematic": 7548,
      "protocol": 7549,
      "constructive": 7550,
      "listening": 7551,
      "davos": 7552,
      "revolutions": 7553,
      "lawyer": 7554,
      "ecosystems": 7555,
      "hydro": 7556,
      "ancient": 7557,
      "incorpor": 7558,
      "ase": 7559,
      "deng": 7560,
      "rw": 7561,
      "##iat": 7562,
      "##inating": 7563,
      "alar": 7564,
      "yours": 7565,
      "blamed": 7566,
      "criteria": 7567,
      "constantly": 7568,
      "accordingly": 7569,
      "electorate": 7570,
      "charged": 7571,
      "magnitude": 7572,
      "deputy": 7573,
      "##che": 7574,
      "##ells": 7575,
      "sports": 7576,
      "buildings": 7577,
      "violations": 7578,
      "camps": 7579,
      "answers": 7580,
      "highlighted": 7581,
      "lawyers": 7582,
      "netanyahu": 7583,
      "genocide": 7584,
      "##industrial": 7585,
      "tub": 7586,
      "unpr": 7587,
      "overth": 7588,
      "revive": 7589,
      "desperately": 7590,
      "officially": 7591,
      "slowing": 7592,
      "silence": 7593,
      "convergence": 7594,
      "##usalem": 7595,
      "arbitr": 7596,
      "infectious": 7597,
      "##sen": 7598,
      "shoot": 7599,
      "##ivals": 7600,
      "##emocratic": 7601,
      "betr": 7602,
      "assad": 7603,
      "serving": 7604,
      "equitable": 7605,
      "declines": 7606,
      "cease": 7607,
      "criticized": 7608,
      "ranks": 7609,
      "petro": 7610,
      "scarc": 7611,
      "jerusalem": 7612,
      "##eas": 7613,
      "##with": 7614,
      "##itr": 7615,
      "unknown": 7616,
      "abuses": 7617,
      "beneficial": 7618,
      "ratios": 7619,
      "dismant": 7620,
      "strikes": 7621,
      "mixed": 7622,
      "reinforced": 7623,
      "32": 7624,
      "tons": 7625,
      "vik": 7626,
      "##larg": 7627,
      "##accept": 7628,
      "stret": 7629,
      "pride": 7630,
      "##ami": 7631,
      "arise": 7632,
      "decarbon": 7633,
      "regret": 7634,
      "##umptions": 7635,
      "liked": 7636,
      "challenged": 7637,
      "airport": 7638,
      "trusted": 7639,
      "attempted": 7640,
      "rebuild": 7641,
      "occupied": 7642,
      "volatile": 7643,
      "namely": 7644,
      "voluntary": 7645,
      "zimb": 7646,
      "anch": 7647,
      "##essim": 7648,
      "lev": 7649,
      "upcoming": 7650,
      "worker": 7651,
      "joining": 7652,
      "controll": 7653,
      "austria": 7654,
      "traject": 7655,
      "bolster": 7656,
      "commentators": 7657,
      "irrele": 7658,
      "tonight": 7659,
      "earthquake": 7660,
      "zimbab": 7661,
      "cd": 7662,
      "mart": 7663,
      "trem": 7664,
      "##ule": 7665,
      "##oca": 7666,
      "polands": 7667,
      "infection": 7668,
      "quit": 7669,
      "1994": 7670,
      "switch": 7671,
      "differently": 7672,
      "sentence": 7673,
      "isolated": 7674,
      "crowd": 7675,
      "announcement": 7676,
      "vary": 7677,
      "##aning": 7678,
      "##uled": 7679,
      "haz": 7680,
      "resur": 7681,
      "formed": 7682,
      "richard": 7683,
      "weekend": 7684,
      "distributed": 7685,
      "teams": 7686,
      "##driven": 7687,
      "publicsector": 7688,
      "punishment": 7689,
      "restaurant": 7690,
      "chicago": 7691,
      "gates": 7692,
      "loud": 7693,
      "rot": 7694,
      "##vak": 7695,
      "##uan": 7696,
      "##ounder": 7697,
      "liabilities": 7698,
      "contained": 7699,
      "somewhere": 7700,
      "shortage": 7701,
      "senator": 7702,
      "kremlins": 7703,
      "sufficiently": 7704,
      "##addaf": 7705,
      "parallel": 7706,
      "deregulation": 7707,
      "analog": 7708,
      "hall": 7709,
      "qat": 7710,
      "dire": 7711,
      "insol": 7712,
      "studied": 7713,
      "richest": 7714,
      "absor": 7715,
      "precip": 7716,
      "ethiop": 7717,
      "silent": 7718,
      "appointed": 7719,
      "##backed": 7720,
      "ineffective": 7721,
      "melt": 7722,
      "steady": 7723,
      "pipeline": 7724,
      "antibiot": 7725,
      "pessim": 7726,
      "whe": 7727,
      "abortion": 7728,
      "investor": 7729,
      "auth": 7730,
      "delhi": 7731,
      "laborm": 7732,
      "hoping": 7733,
      "civilization": 7734,
      "damaged": 7735,
      "biological": 7736,
      "garden": 7737,
      "bin": 7738,
      "cards": 7739,
      "mism": 7740,
      "##yn": 7741,
      "##makers": 7742,
      "##arked": 7743,
      "##olas": 7744,
      "evening": 7745,
      "highs": 7746,
      "miles": 7747,
      "dispos": 7748,
      "emotional": 7749,
      "lobb": 7750,
      "geneva": 7751,
      "deterrence": 7752,
      "labormarket": 7753,
      "waves": 7754,
      "##lock": 7755,
      "##olit": 7756,
      "##ounce": 7757,
      "shel": 7758,
      "feet": 7759,
      "accounted": 7760,
      "burst": 7761,
      "trees": 7762,
      "watched": 7763,
      "confronted": 7764,
      "mountain": 7765,
      "sanitation": 7766,
      "##ommunist": 7767,
      "ngos": 7768,
      "##itate": 7769,
      "##isc": 7770,
      "storage": 7771,
      "unaccept": 7772,
      "pron": 7773,
      "shan": 7774,
      "##ams": 7775,
      "marx": 7776,
      "flour": 7777,
      "norway": 7778,
      "equilib": 7779,
      "simpl": 7780,
      "massac": 7781,
      "understandable": 7782,
      "##ushch": 7783,
      "ahmad": 7784,
      "checks": 7785,
      "pledge": 7786,
      "overwhelm": 7787,
      "##together": 7788,
      "hillary": 7789,
      "bund": 7790,
      "bio": 7791,
      "native": 7792,
      "yel": 7793,
      "##like": 7794,
      "altogether": 7795,
      "presum": 7796,
      "suspect": 7797,
      "describe": 7798,
      "pensions": 7799,
      "##mal": 7800,
      "trag": 7801,
      "cancel": 7802,
      "intermed": 7803,
      "craz": 7804,
      "clar": 7805,
      "dece": 7806,
      "##orship": 7807,
      "assumptions": 7808,
      "successes": 7809,
      "##iques": 7810,
      "repeat": 7811,
      "tasks": 7812,
      "forecasts": 7813,
      "cameron": 7814,
      "landsc": 7815,
      "flee": 7816,
      "obtain": 7817,
      "colombia": 7818,
      "ech": 7819,
      "som": 7820,
      "##fund": 7821,
      "alleg": 7822,
      "##ocation": 7823,
      "bright": 7824,
      "irresp": 7825,
      "plane": 7826,
      "administrative": 7827,
      "gotten": 7828,
      "competitors": 7829,
      "defeated": 7830,
      "versus": 7831,
      "customs": 7832,
      "swimming": 7833,
      "1950s": 7834,
      "glasses": 7835,
      "losers": 7836,
      "reelection": 7837,
      "antisemit": 7838,
      "cabinet": 7839,
      "pays": 7840,
      "tab": 7841,
      "##inations": 7842,
      "##icism": 7843,
      "##akh": 7844,
      "abund": 7845,
      "##isms": 7846,
      "brink": 7847,
      "remed": 7848,
      "smoke": 7849,
      "##vedev": 7850,
      "##ovs": 7851,
      "affects": 7852,
      "boris": 7853,
      "returning": 7854,
      "accepting": 7855,
      "involves": 7856,
      "climat": 7857,
      "transmission": 7858,
      "viktor": 7859,
      "ko": 7860,
      "vicious": 7861,
      "##di": 7862,
      "##arma": 7863,
      "##eting": 7864,
      "sum": 7865,
      "##active": 7866,
      "applies": 7867,
      "refusal": 7868,
      "realestate": 7869,
      "sheet": 7870,
      "socially": 7871,
      "lowering": 7872,
      "##tracted": 7873,
      "deadly": 7874,
      "stakeholders": 7875,
      "hedge": 7876,
      "stalin": 7877,
      "shopping": 7878,
      "ghan": 7879,
      "tied": 7880,
      "##opular": 7881,
      "images": 7882,
      "suppl": 7883,
      "myanmar": 7884,
      "belg": 7885,
      "flowers": 7886,
      "follows": 7887,
      "feared": 7888,
      "##rium": 7889,
      "acceptance": 7890,
      "##arios": 7891,
      "maln": 7892,
      "medicines": 7893,
      "captured": 7894,
      "jinping": 7895,
      "unnecessary": 7896,
      "yelts": 7897,
      "sending": 7898,
      "##ych": 7899,
      "soaring": 7900,
      "plus": 7901,
      "acted": 7902,
      "medvedev": 7903,
      "privatization": 7904,
      "enables": 7905,
      "scenarios": 7906,
      "##archy": 7907,
      "dirty": 7908,
      "bother": 7909,
      "iv": 7910,
      "ride": 7911,
      "##soc": 7912,
      "##edict": 7913,
      "##olar": 7914,
      "advent": 7915,
      "roots": 7916,
      "languages": 7917,
      "beliefs": 7918,
      "rigid": 7919,
      "torture": 7920,
      "contagion": 7921,
      "37": 7922,
      "rd": 7923,
      "##yr": 7924,
      "forem": 7925,
      "style": 7926,
      "##igm": 7927,
      "alarm": 7928,
      "buff": 7929,
      "discred": 7930,
      "achievements": 7931,
      "representing": 7932,
      "promoted": 7933,
      "ignoring": 7934,
      "virtual": 7935,
      "picked": 7936,
      "tobacc": 7937,
      "supervis": 7938,
      "coherent": 7939,
      "unstable": 7940,
      "telephone": 7941,
      "cosm": 7942,
      "pian": 7943,
      "xis": 7944,
      "##rens": 7945,
      "##dated": 7946,
      "##itar": 7947,
      "##iration": 7948,
      "enlight": 7949,
      "plural": 7950,
      "##raft": 7951,
      "inflic": 7952,
      "retal": 7953,
      "divor": 7954,
      "skill": 7955,
      "150": 7956,
      "edge": 7957,
      "exploit": 7958,
      "film": 7959,
      "odds": 7960,
      "therap": 7961,
      "nixon": 7962,
      "yan": 7963,
      "##elated": 7964,
      "stan": 7965,
      "grid": 7966,
      "drunk": 7967,
      "retreat": 7968,
      "##199": 7969,
      "visvis": 7970,
      "inequalities": 7971,
      "conservation": 7972,
      "lifes": 7973,
      "##minded": 7974,
      "proof": 7975,
      "##uma": 7976,
      "branch": 7977,
      "basket": 7978,
      "monetarypolicy": 7979,
      "unpopular": 7980,
      "hitler": 7981,
      "intentions": 7982,
      "polarization": 7983,
      "yellow": 7984,
      "feasible": 7985,
      "unpredict": 7986,
      "tear": 7987,
      "##liferation": 7988,
      "##bond": 7989,
      "stol": 7990,
      "##imp": 7991,
      "alger": 7992,
      "seize": 7993,
      "intergovern": 7994,
      "desk": 7995,
      "treatments": 7996,
      "batt": 7997,
      "reflecting": 7998,
      "premature": 7999,
      "meantime": 8000,
      "monitor": 8001,
      "fundamentals": 8002,
      "application": 8003,
      "cooperative": 8004,
      "thailand": 8005,
      "intergovernmental": 8006,
      "kac": 8007,
      "ven": 8008,
      "##iations": 8009,
      "grab": 8010,
      "monopol": 8011,
      "factory": 8012,
      "discount": 8013,
      "freely": 8014,
      "swift": 8015,
      "determination": 8016,
      "1979": 8017,
      "ignor": 8018,
      "spreading": 8019,
      "departure": 8020,
      "utter": 8021,
      "redistribution": 8022,
      "foremost": 8023,
      "##overn": 8024,
      "##advant": 8025,
      "securing": 8026,
      "desirable": 8027,
      "handle": 8028,
      "##forward": 8029,
      "friendly": 8030,
      "eliminated": 8031,
      "scholars": 8032,
      "merg": 8033,
      "tpp": 8034,
      "##gor": 8035,
      "hav": 8036,
      "feels": 8037,
      "transnational": 8038,
      "generals": 8039,
      "charter": 8040,
      "cataly": 8041,
      "steadily": 8042,
      "surface": 8043,
      "shangh": 8044,
      "55": 8045,
      "ped": 8046,
      "roles": 8047,
      "sake": 8048,
      "disadvant": 8049,
      "##rav": 8050,
      "contest": 8051,
      "constrained": 8052,
      "speaker": 8053,
      "frameworks": 8054,
      "##onym": 8055,
      "harmful": 8056,
      "1945": 8057,
      "psychological": 8058,
      "scrut": 8059,
      "elder": 8060,
      "library": 8061,
      "ronald": 8062,
      "##ae": 8063,
      "##iracy": 8064,
      "##erson": 8065,
      "hab": 8066,
      "##china": 8067,
      "recessions": 8068,
      "royal": 8069,
      "whereby": 8070,
      "##erring": 8071,
      "protections": 8072,
      "significance": 8073,
      "liberals": 8074,
      "suggesting": 8075,
      "fiveyear": 8076,
      "adjustments": 8077,
      "tackling": 8078,
      "lobby": 8079,
      "nonproliferation": 8080,
      "tomorrow": 8081,
      "herself": 8082,
      "fier": 8083,
      "hur": 8084,
      "werent": 8085,
      "##icate": 8086,
      "noticed": 8087,
      "interference": 8088,
      "drives": 8089,
      "tempor": 8090,
      "selfd": 8091,
      "ambass": 8092,
      "mexican": 8093,
      "connection": 8094,
      "minimize": 8095,
      "machines": 8096,
      "confirm": 8097,
      "mathem": 8098,
      "deemed": 8099,
      "sle": 8100,
      "shall": 8101,
      "shaped": 8102,
      "arsen": 8103,
      "governed": 8104,
      "anyway": 8105,
      "signals": 8106,
      "guy": 8107,
      "recognizes": 8108,
      "recorded": 8109,
      "batter": 8110,
      "secretarygeneral": 8111,
      "margin": 8112,
      "absolutely": 8113,
      "supervision": 8114,
      "excluded": 8115,
      "pragmatic": 8116,
      "split": 8117,
      "cyprus": 8118,
      "pin": 8119,
      "##oliberal": 8120,
      "itll": 8121,
      "stakes": 8122,
      "##umn": 8123,
      "##achment": 8124,
      "request": 8125,
      "antid": 8126,
      "bailouts": 8127,
      "reconciliation": 8128,
      "malaysia": 8129,
      "concessions": 8130,
      "hight": 8131,
      "kur": 8132,
      "length": 8133,
      "##cp": 8134,
      "detailed": 8135,
      "constitute": 8136,
      "normally": 8137,
      "operational": 8138,
      "ceo": 8139,
      "edit": 8140,
      "precedent": 8141,
      "disappointed": 8142,
      "scandal": 8143,
      "reckless": 8144,
      "portfolio": 8145,
      "##adjusted": 8146,
      "tiny": 8147,
      "##iments": 8148,
      "proc": 8149,
      "chess": 8150,
      "##uster": 8151,
      "sole": 8152,
      "accus": 8153,
      "roose": 8154,
      "socialism": 8155,
      "arguably": 8156,
      "navig": 8157,
      "fertility": 8158,
      "aspirations": 8159,
      "laureate": 8160,
      "##society": 8161,
      "##orestation": 8162,
      "##eled": 8163,
      "##irac": 8164,
      "adher": 8165,
      "upward": 8166,
      "perv": 8167,
      "relies": 8168,
      "grass": 8169,
      "childhood": 8170,
      "guil": 8171,
      "1995": 8172,
      "civic": 8173,
      "eventual": 8174,
      "adviser": 8175,
      "##cker": 8176,
      "architecture": 8177,
      "roosevel": 8178,
      "pree": 8179,
      "relied": 8180,
      "gras": 8181,
      "##prom": 8182,
      "respected": 8183,
      "broadc": 8184,
      "merc": 8185,
      "unfold": 8186,
      "degrees": 8187,
      "enterprise": 8188,
      "bureaucracy": 8189,
      "movies": 8190,
      "lowcost": 8191,
      "asean": 8192,
      "tobacco": 8193,
      "tie": 8194,
      "##jud": 8195,
      "##ems": 8196,
      "enduring": 8197,
      "legally": 8198,
      "happiness": 8199,
      "complac": 8200,
      "speculative": 8201,
      "denial": 8202,
      "embarr": 8203,
      "bitter": 8204,
      "intellectuals": 8205,
      "carrying": 8206,
      "clinical": 8207,
      "draghi": 8208,
      "imprison": 8209,
      "stolen": 8210,
      "jose": 8211,
      "##izers": 8212,
      "abbas": 8213,
      "##acked": 8214,
      "##assing": 8215,
      "twitter": 8216,
      "##echange": 8217,
      "confused": 8218,
      "devoted": 8219,
      "classic": 8220,
      "dictator": 8221,
      "teaching": 8222,
      "surrounding": 8223,
      "interpretation": 8224,
      "predecessor": 8225,
      "plausible": 8226,
      "equilibrium": 8227,
      "crazy": 8228,
      "dance": 8229,
      "jong": 8230,
      "lon": 8231,
      "mr": 8232,
      "ranging": 8233,
      "tay": 8234,
      "##rug": 8235,
      "median": 8236,
      "cultures": 8237,
      "selfde": 8238,
      "misle": 8239,
      "understands": 8240,
      "brotherhood": 8241,
      "insisted": 8242,
      "camera": 8243,
      "lucky": 8244,
      "trajectory": 8245,
      "ahmadinej": 8246,
      "gift": 8247,
      "wolf": 8248,
      "zones": 8249,
      "fraction": 8250,
      "agents": 8251,
      "cra": 8252,
      "spends": 8253,
      "overlo": 8254,
      "##urrency": 8255,
      "##erry": 8256,
      "favored": 8257,
      "eaten": 8258,
      "disruptive": 8259,
      "convincing": 8260,
      "francis": 8261,
      "tolerance": 8262,
      "preferred": 8263,
      "oversight": 8264,
      "manufacturers": 8265,
      "controlling": 8266,
      "prox": 8267,
      "fright": 8268,
      "##izer": 8269,
      "partial": 8270,
      "scared": 8271,
      "belt": 8272,
      "freedoms": 8273,
      "bureaucratic": 8274,
      "##ukov": 8275,
      "diminished": 8276,
      "munic": 8277,
      "puzz": 8278,
      "##largest": 8279,
      "meltdown": 8280,
      "42": 8281,
      "lou": 8282,
      "om": 8283,
      "reun": 8284,
      "##endous": 8285,
      "impe": 8286,
      "impression": 8287,
      "approx": 8288,
      "followers": 8289,
      "engaging": 8290,
      "immense": 8291,
      "behave": 8292,
      "ukrainians": 8293,
      "totally": 8294,
      "parliaments": 8295,
      "tested": 8296,
      "diplomats": 8297,
      "squee": 8298,
      "fragment": 8299,
      "mosqu": 8300,
      "gathering": 8301,
      "dismissed": 8302,
      "predecessors": 8303,
      "##growth": 8304,
      "straightforward": 8305,
      "##armament": 8306,
      "shanghai": 8307,
      "bath": 8308,
      "pil": 8309,
      "vigor": 8310,
      "##fa": 8311,
      "##arra": 8312,
      "##uras": 8313,
      "##ima": 8314,
      "spoken": 8315,
      "##achev": 8316,
      "saf": 8317,
      "joke": 8318,
      "entities": 8319,
      "civilsociety": 8320,
      "##teen": 8321,
      "pleas": 8322,
      "staying": 8323,
      "counterp": 8324,
      "kham": 8325,
      "scarce": 8326,
      "functions": 8327,
      "berlusconi": 8328,
      "44": 8329,
      "##hy": 8330,
      "##rase": 8331,
      "injust": 8332,
      "##imated": 8333,
      "exagger": 8334,
      "interconnected": 8335,
      "implied": 8336,
      "indiff": 8337,
      "discret": 8338,
      "tells": 8339,
      "merit": 8340,
      "situations": 8341,
      "cop2": 8342,
      "urbanization": 8343,
      "##controlled": 8344,
      "##burg": 8345,
      "spectac": 8346,
      "gorb": 8347,
      "qaeda": 8348,
      "tension": 8349,
      "##eenth": 8350,
      "##uum": 8351,
      "##jan": 8352,
      "inhab": 8353,
      "grows": 8354,
      "cooking": 8355,
      "antitr": 8356,
      "founding": 8357,
      "recovered": 8358,
      "summers": 8359,
      "selfs": 8360,
      "indicates": 8361,
      "seldom": 8362,
      "reportedly": 8363,
      "collectively": 8364,
      "decentral": 8365,
      "tourism": 8366,
      "loyalty": 8367,
      "comfortable": 8368,
      "lockdowns": 8369,
      "warnings": 8370,
      "explosion": 8371,
      "excellent": 8372,
      "landscape": 8373,
      "guilty": 8374,
      "wwi": 8375,
      "##zens": 8376,
      "##fold": 8377,
      "trained": 8378,
      "##oslav": 8379,
      "##ervation": 8380,
      "democrat": 8381,
      "owned": 8382,
      "childrens": 8383,
      "illiberal": 8384,
      "##ups": 8385,
      "barr": 8386,
      "corporation": 8387,
      "employed": 8388,
      "girlfriend": 8389,
      "route": 8390,
      "hatred": 8391,
      "audience": 8392,
      "tsun": 8393,
      "khamene": 8394,
      "fake": 8395,
      "muse": 8396,
      "nord": 8397,
      "rum": 8398,
      "##backs": 8399,
      "##orse": 8400,
      "units": 8401,
      "##chain": 8402,
      "impover": 8403,
      "midst": 8404,
      "bret": 8405,
      "netzero": 8406,
      "halfcentury": 8407,
      "100000": 8408,
      "ironically": 8409,
      "exacerbated": 8410,
      "kennedy": 8411,
      "upper": 8412,
      "gorbachev": 8413,
      "ric": 8414,
      "##len": 8415,
      "##lights": 8416,
      "##ship": 8417,
      "##scale": 8418,
      "thin": 8419,
      "##inces": 8420,
      "##ione": 8421,
      "##urance": 8422,
      "##lobal": 8423,
      "consideration": 8424,
      "holdings": 8425,
      "attracted": 8426,
      "mutually": 8427,
      "documents": 8428,
      "asymm": 8429,
      "tribun": 8430,
      "##respond": 8431,
      "hegemony": 8432,
      "cryptoc": 8433,
      "yanukov": 8434,
      "##aba": 8435,
      "##ivate": 8436,
      "##unity": 8437,
      "spill": 8438,
      "warfare": 8439,
      "solely": 8440,
      "charles": 8441,
      "cyn": 8442,
      "waited": 8443,
      "mistaken": 8444,
      "embed": 8445,
      "journalist": 8446,
      "bombing": 8447,
      "distress": 8448,
      "perfectly": 8449,
      "unacceptable": 8450,
      "yanukovych": 8451,
      "kick": 8452,
      "##atible": 8453,
      "##abet": 8454,
      "soared": 8455,
      "longrun": 8456,
      "##prime": 8457,
      "secured": 8458,
      "##201": 8459,
      "sugar": 8460,
      "spreads": 8461,
      "dictionary": 8462,
      "resolving": 8463,
      "fatah": 8464,
      "symptoms": 8465,
      "inputs": 8466,
      "##leclass": 8467,
      "kurdish": 8468,
      "irrelevant": 8469,
      "irrespons": 8470,
      "climatechange": 8471,
      "43": 8472,
      "##got": 8473,
      "energ": 8474,
      "worries": 8475,
      "uss": 8476,
      "dozens": 8477,
      "##agu": 8478,
      "intim": 8479,
      "offensive": 8480,
      "obsc": 8481,
      "##ugoslav": 8482,
      "slowed": 8483,
      "focuses": 8484,
      "sovereigndebt": 8485,
      "rejection": 8486,
      "introduction": 8487,
      "guidance": 8488,
      "contradict": 8489,
      "elderly": 8490,
      "pump": 8491,
      "##ca": 8492,
      "##view": 8493,
      "theories": 8494,
      "##ouch": 8495,
      "##usive": 8496,
      "##aug": 8497,
      "highquality": 8498,
      "correspond": 8499,
      "restored": 8500,
      "collection": 8501,
      "absorb": 8502,
      "luk": 8503,
      "complexity": 8504,
      "burning": 8505,
      "##ommunic": 8506,
      "holoca": 8507,
      "conversation": 8508,
      "##growing": 8509,
      "exempl": 8510,
      "cohesion": 8511,
      "somal": 8512,
      "piano": 8513,
      "temporarily": 8514,
      "holocaust": 8515,
      "600": 8516,
      "cure": 8517,
      "pis": 8518,
      "rivals": 8519,
      "##uits": 8520,
      "##invest": 8521,
      "ingr": 8522,
      "##ilater": 8523,
      "sho": 8524,
      "sevent": 8525,
      "noise": 8526,
      "knowing": 8527,
      "grants": 8528,
      "revival": 8529,
      "capitalist": 8530,
      "declare": 8531,
      "undermines": 8532,
      "hostility": 8533,
      "exceptional": 8534,
      "sadly": 8535,
      "blocked": 8536,
      "compensate": 8537,
      "endorsed": 8538,
      "jail": 8539,
      "pour": 8540,
      "rend": 8541,
      "##lu": 8542,
      "##lete": 8543,
      "##ede": 8544,
      "##inge": 8545,
      "##ecuted": 8546,
      "unified": 8547,
      "hamp": 8548,
      "##cons": 8549,
      "compare": 8550,
      "formula": 8551,
      "deployment": 8552,
      "approaching": 8553,
      "##develop": 8554,
      "superpower": 8555,
      "##guided": 8556,
      "remarkably": 8557,
      "shrinking": 8558,
      "frustration": 8559,
      "pulled": 8560,
      "satisfied": 8561,
      "acknowledged": 8562,
      "oligarchs": 8563,
      "unusual": 8564,
      "lis": 8565,
      "tang": 8566,
      "wins": 8567,
      "uschina": 8568,
      "interrupt": 8569,
      "endanger": 8570,
      "delever": 8571,
      "shortcom": 8572,
      "fairness": 8573,
      "minimal": 8574,
      "outbreaks": 8575,
      "destabilizing": 8576,
      "entrenched": 8577,
      "temptation": 8578,
      "municipal": 8579,
      "##ilaterally": 8580,
      "shortcomings": 8581,
      "holid": 8582,
      "##trum": 8583,
      "outrage": 8584,
      "upset": 8585,
      "sectarian": 8586,
      "eggs": 8587,
      "mexicos": 8588,
      "urgency": 8589,
      "harmon": 8590,
      "stabilization": 8591,
      "boundaries": 8592,
      "marginalized": 8593,
      "neglect": 8594,
      "disproportionately": 8595,
      "sunday": 8596,
      "85": 8597,
      "nost": 8598,
      "overn": 8599,
      "rank": 8600,
      "##hman": 8601,
      "##ste": 8602,
      "##eter": 8603,
      "##irm": 8604,
      "alq": 8605,
      "##establish": 8606,
      "neoliberal": 8607,
      "lifet": 8608,
      "suppress": 8609,
      "defining": 8610,
      "strongest": 8611,
      "dreams": 8612,
      "appointment": 8613,
      "devaluation": 8614,
      "tragic": 8615,
      "approximately": 8616,
      "fathers": 8617,
      "hang": 8618,
      "ram": 8619,
      "##unting": 8620,
      "globalized": 8621,
      "earned": 8622,
      "extremist": 8623,
      "completed": 8624,
      "walking": 8625,
      "troubled": 8626,
      "permit": 8627,
      "allocated": 8628,
      "keynesian": 8629,
      "casual": 8630,
      "tuberc": 8631,
      "overnight": 8632,
      "##size": 8633,
      "##sey": 8634,
      "notes": 8635,
      "highlevel": 8636,
      "##ifications": 8637,
      "breast": 8638,
      "caut": 8639,
      "ecological": 8640,
      "headlines": 8641,
      "integrate": 8642,
      "devices": 8643,
      "widening": 8644,
      "physic": 8645,
      "golden": 8646,
      "aspect": 8647,
      "emphasize": 8648,
      "pictures": 8649,
      "recommendations": 8650,
      "cow": 8651,
      "gal": 8652,
      "nurt": 8653,
      "pione": 8654,
      "##ulosis": 8655,
      "unif": 8656,
      "suppose": 8657,
      "install": 8658,
      "treating": 8659,
      "representation": 8660,
      "ambig": 8661,
      "survived": 8662,
      "continental": 8663,
      "bargaining": 8664,
      "kilomet": 8665,
      "musharra": 8666,
      "qatar": 8667,
      "bretton": 8668,
      "bust": 8669,
      "nons": 8670,
      "piv": 8671,
      "vit": 8672,
      "##wage": 8673,
      "##anim": 8674,
      "shaping": 8675,
      "cruel": 8676,
      "factories": 8677,
      "peaceke": 8678,
      "middleclass": 8679,
      "foods": 8680,
      "citizenship": 8681,
      "breakdown": 8682,
      "##ullah": 8683,
      "automob": 8684,
      "obstacle": 8685,
      "scotland": 8686,
      "giants": 8687,
      "zimbabwe": 8688,
      "counterproductive": 8689,
      "tuberculosis": 8690,
      "cum": 8691,
      "##haring": 8692,
      "##aids": 8693,
      "##icul": 8694,
      "##olly": 8695,
      "forge": 8696,
      "alass": 8697,
      "plastic": 8698,
      "regain": 8699,
      "knock": 8700,
      "actor": 8701,
      "nationalists": 8702,
      "classroom": 8703,
      "buyers": 8704,
      "hungarian": 8705,
      "containment": 8706,
      "escalating": 8707,
      "removing": 8708,
      "undertake": 8709,
      "ample": 8710,
      "anticipated": 8711,
      "horizon": 8712,
      "kaczys": 8713,
      "##etical": 8714,
      "interf": 8715,
      "soil": 8716,
      "clock": 8717,
      "banned": 8718,
      "twe": 8719,
      "instinct": 8720,
      "##ctic": 8721,
      "deserves": 8722,
      "province": 8723,
      "advised": 8724,
      "tex": 8725,
      "freem": 8726,
      "swiss": 8727,
      "cycles": 8728,
      "availability": 8729,
      "2025": 8730,
      "engineers": 8731,
      "maximize": 8732,
      "firmly": 8733,
      "countless": 8734,
      "discourse": 8735,
      "fertil": 8736,
      "irrational": 8737,
      "suspicion": 8738,
      "mathemat": 8739,
      "intimid": 8740,
      "ku": 8741,
      "##hal": 8742,
      "##60": 8743,
      "chirac": 8744,
      "disarmament": 8745,
      "marry": 8746,
      "preserving": 8747,
      "apples": 8748,
      "disclos": 8749,
      "occurs": 8750,
      "demonstrates": 8751,
      "personnel": 8752,
      "ceiling": 8753,
      "premier": 8754,
      "reversal": 8755,
      "escalation": 8756,
      "disappeared": 8757,
      "vacuum": 8758,
      "magaz": 8759,
      "incompet": 8760,
      "breath": 8761,
      "award": 8762,
      "fant": 8763,
      "len": 8764,
      "##win": 8765,
      "topp": 8766,
      "##oul": 8767,
      "##olved": 8768,
      "ash": 8769,
      "unav": 8770,
      "doha": 8771,
      "infected": 8772,
      "techniques": 8773,
      "nonc": 8774,
      "expectancy": 8775,
      "depressed": 8776,
      "spiral": 8777,
      "outlets": 8778,
      "apartment": 8779,
      "episode": 8780,
      "conscious": 8781,
      "ghana": 8782,
      "##mer": 8783,
      "thatcher": 8784,
      "notable": 8785,
      "marks": 8786,
      "demise": 8787,
      "mayor": 8788,
      "remind": 8789,
      "moon": 8790,
      "taxi": 8791,
      "centralbank": 8792,
      "succ": 8793,
      "companys": 8794,
      "ideolog": 8795,
      "answered": 8796,
      "automation": 8797,
      "floods": 8798,
      "tribal": 8799,
      "vacation": 8800,
      "underpinned": 8801,
      "oxford": 8802,
      "##bour": 8803,
      "chick": 8804,
      "shame": 8805,
      "resh": 8806,
      "cloud": 8807,
      "overly": 8808,
      "somebody": 8809,
      "highlights": 8810,
      "griev": 8811,
      "persons": 8812,
      "minute": 8813,
      "exchanges": 8814,
      "borrowed": 8815,
      "acquire": 8816,
      "exacerbate": 8817,
      "sanders": 8818,
      "resentment": 8819,
      "degrad": 8820,
      "discontent": 8821,
      "##vakia": 8822,
      "malnutrition": 8823,
      "ax": 8824,
      "dna": 8825,
      "ie": 8826,
      "xen": 8827,
      "tol": 8828,
      "##aret": 8829,
      "##opher": 8830,
      "crying": 8831,
      "maneu": 8832,
      "sphere": 8833,
      "deforestation": 8834,
      "propose": 8835,
      "fluct": 8836,
      "issuing": 8837,
      "extending": 8838,
      "extension": 8839,
      "possess": 8840,
      "liberation": 8841,
      "creditor": 8842,
      "metric": 8843,
      "consume": 8844,
      "combine": 8845,
      "absurd": 8846,
      "##health": 8847,
      "bitco": 8848,
      "prevail": 8849,
      "##comed": 8850,
      "lifted": 8851,
      "zealand": 8852,
      "unpredictable": 8853,
      "craft": 8854,
      "bell": 8855,
      "hikes": 8856,
      "kitch": 8857,
      "tap": 8858,
      "##uously": 8859,
      "##bar": 8860,
      "stations": 8861,
      "lehman": 8862,
      "##asting": 8863,
      "rises": 8864,
      "depending": 8865,
      "fallout": 8866,
      "encoun": 8867,
      "opposing": 8868,
      "tenyear": 8869,
      "brave": 8870,
      "participating": 8871,
      "imagination": 8872,
      "preferences": 8873,
      "witnessed": 8874,
      "qualified": 8875,
      "condemned": 8876,
      "season": 8877,
      "distinguish": 8878,
      "hightech": 8879,
      "misleading": 8880,
      "uniform": 8881,
      "degradation": 8882,
      "avert": 8883,
      "nets": 8884,
      "ot": 8885,
      "##inflation": 8886,
      "alter": 8887,
      "##andemic": 8888,
      "mario": 8889,
      "appet": 8890,
      "##ologists": 8891,
      "profitable": 8892,
      "choosing": 8893,
      "speculation": 8894,
      "negotiation": 8895,
      "winners": 8896,
      "transforming": 8897,
      "subsidy": 8898,
      "messages": 8899,
      "penins": 8900,
      "welcomed": 8901,
      "reveal": 8902,
      "ballot": 8903,
      "diminish": 8904,
      "droughts": 8905,
      "philosophy": 8906,
      "video": 8907,
      "yugoslav": 8908,
      "##father": 8909,
      "##isons": 8910,
      "##ille": 8911,
      "##cond": 8912,
      "brib": 8913,
      "highincome": 8914,
      "##induced": 8915,
      "desert": 8916,
      "keen": 8917,
      "islamists": 8918,
      "error": 8919,
      "distinction": 8920,
      "promotion": 8921,
      "councils": 8922,
      "precise": 8923,
      "fastest": 8924,
      "vastly": 8925,
      "select": 8926,
      "flaws": 8927,
      "officer": 8928,
      "accomplished": 8929,
      "munich": 8930,
      "xenophob": 8931,
      "tor": 8932,
      "zh": 8933,
      "##iary": 8934,
      "alco": 8935,
      "##apable": 8936,
      "dozen": 8937,
      "##urement": 8938,
      "string": 8939,
      "delayed": 8940,
      "misguided": 8941,
      "landing": 8942,
      "satell": 8943,
      "surveys": 8944,
      "sleeping": 8945,
      "routinely": 8946,
      "sino": 8947,
      "purely": 8948,
      "##withstanding": 8949,
      "overwhelmingly": 8950,
      "suppliers": 8951,
      "xia": 8952,
      "##anke": 8953,
      "##educ": 8954,
      "##ida": 8955,
      "notwithstanding": 8956,
      "usled": 8957,
      "financially": 8958,
      "formally": 8959,
      "regulate": 8960,
      "1996": 8961,
      "baltic": 8962,
      "unclear": 8963,
      "conviction": 8964,
      "consolidate": 8965,
      "rwanda": 8966,
      "800": 8967,
      "##ixt": 8968,
      "finland": 8969,
      "strain": 8970,
      "##acking": 8971,
      "sciences": 8972,
      "nationals": 8973,
      "bashar": 8974,
      "downside": 8975,
      "behalf": 8976,
      "##brid": 8977,
      "display": 8978,
      "obligation": 8979,
      "villages": 8980,
      "##rosion": 8981,
      "bernanke": 8982,
      "gut": 8983,
      "kaz": 8984,
      "##organ": 8985,
      "revel": 8986,
      "seized": 8987,
      "keys": 8988,
      "coalitions": 8989,
      "##board": 8990,
      "connections": 8991,
      "2000s": 8992,
      "efficiently": 8993,
      "introducing": 8994,
      "entrepreneur": 8995,
      "swedish": 8996,
      "exclusively": 8997,
      "perpetr": 8998,
      "hypocr": 8999,
      "entitled": 9000,
      "antibiotics": 9001,
      "lisbon": 9002,
      "freemarket": 9003,
      "39": 9004,
      "mouth": 9005,
      "rou": 9006,
      "site": 9007,
      "##alg": 9008,
      "commerce": 9009,
      "overha": 9010,
      "socio": 9011,
      "reforming": 9012,
      "runup": 9013,
      "caution": 9014,
      "cyclical": 9015,
      "malaise": 9016,
[...]
