{
  "version": "1.0",
  "truncation": null,
  "padding": null,
  "added_tokens": [
    {
      "id": 0,
      "content": "[UNK]",
      "single_word": false,
      "lstrip": false,
      "rstrip": false,
      "normalized": false,
      "special": true
    },
    {
      "id": 1,
      "content": "[PAD]",
      "single_word": false,
      "lstrip": false,
      "rstrip": false,
      "normalized": false,
      "special": true
    },
    {
      "id": 2,
      "content": "[SOS]",
      "single_word": false,
      "lstrip": false,
      "rstrip": false,
      "normalized": false,
      "special": true
    },
    {
      "id": 3,
      "content": "[EOS]",
      "single_word": false,
      "lstrip": false,
      "rstrip": false,
      "normalized": false,
      "special": true
    }
  ],
  "normalizer": null,
  "pre_tokenizer": {
    "type": "Whitespace"
  },
  "post_processor": null,
  "decoder": null,
  "model": {
    "type": "WordPiece",
    "unk_token": "[UNK]",
    "continuing_subword_prefix": "##",
    "max_input_chars_per_word": 100,
    "vocab": {
      "[UNK]": 0,
      "[PAD]": 1,
      "[SOS]": 2,
      "[EOS]": 3,
      "0": 4,
      "1": 5,
      "2": 6,
      "3": 7,
      "4": 8,
      "5": 9,
      "6": 10,
      "7": 11,
      "8": 12,
      "9": 13,
      "D": 14,
      "a": 15,
      "b": 16,
      "c": 17,
      "d": 18,
      "e": 19,
      "f": 20,
      "g": 21,
      "h": 22,
      "i": 23,
      "j": 24,
      "k": 25,
      "l": 26,
      "m": 27,
      "n": 28,
      "o": 29,
      "p": 30,
      "q": 31,
      "r": 32,
      "s": 33,
      "t": 34,
      "u": 35,
      "v": 36,
      "w": 37,
      "x": 38,
      "y": 39,
      "z": 40,
      "ß": 41,
      "à": 42,
      "á": 43,
      "ã": 44,
      "ä": 45,
      "è": 46,
      "é": 47,
      "ê": 48,
      "í": 49,
      "ñ": 50,
      "ô": 51,
      "ö": 52,
      "ú": 53,
      "û": 54,
      "ü": 55,
      "ā": 56,
      "ī": 57,
      "ō": 58,
      "ū": 59,
      "ű": 60,
      "ǎ": 61,
      "ˋ": 62,
      "₂": 63,
      "##i": 64,
      "##r": 65,
      "##t": 66,
      "##s": 67,
      "##c": 68,
      "##h": 69,
      "##a": 70,
      "##f": 71,
      "##w": 72,
      "##e": 73,
      "##n": 74,
      "##o": 75,
      "##g": 76,
      "##p": 77,
      "##l": 78,
      "##k": 79,
      "##ä": 80,
      "##ü": 81,
      "##u": 82,
      "##b": 83,
      "##d": 84,
      "##9": 85,
      "##8": 86,
      "##1": 87,
      "##m": 88,
      "##v": 89,
      "##z": 90,
      "##j": 91,
      "##y": 92,
      "##ß": 93,
      "##5": 94,
      "##x": 95,
      "##2": 96,
      "##0": 97,
      "##ö": 98,
      "##3": 99,
      "##6": 100,
      "##q": 101,
      "##4": 102,
      "##7": 103,
      "##ō": 104,
      "##é": 105,
      "##à": 106,
      "##ū": 107,
      "##ñ": 108,
      "##è": 109,
      "##á": 110,
      "##ê": 111,
      "##ô": 112,
      "##ű": 113,
      "##ã": 114,
      "##ˋ": 115,
      "##í": 116,
      "##ǎ": 117,
      "##ī": 118,
      "##û": 119,
      "##ā": 120,
      "##ú": 121,
      "##en": 122,
      "##er": 123,
      "##ch": 124,
      "##ie": 125,
      "##in": 126,
      "##ei": 127,
      "##nd": 128,
      "##st": 129,
      "die": 130,
      "##ng": 131,
      "##ich": 132,
      "##sch": 133,
      "##on": 134,
      "##te": 135,
      "##ung": 136,
      "der": 137,
      "##ti": 138,
      "ein": 139,
      "##es": 140,
      "##as": 141,
      "##an": 142,
      "##ten": 143,
      "und": 144,
      "zu": 145,
      "in": 146,
      "##ar": 147,
      "##ll": 148,
      "au": 149,
      "##hr": 150,
      "##or": 151,
      "##em": 152,
      "##al": 153,
      "##it": 154,
      "##gen": 155,
      "##el": 156,
      "ver": 157,
      "das": 158,
      "##lich": 159,
      "##ur": 160,
      "##den": 161,
      "##ein": 162,
      "##eit": 163,
      "##at": 164,
      "er": 165,
      "ge": 166,
      "##ge": 167,
      "##ir": 168,
      "##ra": 169,
      "be": 170,
      "##ter": 171,
      "##ür": 172,
      "##icht": 173,
      "##ier": 174,
      "den": 175,
      "##is": 176,
      "##isch": 177,
      "##ber": 178,
      "##ol": 179,
      "##men": 180,
      "##au": 181,
      "##ach": 182,
      "##de": 183,
      "##and": 184,
      "sch": 185,
      "un": 186,
      "##der": 187,
      "##ro": 188,
      "auf": 189,
      "##ben": 190,
      "##tion": 191,
      "ist": 192,
      "wir": 193,
      "an": 194,
      "##ig": 195,
      "##sen": 196,
      "##se": 197,
      "##tz": 198,
      "von": 199,
      "st": 200,
      "nicht": 201,
      "##af": 202,
      "so": 203,
      "##nder": 204,
      "sich": 205,
      "re": 206,
      "aus": 207,
      "im": 208,
      "##ck": 209,
      "##re": 210,
      "eine": 211,
      "##am": 212,
      "mit": 213,
      "es": 214,
      "sie": 215,
      "##eh": 216,
      "dass": 217,
      "al": 218,
      "##ungen": 219,
      "##om": 220,
      "für": 221,
      "##us": 222,
      "des": 223,
      "##eu": 224,
      "##tsch": 225,
      "##ahr": 226,
      "##eich": 227,
      "um": 228,
      "##ru": 229,
      "##ah": 230,
      "##ischen": 231,
      "als": 232,
      "##iel": 233,
      "##fen": 234,
      "ich": 235,
      "##il": 236,
      "ihr": 237,
      "wie": 238,
      "über": 239,
      "en": 240,
      "##och": 241,
      "wer": 242,
      "##tw": 243,
      "##sten": 244,
      "sein": 245,
      "##aft": 246,
      "##iti": 247,
      "dem": 248,
      "##ik": 249,
      "##ien": 250,
      "hat": 251,
      "vor": 252,
      "##ab": 253,
      "##ang": 254,
      "##ation": 255,
      "##ell": 256,
      "##un": 257,
      "unter": 258,
      "##sp": 259,
      "##ind": 260,
      "##nen": 261,
      "##ann": 262,
      "dies": 263,
      "##kt": 264,
      "##zu": 265,
      "##rei": 266,
      "bei": 267,
      "##um": 268,
      "werden": 269,
      "##ehr": 270,
      "##ern": 271,
      "##ön": 272,
      "pro": 273,
      "##op": 274,
      "##rä": 275,
      "war": 276,
      "##är": 277,
      "##si": 278,
      "##oliti": 279,
      "##eil": 280,
      "sind": 281,
      "##anz": 282,
      "nach": 283,
      "##aben": 284,
      "##ungs": 285,
      "##mer": 286,
      "jahr": 287,
      "all": 288,
      "wen": 289,
      "##tig": 290,
      "kön": 291,
      "##ul": 292,
      "##schen": 293,
      "##ische": 294,
      "ab": 295,
      "##wei": 296,
      "##etz": 297,
      "ar": 298,
      "##hen": 299,
      "##ag": 300,
      "##urch": 301,
      "reg": 302,
      "wird": 303,
      "##im": 304,
      "##tschaft": 305,
      "##igen": 306,
      "auch": 307,
      "##heit": 308,
      "##ist": 309,
      "einer": 310,
      "##hin": 311,
      "##ver": 312,
      "##änder": 313,
      "##ken": 314,
      "##elt": 315,
      "eur": 316,
      "##oh": 317,
      "haben": 318,
      "##hal": 319,
      "gl": 320,
      "##lichen": 321,
      "##aus": 322,
      "##rü": 323,
      "durch": 324,
      "kon": 325,
      "##oll": 326,
      "##uss": 327,
      "da": 328,
      "##et": 329,
      "##rie": 330,
      "##uch": 331,
      "##ing": 332,
      "sp": 333,
      "##ät": 334,
      "ges": 335,
      "##le": 336,
      "##ühr": 337,
      "##ft": 338,
      "##ähr": 339,
      "einen": 340,
      "##ser": 341,
      "##liche": 342,
      "politi": 343,
      "##ieren": 344,
      "##ierung": 345,
      "##est": 346,
      "##ut": 347,
      "##keit": 348,
      "viel": 349,
      "us": 350,
      "##und": 351,
      "ber": 352,
      "oder": 353,
      "diese": 354,
      "was": 355,
      "##ill": 356,
      "dar": 357,
      "ander": 358,
      "##end": 359,
      "##ommen": 360,
      "aber": 361,
      "##ff": 362,
      "##ick": 363,
      "ste": 364,
      "##ffen": 365,
      "wenn": 366,
      "ang": 367,
      "##be": 368,
      "europ": 369,
      "##tiv": 370,
      "##ent": 371,
      "##ob": 372,
      "gegen": 373,
      "wirtschaft": 374,
      "##for": 375,
      "##os": 376,
      "20": 377,
      "##cht": 378,
      "noch": 379,
      "zur": 380,
      "##ion": 381,
      "##ahl": 382,
      "man": 383,
      "##hn": 384,
      "mehr": 385,
      "fin": 386,
      "##ör": 387,
      "neu": 388,
      "le": 389,
      "soll": 390,
      "du": 391,
      "##alen": 392,
      "chin": 393,
      "##tet": 394,
      "wur": 395,
      "##wer": 396,
      "ihre": 397,
      "##gt": 398,
      "##ap": 399,
      "##ste": 400,
      "##eiten": 401,
      "##ehmen": 402,
      "##ri": 403,
      "##ran": 404,
      "kein": 405,
      "##sam": 406,
      "##all": 407,
      "##her": 408,
      "##chen": 409,
      "##land": 410,
      "sta": 411,
      "##tern": 412,
      "zw": 413,
      "kl": 414,
      "##eiter": 415,
      "einem": 416,
      "##lie": 417,
      "gew": 418,
      "hin": 419,
      "nur": 420,
      "##bl": 421,
      "kann": 422,
      "##ale": 423,
      "##ige": 424,
      "welt": 425,
      "könn": 426,
      "wür": 427,
      "##äch": 428,
      "##reich": 429,
      "gro": 430,
      "men": 431,
      "##ed": 432,
      "länder": 433,
      "##bt": 434,
      "##pf": 435,
      "##he": 436,
      "##üs": 437,
      "mach": 438,
      "groß": 439,
      "##ität": 440,
      "entw": 441,
      "##aten": 442,
      "##sche": 443,
      "##fl": 444,
      "##bar": 445,
      "##iert": 446,
      "gel": 447,
      "##iz": 448,
      "her": 449,
      "finanz": 450,
      "##nis": 451,
      "##lei": 452,
      "##beit": 453,
      "##ger": 454,
      "##rit": 455,
      "##ok": 456,
      "##stell": 457,
      "verb": 458,
      "##ohl": 459,
      "##andel": 460,
      "##rund": 461,
      "##schaft": 462,
      "mar": 463,
      "##ht": 464,
      "##ort": 465,
      "zum": 466,
      "best": 467,
      "entwick": 468,
      "usa": 469,
      "land": 470,
      "##teil": 471,
      "gef": 472,
      "##la": 473,
      "##tionen": 474,
      "##ker": 475,
      "##iger": 476,
      "##art": 477,
      "##eg": 478,
      "bes": 479,
      "können": 480,
      "##kommen": 481,
      "##assen": 482,
      "am": 483,
      "##äng": 484,
      "gen": 485,
      "##ats": 486,
      "ind": 487,
      "##tra": 488,
      "führ": 489,
      "##ak": 490,
      "gesch": 491,
      "##tel": 492,
      "##ech": 493,
      "##nehmen": 494,
      "##ög": 495,
      "doch": 496,
      "##tzen": 497,
      "dieser": 498,
      "schw": 499,
      "weiter": 500,
      "fra": 501,
      "##ehen": 502,
      "##eren": 503,
      "##tigen": 504,
      "ob": 505,
      "menschen": 506,
      "währ": 507,
      "##äh": 508,
      "##ts": 509,
      "##nah": 510,
      "##ren": 511,
      "##ast": 512,
      "##og": 513,
      "##ikan": 514,
      "müs": 515,
      "##me": 516,
      "##ges": 517,
      "ger": 518,
      "nie": 519,
      "mein": 520,
      "##etzt": 521,
      "##ia": 522,
      "##abe": 523,
      "##auf": 524,
      "ent": 525,
      "seine": 526,
      "##änd": 527,
      "kom": 528,
      "gem": 529,
      "ma": 530,
      "bis": 531,
      "wurde": 532,
      "##gang": 533,
      "arbeit": 534,
      "amer": 535,
      "würde": 536,
      "##bst": 537,
      "##ek": 538,
      "##wir": 539,
      "for": 540,
      "##siden": 541,
      "##über": 542,
      "zwei": 543,
      "sel": 544,
      "##iell": 545,
      "##zi": 546,
      "zeit": 547,
      "##räsiden": 548,
      "##eid": 549,
      "##ßen": 550,
      "##ner": 551,
      "##fol": 552,
      "##du": 553,
      "entsch": 554,
      "##licher": 555,
      "lang": 556,
      "wei": 557,
      "etw": 558,
      "##igkeit": 559,
      "##ris": 560,
      "##fr": 561,
      "wieder": 562,
      "verl": 563,
      "##tige": 564,
      "##zen": 565,
      "##ank": 566,
      "19": 567,
      "europä": 568,
      "##ess": 569,
      "müssen": 570,
      "lie": 571,
      "##weise": 572,
      "könnte": 573,
      "##mp": 574,
      "##dem": 575,
      "##sion": 576,
      "wel": 577,
      "immer": 578,
      "##ück": 579,
      "##rück": 580,
      "glob": 581,
      "##rö": 582,
      "##ne": 583,
      "intern": 584,
      "sicher": 585,
      "russ": 586,
      "entwickl": 587,
      "uns": 588,
      "##rin": 589,
      "##achst": 590,
      "ex": 591,
      "##halten": 592,
      "eines": 593,
      "selbst": 594,
      "deu": 595,
      "##achstum": 596,
      "##yst": 597,
      "##mal": 598,
      "##ot": 599,
      "china": 600,
      "zwischen": 601,
      "##00": 602,
      "##ystem": 603,
      "##ün": 604,
      "besch": 605,
      "##ativ": 606,
      "heu": 607,
      "##id": 608,
      "ko": 609,
      "mill": 610,
      "leben": 611,
      "##äu": 612,
      "##ßer": 613,
      "keine": 614,
      "beg": 615,
      "##ass": 616,
      "##blem": 617,
      "##vest": 618,
      "##mus": 619,
      "##atz": 620,
      "##pp": 621,
      "regierung": 622,
      "##chte": 623,
      "##kl": 624,
      "viele": 625,
      "grund": 626,
      "nation": 627,
      "##che": 628,
      "habe": 629,
      "dam": 630,
      "mir": 631,
      "##äre": 632,
      "de": 633,
      "##stü": 634,
      "##äl": 635,
      "während": 636,
      "##ffent": 637,
      "##mt": 638,
      "schul": 639,
      "internation": 640,
      "je": 641,
      "##führ": 642,
      "vers": 643,
      "##sammen": 644,
      "zusammen": 645,
      "gi": 646,
      "##ert": 647,
      "ins": 648,
      "##alis": 649,
      "jahren": 650,
      "##öglich": 651,
      "muss": 652,
      "##ust": 653,
      "##ma": 654,
      "##kte": 655,
      "sow": 656,
      "bereit": 657,
      "ihrer": 658,
      "invest": 659,
      "##ler": 660,
      "##stand": 661,
      "letz": 662,
      "eigen": 663,
      "##issen": 664,
      "##vor": 665,
      "problem": 666,
      "##ding": 667,
      "##forder": 668,
      "andere": 669,
      "##geb": 670,
      "##ellen": 671,
      "präsiden": 672,
      "grö": 673,
      "ih": 674,
      "unser": 675,
      "##nde": 676,
      "##sicht": 677,
      "##ichtig": 678,
      "##ätz": 679,
      "versch": 680,
      "##mit": 681,
      "teil": 682,
      "##ord": 683,
      "##eln": 684,
      "##teg": 685,
      "##leich": 686,
      "alle": 687,
      "##ad": 688,
      "eu": 689,
      "is": 690,
      "##ika": 691,
      "##ehn": 692,
      "##ös": 693,
      "unterstü": 694,
      "sollte": 695,
      "hö": 696,
      "##kon": 697,
      "macht": 698,
      "##rauch": 699,
      "##tung": 700,
      "##oren": 701,
      "##rise": 702,
      "wo": 703,
      "##nahmen": 704,
      "stell": 705,
      "##uen": 706,
      "tru": 707,
      "ung": 708,
      "##ekt": 709,
      "##ndern": 710,
      "gemein": 711,
      "##olog": 712,
      "stra": 713,
      "##ktion": 714,
      "verf": 715,
      "##ers": 716,
      "tats": 717,
      "heute": 718,
      "##ischer": 719,
      "wahr": 720,
      "##hne": 721,
      "##tzung": 722,
      "europa": 723,
      "ch": 724,
      "anderen": 725,
      "##gend": 726,
      "##essen": 727,
      "##ollar": 728,
      "##tes": 729,
      "##zent": 730,
      "geld": 731,
      "jed": 732,
      "demok": 733,
      "seit": 734,
      "schl": 735,
      "weltw": 736,
      "öffent": 737,
      "mo": 738,
      "unternehmen": 739,
      "erw": 740,
      "bez": 741,
      "handel": 742,
      "waren": 743,
      "gibt": 744,
      "##pro": 745,
      "sehr": 746,
      "201": 747,
      "##ven": 748,
      "##eiden": 749,
      "dieses": 750,
      "##pl": 751,
      "aller": 752,
      "verein": 753,
      "##dern": 754,
      "##anken": 755,
      "##agen": 756,
      "##ze": 757,
      "##off": 758,
      "##iv": 759,
      "mich": 760,
      "inter": 761,
      "##ionen": 762,
      "##spiel": 763,
      "bew": 764,
      "bet": 765,
      "##fe": 766,
      "damit": 767,
      "gleich": 768,
      "nat": 769,
      "##det": 770,
      "sol": 771,
      "##rieg": 772,
      "##itu": 773,
      "dazu": 774,
      "wachstum": 775,
      "pl": 776,
      "##los": 777,
      "bede": 778,
      "##fra": 779,
      "seiner": 780,
      "##att": 781,
      "##ment": 782,
      "##gehen": 783,
      "regier": 784,
      "zurück": 785,
      "geb": 786,
      "erh": 787,
      "##ktur": 788,
      "russland": 789,
      "haus": 790,
      "amerikan": 791,
      "ak": 792,
      "##schein": 793,
      "ländern": 794,
      "##politi": 795,
      "##affen": 796,
      "##heits": 797,
      "##aften": 798,
      "wurden": 799,
      "##gel": 800,
      "neue": 801,
      "200": 802,
      "hät": 803,
      "part": 804,
      "##acht": 805,
      "ihren": 806,
      "##nung": 807,
      "##ati": 808,
      "##häng": 809,
      "or": 810,
      "recht": 811,
      "dollar": 812,
      "##onder": 813,
      "##fte": 814,
      "wäre": 815,
      "##ov": 816,
      "##üh": 817,
      "##rem": 818,
      "maß": 819,
      "inst": 820,
      "##aup": 821,
      "##erg": 822,
      "##rechen": 823,
      "##inist": 824,
      "sollten": 825,
      "fall": 826,
      "glau": 827,
      "ohne": 828,
      "sondern": 829,
      "##age": 830,
      "trump": 831,
      "diesem": 832,
      "##rank": 833,
      "deutsch": 834,
      "we": 835,
      "##sst": 836,
      "##satz": 837,
      "produ": 838,
      "fol": 839,
      "##di": 840,
      "##fall": 841,
      "##geben": 842,
      "sei": 843,
      "politik": 844,
      "nu": 845,
      "tra": 846,
      "verm": 847,
      "will": 848,
      "verst": 849,
      "##oten": 850,
      "weil": 851,
      "ern": 852,
      "jahre": 853,
      "##eigen": 854,
      "eben": 855,
      "ganz": 856,
      "fl": 857,
      "##elle": 858,
      "##lle": 859,
      "##isten": 860,
      "##sk": 861,
      "wirk": 862,
      "tun": 863,
      "wissen": 864,
      "vom": 865,
      "stär": 866,
      "geh": 867,
      "##eicht": 868,
      "letzten": 869,
      "##apit": 870,
      "machen": 871,
      "hier": 872,
      "bi": 873,
      "mil": 874,
      "kur": 875,
      "einz": 876,
      "bed": 877,
      "beh": 878,
      "frei": 879,
      "##ke": 880,
      "pri": 881,
      "br": 882,
      "##form": 883,
      "sozi": 884,
      "##öl": 885,
      "dir": 886,
      "politischen": 887,
      "wahl": 888,
      "##eisten": 889,
      "##gra": 890,
      "hatte": 891,
      "##ierte": 892,
      "##ächlich": 893,
      "##länder": 894,
      "ziel": 895,
      "##ließ": 896,
      "jetzt": 897,
      "##ationen": 898,
      "##enden": 899,
      "##ichte": 900,
      "##unden": 901,
      "##grund": 902,
      "##ss": 903,
      "klim": 904,
      "staat": 905,
      "##keiten": 906,
      "##ichts": 907,
      "europäischen": 908,
      "##fin": 909,
      "drei": 910,
      "##halb": 911,
      "etwa": 912,
      "star": 913,
      "##ug": 914,
      "blei": 915,
      "schon": 916,
      "##ild": 917,
      "##echn": 918,
      "woll": 919,
      "etwas": 920,
      "##erung": 921,
      "##inn": 922,
      "##eht": 923,
      "##alt": 924,
      "##anis": 925,
      "##fach": 926,
      "##glie": 927,
      "##rat": 928,
      "fr": 929,
      "bl": 930,
      "chines": 931,
      "politische": 932,
      "bin": 933,
      "maria": 934,
      "##imm": 935,
      "weniger": 936,
      "##gangen": 937,
      "versuch": 938,
      "##eb": 939,
      "gesund": 940,
      "##ünf": 941,
      "##per": 942,
      "##ater": 943,
      "steu": 944,
      "##gesch": 945,
      "##gew": 946,
      "par": 947,
      "dav": 948,
      "zent": 949,
      "##folg": 950,
      "kre": 951,
      "##ichten": 952,
      "gest": 953,
      "##org": 954,
      "vert": 955,
      "energ": 956,
      "##alten": 957,
      "##eist": 958,
      "##schl": 959,
      "größ": 960,
      "##abil": 961,
      "heraus": 962,
      "kont": 963,
      "sti": 964,
      "könnten": 965,
      "ris": 966,
      "vol": 967,
      "em": 968,
      "wohl": 969,
      "##fer": 970,
      "##ierten": 971,
      "entwicklung": 972,
      "regierungen": 973,
      "##ringen": 974,
      "##under": 975,
      "##apan": 976,
      "investi": 977,
      "möglich": 978,
      "spiel": 979,
      "##gar": 980,
      "##frist": 981,
      "techn": 982,
      "gut": 983,
      "bereits": 984,
      "staaten": 985,
      "##lichkeit": 986,
      "nun": 987,
      "beispiel": 988,
      "##wohl": 989,
      "##sw": 990,
      "warum": 991,
      "##stellen": 992,
      "tatsächlich": 993,
      "wichtig": 994,
      "##ieg": 995,
      "##zeit": 996,
      "mon": 997,
      "japan": 998,
      "erreich": 999,
      "aut": 1000,
      "##nisse": 1001,
      "kam": 1002,
      "anges": 1003,
      "zahl": 1004,
      "##ruktur": 1005,
      "##ral": 1006,
      "##utz": 1007,
      "euro": 1008,
      "##ks": 1009,
      "frü": 1010,
      "##inister": 1011,
      "besser": 1012,
      "##fiz": 1013,
      "##mittel": 1014,
      "diesen": 1015,
      "verw": 1016,
      "##ölker": 1017,
      "gu": 1018,
      "dab": 1019,
      "offen": 1020,
      "dabei": 1021,
      "schein": 1022,
      "ihnen": 1023,
      "jedoch": 1024,
      "##itär": 1025,
      "##mm": 1026,
      "##olle": 1027,
      "würden": 1028,
      "##inder": 1029,
      "##qu": 1030,
      "rück": 1031,
      "darauf": 1032,
      "neuen": 1033,
      "obwohl": 1034,
      "el": 1035,
      "li": 1036,
      "##ew": 1037,
      "##kra": 1038,
      "bek": 1039,
      "bür": 1040,
      "##schie": 1041,
      "bo": 1042,
      "##sel": 1043,
      "entscheid": 1044,
      "##twort": 1045,
      "priv": 1046,
      "##kungen": 1047,
      "##ock": 1048,
      "##eichen": 1049,
      "##dig": 1050,
      "dann": 1051,
      "denen": 1052,
      "##ett": 1053,
      "##ider": 1054,
      "##chten": 1055,
      "##flation": 1056,
      "tro": 1057,
      "erst": 1058,
      "##ritt": 1059,
      "##esen": 1060,
      "##apital": 1061,
      "##rati": 1062,
      "außer": 1063,
      "##hem": 1064,
      "##ständ": 1065,
      "##bes": 1066,
      "seinen": 1067,
      "##klär": 1068,
      "hätte": 1069,
      "##tlich": 1070,
      "schn": 1071,
      "sogar": 1072,
      "qu": 1073,
      "weit": 1074,
      "##aler": 1075,
      "##ismus": 1076,
      "verh": 1077,
      "##rak": 1078,
      "daf": 1079,
      "gegenüber": 1080,
      "dafür": 1081,
      "brauch": 1082,
      "staats": 1083,
      "##iar": 1084,
      "##zeu": 1085,
      "##lin": 1086,
      "##ate": 1087,
      "##ission": 1088,
      "nah": 1089,
      "##our": 1090,
      "##dings": 1091,
      "##ere": 1092,
      "kommen": 1093,
      "zuk": 1094,
      "allerdings": 1095,
      "##gleich": 1096,
      "umf": 1097,
      "bel": 1098,
      "prei": 1099,
      "##setzen": 1100,
      "##nt": 1101,
      "risik": 1102,
      "##rupp": 1103,
      "strateg": 1104,
      "##ruck": 1105,
      "##lagen": 1106,
      "einige": 1107,
      "milliar": 1108,
      "einfach": 1109,
      "hoch": 1110,
      "meisten": 1111,
      "##amen": 1112,
      "##vers": 1113,
      "##äm": 1114,
      "weg": 1115,
      "kosten": 1116,
      "##fahr": 1117,
      "##ähl": 1118,
      "millionen": 1119,
      "med": 1120,
      "wider": 1121,
      "feh": 1122,
      "region": 1123,
      "erfolg": 1124,
      "lassen": 1125,
      "haushal": 1126,
      "##ander": 1127,
      "##richt": 1128,
      "entwicklungs": 1129,
      "##völker": 1130,
      "partei": 1131,
      "##isk": 1132,
      "ir": 1133,
      "führen": 1134,
      "anst": 1135,
      "##orden": 1136,
      "mittel": 1137,
      "system": 1138,
      "weiß": 1139,
      "##zehn": 1140,
      "##äll": 1141,
      "at": 1142,
      "##zei": 1143,
      "prozent": 1144,
      "bem": 1145,
      "energie": 1146,
      "maßnahmen": 1147,
      "##res": 1148,
      "mö": 1149,
      "ben": 1150,
      "##igten": 1151,
      "präsident": 1152,
      "komm": 1153,
      "##än": 1154,
      "schwer": 1155,
      "##ic": 1156,
      "##orgen": 1157,
      "mus": 1158,
      "##ond": 1159,
      "franz": 1160,
      "davon": 1161,
      "frage": 1162,
      "##politik": 1163,
      "veran": 1164,
      "##unft": 1165,
      "##sta": 1166,
      "##agt": 1167,
      "##ieh": 1168,
      "verfü": 1169,
      "angesichts": 1170,
      "landes": 1171,
      "##scher": 1172,
      "klima": 1173,
      "##egen": 1174,
      "##eig": 1175,
      "##stoff": 1176,
      "##äd": 1177,
      "geht": 1178,
      "##andl": 1179,
      "rep": 1180,
      "bef": 1181,
      "grü": 1182,
      "##äten": 1183,
      "krieg": 1184,
      "nichts": 1185,
      "eng": 1186,
      "sü": 1187,
      "bedeu": 1188,
      "get": 1189,
      "##rael": 1190,
      "##nahme": 1191,
      "fest": 1192,
      "##ald": 1193,
      "trotz": 1194,
      "globalen": 1195,
      "schulden": 1196,
      "##wirtschaft": 1197,
      "arbeits": 1198,
      "##bank": 1199,
      "##ine": 1200,
      "##zahl": 1201,
      "denn": 1202,
      "milliarden": 1203,
      "erklär": 1204,
      "##unkt": 1205,
      "di": 1206,
      "##gaben": 1207,
      "##bau": 1208,
      "##tieren": 1209,
      "##ließlich": 1210,
      "darüber": 1211,
      "dah": 1212,
      "großen": 1213,
      "institu": 1214,
      "##so": 1215,
      "##system": 1216,
      "klar": 1217,
      "lau": 1218,
      "##ring": 1219,
      "fre": 1220,
      "mal": 1221,
      "gehen": 1222,
      "##ud": 1223,
      "##anc": 1224,
      "ende": 1225,
      "statt": 1226,
      "##ard": 1227,
      "israel": 1228,
      "deutschland": 1229,
      "erm": 1230,
      "##od": 1231,
      "einmal": 1232,
      "technolog": 1233,
      "indem": 1234,
      "höher": 1235,
      "sowie": 1236,
      "##reg": 1237,
      "##ondere": 1238,
      "jahrzehn": 1239,
      "besteht": 1240,
      "kurz": 1241,
      "##aum": 1242,
      "militär": 1243,
      "also": 1244,
      "gesam": 1245,
      "banken": 1246,
      "rel": 1247,
      "##ache": 1248,
      "##ant": 1249,
      "iran": 1250,
      "##heiten": 1251,
      "##ative": 1252,
      "aufgrund": 1253,
      "ho": 1254,
      "##stellt": 1255,
      "##ex": 1256,
      "##ko": 1257,
      "unterstützung": 1258,
      "inflation": 1259,
      "hil": 1260,
      "jü": 1261,
      "internationalen": 1262,
      "##eine": 1263,
      "mitglie": 1264,
      "##angen": 1265,
      "betra": 1266,
      "natür": 1267,
      "gesell": 1268,
      "konn": 1269,
      "krise": 1270,
      "##gem": 1271,
      "##mar": 1272,
      "investitionen": 1273,
      "ersten": 1274,
      "derar": 1275,
      "afr": 1276,
      "große": 1277,
      "no": 1278,
      "ausge": 1279,
      "dich": 1280,
      "wirtschaftlichen": 1281,
      "##umen": 1282,
      "näch": 1283,
      "ide": 1284,
      "##zw": 1285,
      "##por": 1286,
      "folgen": 1287,
      "##tiert": 1288,
      "ihn": 1289,
      "##ade": 1290,
      "##rän": 1291,
      "##igung": 1292,
      "zwar": 1293,
      "##rieden": 1294,
      "volks": 1295,
      "kapital": 1296,
      "kr": 1297,
      "vertra": 1298,
      "frauen": 1299,
      "##ruch": 1300,
      "hei": 1301,
      "##yp": 1302,
      "##utin": 1303,
      "##ärkte": 1304,
      "insbes": 1305,
      "insbesondere": 1306,
      "demokrati": 1307,
      "res": 1308,
      "viell": 1309,
      "vielleicht": 1310,
      "pol": 1311,
      "##legen": 1312,
      "erforder": 1313,
      "##ohn": 1314,
      "erhö": 1315,
      "chinas": 1316,
      "##dr": 1317,
      "hast": 1318,
      "bevölker": 1319,
      "wahrschein": 1320,
      "jen": 1321,
      "##ite": 1322,
      "##ogen": 1323,
      "##ratie": 1324,
      "##zug": 1325,
      "##spro": 1326,
      "##kehr": 1327,
      "##aupt": 1328,
      "fa": 1329,
      "putin": 1330,
      "vergangen": 1331,
      "##kur": 1332,
      "##tzt": 1333,
      "##ffiz": 1334,
      "französ": 1335,
      "##ätze": 1336,
      "##schaften": 1337,
      "jüng": 1338,
      "##bei": 1339,
      "sy": 1340,
      "##one": 1341,
      "##minister": 1342,
      "##formen": 1343,
      "europäische": 1344,
      "unsere": 1345,
      "##neh": 1346,
      "alles": 1347,
      "schwier": 1348,
      "indust": 1349,
      "zunehmen": 1350,
      "##ve": 1351,
      "stehen": 1352,
      "zin": 1353,
      "##ält": 1354,
      "zentral": 1355,
      "##inde": 1356,
      "##itäten": 1357,
      "##achsen": 1358,
      "##ration": 1359,
      "##ub": 1360,
      "##reten": 1361,
      "##ho": 1362,
      "fast": 1363,
      "steuer": 1364,
      "##ore": 1365,
      "##riff": 1366,
      "##äß": 1367,
      "##innen": 1368,
      "##iss": 1369,
      "##ilien": 1370,
      "veränder": 1371,
      "ähn": 1372,
      "tran": 1373,
      "daher": 1374,
      "##tigt": 1375,
      "hinaus": 1376,
      "kontro": 1377,
      "tür": 1378,
      "hel": 1379,
      "gren": 1380,
      "##itz": 1381,
      "vereinigten": 1382,
      "##inen": 1383,
      "lebens": 1384,
      "schnell": 1385,
      "##arbeit": 1386,
      "bip": 1387,
      "##äuf": 1388,
      "zukunft": 1389,
      "dien": 1390,
      "kinder": 1391,
      "##roh": 1392,
      "##err": 1393,
      "ph": 1394,
      "weise": 1395,
      "ihm": 1396,
      "meine": 1397,
      "inner": 1398,
      "nor": 1399,
      "rolle": 1400,
      "##lage": 1401,
      "einkommen": 1402,
      "internationale": 1403,
      "pers": 1404,
      "##iehen": 1405,
      "##sweise": 1406,
      "steht": 1407,
      "##alismus": 1408,
      "lange": 1409,
      "##maß": 1410,
      "entscheiden": 1411,
      "wirtschaftliche": 1412,
      "##tete": 1413,
      "199": 1414,
      "##ativen": 1415,
      "##ziel": 1416,
      "sicherheit": 1417,
      "scheint": 1418,
      "stabil": 1419,
      "auswir": 1420,
      "gar": 1421,
      "##prei": 1422,
      "wert": 1423,
      "bürger": 1424,
      "##hunder": 1425,
      "art": 1426,
      "mög": 1427,
      "##dit": 1428,
      "##ult": 1429,
      "gemeinsam": 1430,
      "##ian": 1431,
      "herausforder": 1432,
      "po": 1433,
      "##ären": 1434,
      "##leist": 1435,
      "liegt": 1436,
      "ukra": 1437,
      "för": 1438,
      "voll": 1439,
      "##gung": 1440,
      "##ören": 1441,
      "##stellung": 1442,
      "##sf": 1443,
      "##rech": 1444,
      "##ikas": 1445,
      "##sichtlich": 1446,
      "##licherweise": 1447,
      "eigenen": 1448,
      "verantwort": 1449,
      "##aufen": 1450,
      "##az": 1451,
      "wenig": 1452,
      "##frage": 1453,
      "##lo": 1454,
      "markt": 1455,
      "deren": 1456,
      "##net": 1457,
      "##achen": 1458,
      "##bewer": 1459,
      "niedr": 1460,
      "gesetz": 1461,
      "##äf": 1462,
      "##reffen": 1463,
      "bleiben": 1464,
      "##icher": 1465,
      "langfrist": 1466,
      "##spl": 1467,
      "globale": 1468,
      "öl": 1469,
      "##euer": 1470,
      "hinter": 1471,
      "##kten": 1472,
      "##io": 1473,
      "##lossen": 1474,
      "genau": 1475,
      "##tier": 1476,
      "süd": 1477,
      "beit": 1478,
      "indien": 1479,
      "hand": 1480,
      "beiden": 1481,
      "##olu": 1482,
      "unterschie": 1483,
      "probleme": 1484,
      "demokratie": 1485,
      "ebenso": 1486,
      "rei": 1487,
      "##ktiv": 1488,
      "akt": 1489,
      "##alisierung": 1490,
      "stellen": 1491,
      "##schw": 1492,
      "dort": 1493,
      "tag": 1494,
      "##twend": 1495,
      "##spoliti": 1496,
      "innerhalb": 1497,
      "##0er": 1498,
      "verk": 1499,
      "lage": 1500,
      "##ubl": 1501,
      "##cken": 1502,
      "##immt": 1503,
      "lös": 1504,
      "natürlich": 1505,
      "##struktur": 1506,
      "##flik": 1507,
      "oft": 1508,
      "##ildung": 1509,
      "##amer": 1510,
      "schle": 1511,
      "##unter": 1512,
      "seinem": 1513,
      "wirtschafts": 1514,
      "handels": 1515,
      "frank": 1516,
      "ökon": 1517,
      "ausl": 1518,
      "verring": 1519,
      "notwend": 1520,
      "jahrhunder": 1521,
      "klein": 1522,
      "stärker": 1523,
      "bringen": 1524,
      "anf": 1525,
      "sagen": 1526,
      "##dien": 1527,
      "sen": 1528,
      "dür": 1529,
      "west": 1530,
      "##fluss": 1531,
      "##ektiv": 1532,
      "##ähigkeit": 1533,
      "kredit": 1534,
      "ergeb": 1535,
      "wollen": 1536,
      "politiker": 1537,
      "##istan": 1538,
      "##punkt": 1539,
      "überw": 1540,
      "gesellschaft": 1541,
      "hal": 1542,
      "##erst": 1543,
      "##andem": 1544,
      "##schul": 1545,
      "##rieben": 1546,
      "wirklich": 1547,
      "einzu": 1548,
      "##abhäng": 1549,
      "geben": 1550,
      "##ieten": 1551,
      "wett": 1552,
      "beim": 1553,
      "darin": 1554,
      "auswirkungen": 1555,
      "großb": 1556,
      "##gegen": 1557,
      "entscheidung": 1558,
      "wich": 1559,
      "aktu": 1560,
      "##ingen": 1561,
      "vielen": 1562,
      "##krise": 1563,
      "form": 1564,
      "##zone": 1565,
      "bedeut": 1566,
      "ken": 1567,
      "mag": 1568,
      "##ali": 1569,
      "arg": 1570,
      "bezieh": 1571,
      "##ster": 1572,
      "fortsch": 1573,
      "frankreich": 1574,
      "##fung": 1575,
      "##unktion": 1576,
      "einsch": 1577,
      "##nden": 1578,
      "gesundheits": 1579,
      "ur": 1580,
      "##beiten": 1581,
      "##annt": 1582,
      "##recht": 1583,
      "##auer": 1584,
      "##heb": 1585,
      "##ritte": 1586,
      "sag": 1587,
      "##reifen": 1588,
      "##erne": 1589,
      "helfen": 1590,
      "stand": 1591,
      "##alität": 1592,
      "##ahmen": 1593,
      "##ritann": 1594,
      "bit": 1595,
      "gerade": 1596,
      "außen": 1597,
      "erreichen": 1598,
      "bil": 1599,
      "##wandel": 1600,
      "##ph": 1601,
      "##ritannien": 1602,
      "erken": 1603,
      "##alien": 1604,
      "##als": 1605,
      "geschichte": 1606,
      "kor": 1607,
      "##ende": 1608,
      "großbritannien": 1609,
      "##yn": 1610,
      "nachhal": 1611,
      "weitere": 1612,
      "##sprechen": 1613,
      "fünf": 1614,
      "bereich": 1615,
      "irak": 1616,
      "##ktor": 1617,
      "sowohl": 1618,
      "##tigung": 1619,
      "plan": 1620,
      "prof": 1621,
      "org": 1622,
      "gab": 1623,
      "keinen": 1624,
      "lu": 1625,
      "beispielsweise": 1626,
      "ru": 1627,
      "##ieden": 1628,
      "größer": 1629,
      "arm": 1630,
      "kat": 1631,
      "präsidenten": 1632,
      "##zes": 1633,
      "auszu": 1634,
      "bevor": 1635,
      "hatten": 1636,
      "vier": 1637,
      "##ahren": 1638,
      "möchte": 1639,
      "##ief": 1640,
      "allein": 1641,
      "lin": 1642,
      "unabhäng": 1643,
      "gemacht": 1644,
      "dessen": 1645,
      "gefähr": 1646,
      "deutlich": 1647,
      "##durch": 1648,
      "öffentlichen": 1649,
      "##ielle": 1650,
      "mensch": 1651,
      "kommt": 1652,
      "##zep": 1653,
      "##ühl": 1654,
      "##istischen": 1655,
      "anzu": 1656,
      "sehen": 1657,
      "verhin": 1658,
      "##gn": 1659,
      "konflik": 1660,
      "##20": 1661,
      "rahmen": 1662,
      "union": 1663,
      "se": 1664,
      "##ört": 1665,
      "fehl": 1666,
      "fragen": 1667,
      "weiterhin": 1668,
      "inform": 1669,
      "enor": 1670,
      "##äst": 1671,
      "##falls": 1672,
      "##reiben": 1673,
      "steigen": 1674,
      "allem": 1675,
      "allgem": 1676,
      "stark": 1677,
      "##beh": 1678,
      "gener": 1679,
      "pal": 1680,
      "wissenschaft": 1681,
      "ausb": 1682,
      "grie": 1683,
      "##hol": 1684,
      "##aren": 1685,
      "führung": 1686,
      "##ließen": 1687,
      "stim": 1688,
      "gewalt": 1689,
      "funktion": 1690,
      "eurozone": 1691,
      "besonder": 1692,
      "grupp": 1693,
      "##han": 1694,
      "##wär": 1695,
      "##irtschaft": 1696,
      "amerikanischen": 1697,
      "bank": 1698,
      "##ländern": 1699,
      "werde": 1700,
      "##man": 1701,
      "it": 1702,
      "##tischen": 1703,
      "##ässt": 1704,
      "zweiten": 1705,
      "frieden": 1706,
      "##licht": 1707,
      "##tem": 1708,
      "##ef": 1709,
      "##raten": 1710,
      "westen": 1711,
      "##stra": 1712,
      "bus": 1713,
      "pa": 1714,
      "##gesetzt": 1715,
      "beru": 1716,
      "##krieg": 1717,
      "new": 1718,
      "hoh": 1719,
      "bestehen": 1720,
      "##räfte": 1721,
      "wahrscheinlich": 1722,
      "bill": 1723,
      "##ürz": 1724,
      "##ösen": 1725,
      "beschäf": 1726,
      "weltweit": 1727,
      "organis": 1728,
      "obam": 1729,
      "##racht": 1730,
      "nord": 1731,
      "amerika": 1732,
      "aktiv": 1733,
      "per": 1734,
      "##ourc": 1735,
      "einfluss": 1736,
      "##esser": 1737,
      "ihrem": 1738,
      "klimawandel": 1739,
      "ja": 1740,
      "##gabe": 1741,
      "##folge": 1742,
      "##ünd": 1743,
      "inn": 1744,
      "dra": 1745,
      "umw": 1746,
      "früher": 1747,
      "##tigkeit": 1748,
      "wettbewer": 1749,
      "erwar": 1750,
      "##fs": 1751,
      "terr": 1752,
      "bevölkerung": 1753,
      "##llen": 1754,
      "halten": 1755,
      "##onds": 1756,
      "kaum": 1757,
      "##setzung": 1758,
      "disk": 1759,
      "##zess": 1760,
      "##olution": 1761,
      "ukraine": 1762,
      "allen": 1763,
      "##gramm": 1764,
      "##sehen": 1765,
      "konnte": 1766,
      "##sätz": 1767,
      "abzu": 1768,
      "##lam": 1769,
      "verz": 1770,
      "##tiger": 1771,
      "as": 1772,
      "##ium": 1773,
      "##ekte": 1774,
      "##trem": 1775,
      "ara": 1776,
      "##tschaften": 1777,
      "##prä": 1778,
      "##schn": 1779,
      "türk": 1780,
      "terror": 1781,
      "##immer": 1782,
      "##äufig": 1783,
      "nutzen": 1784,
      "europas": 1785,
      "glauben": 1786,
      "##reit": 1787,
      "zudem": 1788,
      "hoff": 1789,
      "schließlich": 1790,
      "finden": 1791,
      "jem": 1792,
      "##druck": 1793,
      "##asst": 1794,
      "##tisch": 1795,
      "italien": 1796,
      "kommun": 1797,
      "aufge": 1798,
      "niem": 1799,
      "daran": 1800,
      "zehn": 1801,
      "sicherheits": 1802,
      "##essourc": 1803,
      "preis": 1804,
      "regul": 1805,
      "jeder": 1806,
      "##erk": 1807,
      "##ften": 1808,
      "##ögen": 1809,
      "institutionen": 1810,
      "chinesischen": 1811,
      "nächsten": 1812,
      "##istische": 1813,
      "prä": 1814,
      "##handel": 1815,
      "##dessen": 1816,
      "##ina": 1817,
      "aufzu": 1818,
      "verur": 1819,
      "wettbewerb": 1820,
      "##ow": 1821,
      "##ultur": 1822,
      "##igt": 1823,
      "##führen": 1824,
      "##ühungen": 1825,
      "erf": 1826,
      "##nehmer": 1827,
      "##äter": 1828,
      "##aktion": 1829,
      "##änger": 1830,
      "amerikas": 1831,
      "##19": 1832,
      "briti": 1833,
      "größten": 1834,
      "##fel": 1835,
      "wasser": 1836,
      "nehmen": 1837,
      "republ": 1838,
      "##jen": 1839,
      "bleibt": 1840,
      "einge": 1841,
      "eff": 1842,
      "##itzen": 1843,
      "et": 1844,
      "##eigt": 1845,
      "unterschied": 1846,
      "islam": 1847,
      "reich": 1848,
      "poten": 1849,
      "##ement": 1850,
      "verbesser": 1851,
      "##essourcen": 1852,
      "schü": 1853,
      "##haf": 1854,
      "bedeutet": 1855,
      "##onen": 1856,
      "##weg": 1857,
      "##iellen": 1858,
      "##führung": 1859,
      "paläst": 1860,
      "vorteil": 1861,
      "##banken": 1862,
      "haushalts": 1863,
      "##sition": 1864,
      "wachsen": 1865,
      "richt": 1866,
      "##cher": 1867,
      "##aden": 1868,
      "krank": 1869,
      "##stehen": 1870,
      "##tik": 1871,
      "##ierungs": 1872,
      "##andemie": 1873,
      "verteid": 1874,
      "##ämpf": 1875,
      "nationalen": 1876,
      "##igkeiten": 1877,
      "##unde": 1878,
      "##weisen": 1879,
      "setz": 1880,
      "uni": 1881,
      "angeb": 1882,
      "ersch": 1883,
      "währungs": 1884,
      "##leihen": 1885,
      "##ause": 1886,
      "##räsident": 1887,
      "mitglied": 1888,
      "bedeutung": 1889,
      "##staaten": 1890,
      "produktion": 1891,
      "ungleich": 1892,
      "solche": 1893,
      "arbeitspl": 1894,
      "atom": 1895,
      "gesundheit": 1896,
      "interessen": 1897,
      "bist": 1898,
      "##markt": 1899,
      "vertrauen": 1900,
      "##bare": 1901,
      "##äft": 1902,
      "schaffen": 1903,
      "rev": 1904,
      "##opul": 1905,
      "woch": 1906,
      "leist": 1907,
      "##weil": 1908,
      "ansatz": 1909,
      "buch": 1910,
      "##renz": 1911,
      "innov": 1912,
      "##kore": 1913,
      "##iegen": 1914,
      "##ip": 1915,
      "##ara": 1916,
      "##swer": 1917,
      "cov": 1918,
      "chanc": 1919,
      "daten": 1920,
      "unver": 1921,
      "wachstums": 1922,
      "sorgen": 1923,
      "ged": 1924,
      "##leben": 1925,
      "##zentr": 1926,
      "lässt": 1927,
      "gering": 1928,
      "the": 1929,
      "##assung": 1930,
      "bisher": 1931,
      "##wür": 1932,
      "sagte": 1933,
      "ne": 1934,
      "extrem": 1935,
      "##fern": 1936,
      "vorher": 1937,
      "##wirtschaften": 1938,
      "sozial": 1939,
      "##liches": 1940,
      "niemand": 1941,
      "lei": 1942,
      "umfassen": 1943,
      "irgend": 1944,
      "sau": 1945,
      "einzel": 1946,
      "##ikanischen": 1947,
      "##angel": 1948,
      "bau": 1949,
      "bedroh": 1950,
      "leg": 1951,
      "##lex": 1952,
      "##haus": 1953,
      "derartige": 1954,
      "fam": 1955,
      "derzeit": 1956,
      "außerdem": 1957,
      "hervor": 1958,
      "dein": 1959,
      "##voll": 1960,
      "##usst": 1961,
      "besonders": 1962,
      "##dert": 1963,
      "##mäß": 1964,
      "überzeu": 1965,
      "kampf": 1966,
      "##echsel": 1967,
      "##spolitik": 1968,
      "sekt": 1969,
      "##lassen": 1970,
      "reformen": 1971,
      "##swachstum": 1972,
      "beide": 1973,
      "har": 1974,
      "druck": 1975,
      "##indest": 1976,
      "armut": 1977,
      "bitte": 1978,
      "##frastruktur": 1979,
      "syr": 1980,
      "kriti": 1981,
      "##derung": 1982,
      "##omen": 1983,
      "##kung": 1984,
      "öffentliche": 1985,
      "integ": 1986,
      "bemühungen": 1987,
      "##orge": 1988,
      "moder": 1989,
      "prote": 1990,
      "sollen": 1991,
      "ressourcen": 1992,
      "möglicherweise": 1993,
      "##ont": 1994,
      "ehem": 1995,
      "##baren": 1996,
      "tradi": 1997,
      "rich": 1998,
      "covid": 1999,
      "them": 2000,
      "aust": 2001,
      "allgemein": 2002,
      "erhalten": 2003,
      "erste": 2004,
      "##iten": 2005,
      "genug": 2006,
      "nieder": 2007,
      "chinesische": 2008,
      "##such": 2009,
      "jahres": 2010,
      "##scht": 2011,
      "abhäng": 2012,
      "##opp": 2013,
      "national": 2014,
      "##assi": 2015,
      "lehr": 2016,
      "industrie": 2017,
      "erheb": 2018,
      "struktur": 2019,
      "beding": 2020,
      "co": 2021,
      "##örden": 2022,
      "jähr": 2023,
      "komp": 2024,
      "verpf": 2025,
      "risiko": 2026,
      "hilfe": 2027,
      "gesagt": 2028,
      "mitt": 2029,
      "##ton": 2030,
      "##jenigen": 2031,
      "arab": 2032,
      "nachdem": 2033,
      "unterstützen": 2034,
      "schutz": 2035,
      "##schnit": 2036,
      "worden": 2037,
      "beziehungen": 2038,
      "##chter": 2039,
      "ledig": 2040,
      "##ße": 2041,
      "unbe": 2042,
      "##erken": 2043,
      "son": 2044,
      "covid19": 2045,
      "lediglich": 2046,
      "##ahlen": 2047,
      "##iesen": 2048,
      "##gram": 2049,
      "##zustellen": 2050,
      "hätten": 2051,
      "ra": 2052,
      "erg": 2053,
      "##drück": 2054,
      "erhol": 2055,
      "glück": 2056,
      "##treten": 2057,
      "iw": 2058,
      "vern": 2059,
      "gefahr": 2060,
      "zugang": 2061,
      "brauchen": 2062,
      "risiken": 2063,
      "zusätz": 2064,
      "end": 2065,
      "kultur": 2066,
      "fal": 2067,
      "##rup": 2068,
      "##schung": 2069,
      "##ritten": 2070,
      "##vention": 2071,
      "parla": 2072,
      "##samen": 2073,
      "##finden": 2074,
      "später": 2075,
      "##zip": 2076,
      "##ime": 2077,
      "zunehmend": 2078,
      "palästinen": 2079,
      "##ys": 2080,
      "##tische": 2081,
      "198": 2082,
      "##andlungen": 2083,
      "ausländ": 2084,
      "beein": 2085,
      "##rop": 2086,
      "##ächst": 2087,
      "argumen": 2088,
      "ausgaben": 2089,
      "beitra": 2090,
      "ag": 2091,
      "##bil": 2092,
      "wor": 2093,
      "kons": 2094,
      "moment": 2095,
      "volkswirtschaften": 2096,
      "lösung": 2097,
      "##roffen": 2098,
      "flü": 2099,
      "##ose": 2100,
      "weltwirtschaft": 2101,
      "mor": 2102,
      "vermögen": 2103,
      "##zeitig": 2104,
      "laut": 2105,
      "ergebnis": 2106,
      "##ase": 2107,
      "##ünst": 2108,
      "tradition": 2109,
      "##sver": 2110,
      "liber": 2111,
      "af": 2112,
      "popul": 2113,
      "weltweiten": 2114,
      "behaup": 2115,
      "erfahr": 2116,
      "fort": 2117,
      "##ias": 2118,
      "ziele": 2119,
      "herr": 2120,
      "erfolgreich": 2121,
      "pass": 2122,
      "wes": 2123,
      "obama": 2124,
      "iwf": 2125,
      "bas": 2126,
      "gute": 2127,
      "##tragen": 2128,
      "##öhn": 2129,
      "##zession": 2130,
      "##deu": 2131,
      "zun": 2132,
      "##egt": 2133,
      "##ffizien": 2134,
      "##bruch": 2135,
      "kontrolle": 2136,
      "erl": 2137,
      "konzentr": 2138,
      "##teten": 2139,
      "##dung": 2140,
      "osten": 2141,
      "##isches": 2142,
      "infrastruktur": 2143,
      "op": 2144,
      "tatsache": 2145,
      "häufig": 2146,
      "treffen": 2147,
      "wären": 2148,
      "##ena": 2149,
      "##schlä": 2150,
      "##elten": 2151,
      "einw": 2152,
      "##stleist": 2153,
      "##ret": 2154,
      "richtung": 2155,
      "amerikanische": 2156,
      "##tien": 2157,
      "schwellen": 2158,
      "##ban": 2159,
      "##til": 2160,
      "##ärkten": 2161,
      "einzige": 2162,
      "15": 2163,
      "##kom": 2164,
      "##anten": 2165,
      "##sektor": 2166,
      "möglichkeit": 2167,
      "##schlag": 2168,
      "##ämp": 2169,
      "##märkte": 2170,
      "##bat": 2171,
      "##ive": 2172,
      "ernst": 2173,
      "verhindern": 2174,
      "##eten": 2175,
      "##üg": 2176,
      "euch": 2177,
      "2008": 2178,
      "verg": 2179,
      "ehemal": 2180,
      "##chtet": 2181,
      "höch": 2182,
      "##porte": 2183,
      "wichtige": 2184,
      "##ingt": 2185,
      "unserer": 2186,
      "bru": 2187,
      "##issionen": 2188,
      "##trag": 2189,
      "schaf": 2190,
      "zug": 2191,
      "ann": 2192,
      "stud": 2193,
      "##ähler": 2194,
      "##zogen": 2195,
      "är": 2196,
      "anders": 2197,
      "jeden": 2198,
      "##ress": 2199,
      "liegen": 2200,
      "fäll": 2201,
      "##ckt": 2202,
      "##sei": 2203,
      "überra": 2204,
      "bush": 2205,
      "türkei": 2206,
      "russischen": 2207,
      "##losigkeit": 2208,
      "ökonom": 2209,
      "##lung": 2210,
      "##ivil": 2211,
      "ging": 2212,
      "##defiz": 2213,
      "trumps": 2214,
      "##bel": 2215,
      "ret": 2216,
      "regel": 2217,
      "##inden": 2218,
      "wollte": 2219,
      "##einander": 2220,
      "##anden": 2221,
      "verbrauch": 2222,
      "##andid": 2223,
      "##trä": 2224,
      "afrika": 2225,
      "##app": 2226,
      "univers": 2227,
      "anteil": 2228,
      "spielen": 2229,
      "strategie": 2230,
      "zusammenarbeit": 2231,
      "##sichtig": 2232,
      "##raft": 2233,
      "griechen": 2234,
      "##untern": 2235,
      "früh": 2236,
      "angst": 2237,
      "ihres": 2238,
      "##risen": 2239,
      "pandemie": 2240,
      "zivil": 2241,
      "zeigen": 2242,
      "##undes": 2243,
      "##rach": 2244,
      "reag": 2245,
      "ta": 2246,
      "jung": 2247,
      "geführ": 2248,
      "grenzen": 2249,
      "überh": 2250,
      "tod": 2251,
      "bestimm": 2252,
      "angel": 2253,
      "neuer": 2254,
      "##eim": 2255,
      "umwelt": 2256,
      "reichen": 2257,
      "ober": 2258,
      "arbeiten": 2259,
      "##ork": 2260,
      "##urop": 2261,
      "haupt": 2262,
      "rezession": 2263,
      "##astrop": 2264,
      "##sichten": 2265,
      "eher": 2266,
      "medien": 2267,
      "##ßt": 2268,
      "gleichzeitig": 2269,
      "hause": 2270,
      "##asse": 2271,
      "politisch": 2272,
      "##produ": 2273,
      "ro": 2274,
      "##ston": 2275,
      "fehler": 2276,
      "vergleich": 2277,
      "gra": 2278,
      "##iens": 2279,
      "beschrän": 2280,
      "##führt": 2281,
      "##regierung": 2282,
      "verd": 2283,
      "paar": 2284,
      "führt": 2285,
      "leu": 2286,
      "##ünde": 2287,
      "ren": 2288,
      "##beiter": 2289,
      "exp": 2290,
      "##reib": 2291,
      "geschäft": 2292,
      "such": 2293,
      "getan": 2294,
      "##annte": 2295,
      "##mo": 2296,
      "##indung": 2297,
      "höhe": 2298,
      "##ure": 2299,
      "stellt": 2300,
      "##immen": 2301,
      "##dell": 2302,
      "##teilung": 2303,
      "gil": 2304,
      "verhalten": 2305,
      "sowj": 2306,
      "mann": 2307,
      "##raum": 2308,
      "##obil": 2309,
      "gewähr": 2310,
      "##zwischen": 2311,
      "zumindest": 2312,
      "##nete": 2313,
      "##richten": 2314,
      "##genommen": 2315,
      "seines": 2316,
      "wähler": 2317,
      "##folgen": 2318,
      "##union": 2319,
      "ausland": 2320,
      "welche": 2321,
      "amerikaner": 2322,
      "##inge": 2323,
      "nationen": 2324,
      "russlands": 2325,
      "relig": 2326,
      "vergangenen": 2327,
      "morgen": 2328,
      "##des": 2329,
      "##iges": 2330,
      "voraus": 2331,
      "wirtschaftswachstum": 2332,
      "##zb": 2333,
      "herausforderungen": 2334,
      "##preise": 2335,
      "##ies": 2336,
      "grundlegen": 2337,
      "letzt": 2338,
      "pak": 2339,
      "wesent": 2340,
      "##rieb": 2341,
      "zerst": 2342,
      "trans": 2343,
      "prak": 2344,
      "bezeich": 2345,
      "bedeuten": 2346,
      "griechenland": 2347,
      "normal": 2348,
      "##isierung": 2349,
      "##agement": 2350,
      "hinsichtlich": 2351,
      "##haft": 2352,
      "revolution": 2353,
      "gilt": 2354,
      "stabilität": 2355,
      "impf": 2356,
      "##rechte": 2357,
      "profiti": 2358,
      "verloren": 2359,
      "städ": 2360,
      "##ätzen": 2361,
      "##blick": 2362,
      "erreicht": 2363,
      "mangel": 2364,
      "inzwischen": 2365,
      "mut": 2366,
      "##istor": 2367,
      "offiz": 2368,
      "##tell": 2369,
      "gemeinschaft": 2370,
      "sah": 2371,
      "reaktion": 2372,
      "französisch": 2373,
      "einigen": 2374,
      "##abkommen": 2375,
      "krie": 2376,
      "##omin": 2377,
      "##000": 2378,
      "##ha": 2379,
      "redu": 2380,
      "abge": 2381,
      "##eder": 2382,
      "##inst": 2383,
      "##ohlen": 2384,
      "gesehen": 2385,
      "durchschnit": 2386,
      "anderer": 2387,
      "altern": 2388,
      "finanzkrise": 2389,
      "boston": 2390,
      "flücht": 2391,
      "##mung": 2392,
      "produktiv": 2393,
      "##reiten": 2394,
      "regeln": 2395,
      "mul": 2396,
      "##ernen": 2397,
      "geworden": 2398,
      "##unternehmen": 2399,
      "##denken": 2400,
      "york": 2401,
      "##üt": 2402,
      "prin": 2403,
      "üb": 2404,
      "regierungs": 2405,
      "##altung": 2406,
      "##abl": 2407,
      "fed": 2408,
      "parteien": 2409,
      "##onnen": 2410,
      "##älle": 2411,
      "##stieg": 2412,
      "anti": 2413,
      "tr": 2414,
      "ev": 2415,
      "##hil": 2416,
      "##plom": 2417,
      "##möglich": 2418,
      "nachfrage": 2419,
      "glaub": 2420,
      "##iet": 2421,
      "##ituation": 2422,
      "vergangenheit": 2423,
      "privaten": 2424,
      "dro": 2425,
      "##halt": 2426,
      "ange": 2427,
      "##are": 2428,
      "##kam": 2429,
      "##mals": 2430,
      "verurs": 2431,
      "partner": 2432,
      "##ghan": 2433,
      "##oss": 2434,
      "##zeich": 2435,
      "sprechen": 2436,
      "gewesen": 2437,
      "korrup": 2438,
      "minister": 2439,
      "nahe": 2440,
      "ha": 2441,
      "braucht": 2442,
      "histor": 2443,
      "sin": 2444,
      "nationale": 2445,
      "jüngsten": 2446,
      "##ta": 2447,
      "##annten": 2448,
      "anfang": 2449,
      "märkte": 2450,
      "##amt": 2451,
      "afghan": 2452,
      "##üll": 2453,
      "##arf": 2454,
      "##ieht": 2455,
      "jene": 2456,
      "sub": 2457,
      "wahlen": 2458,
      "verschieden": 2459,
      "##maßnahmen": 2460,
      "ezb": 2461,
      "darunter": 2462,
      "##dt": 2463,
      "su": 2464,
      "wechsel": 2465,
      "##atur": 2466,
      "proj": 2467,
      "könig": 2468,
      "transp": 2469,
      "lok": 2470,
      "##tit": 2471,
      "besuch": 2472,
      "entscheidungen": 2473,
      "bekommen": 2474,
      "verstär": 2475,
      "kürz": 2476,
      "fu": 2477,
      "armen": 2478,
      "##gramme": 2479,
      "fir": 2480,
      "##ange": 2481,
      "##gte": 2482,
      "versuchen": 2483,
      "gerne": 2484,
      "##ranken": 2485,
      "empf": 2486,
      "kn": 2487,
      "lag": 2488,
      "##räng": 2489,
      "sicht": 2490,
      "##äss": 2491,
      "##ote": 2492,
      "##essern": 2493,
      "##ember": 2494,
      "erk": 2495,
      "schritt": 2496,
      "augen": 2497,
      "äu": 2498,
      "erd": 2499,
      "investition": 2500,
      "rad": 2501,
      "##ielt": 2502,
      "##samkeit": 2503,
      "##opf": 2504,
      "verschw": 2505,
      "ganzen": 2506,
      "trotzdem": 2507,
      "##gern": 2508,
      "massi": 2509,
      "##esse": 2510,
      "reform": 2511,
      "sektor": 2512,
      "char": 2513,
      "##waffen": 2514,
      "schuld": 2515,
      "akzep": 2516,
      "dadurch": 2517,
      "anz": 2518,
      "entwickeln": 2519,
      "erneu": 2520,
      "män": 2521,
      "verbessern": 2522,
      "hohen": 2523,
      "jede": 2524,
      "10": 2525,
      "##inner": 2526,
      "geführt": 2527,
      "bein": 2528,
      "glaube": 2529,
      "ord": 2530,
      "weiteren": 2531,
      "##stimm": 2532,
      "dienstleist": 2533,
      "##wert": 2534,
      "dig": 2535,
      "zuge": 2536,
      "dan": 2537,
      "##strä": 2538,
      "sozialen": 2539,
      "letztlich": 2540,
      "zugleich": 2541,
      "länger": 2542,
      "abs": 2543,
      "verbunden": 2544,
      "usp": 2545,
      "fördern": 2546,
      "##andlung": 2547,
      "##feren": 2548,
      "##orgung": 2549,
      "digit": 2550,
      "beteil": 2551,
      "abkommen": 2552,
      "erhöhen": 2553,
      "##iere": 2554,
      "stadt": 2555,
      "met": 2556,
      "diplom": 2557,
      "überhaupt": 2558,
      "nö": 2559,
      "##anktionen": 2560,
      "##organis": 2561,
      "wandel": 2562,
      "prozess": 2563,
      "jedes": 2564,
      "politischer": 2565,
      "angriff": 2566,
      "reduz": 2567,
      "mehrheit": 2568,
      "min": 2569,
      "bildung": 2570,
      "bezug": 2571,
      "##auft": 2572,
      "kurzfrist": 2573,
      "sinn": 2574,
      "bedrohung": 2575,
      "##ologie": 2576,
      "bra": 2577,
      "wohlstand": 2578,
      "##jähr": 2579,
      "debat": 2580,
      "te": 2581,
      "span": 2582,
      "besten": 2583,
      "sieht": 2584,
      "##fonds": 2585,
      "##pag": 2586,
      "##öll": 2587,
      "##zin": 2588,
      "##twick": 2589,
      "untersuch": 2590,
      "##ämpfen": 2591,
      "##iveau": 2592,
      "##endet": 2593,
      "erziel": 2594,
      "##mente": 2595,
      "##ron": 2596,
      "##weis": 2597,
      "freund": 2598,
      "bild": 2599,
      "völl": 2600,
      "initi": 2601,
      "pakistan": 2602,
      "##pfel": 2603,
      "gol": 2604,
      "##kle": 2605,
      "##eind": 2606,
      "äg": 2607,
      "real": 2608,
      "##ngress": 2609,
      "##öffent": 2610,
      "anw": 2611,
      "##abt": 2612,
      "zentr": 2613,
      "ad": 2614,
      "bundes": 2615,
      "##fft": 2616,
      "imm": 2617,
      "absch": 2618,
      "gegenwär": 2619,
      "setzen": 2620,
      "zunächst": 2621,
      "ehr": 2622,
      "##ator": 2623,
      "##aut": 2624,
      "##öst": 2625,
      "##ations": 2626,
      "##echs": 2627,
      "erholung": 2628,
      "ägyp": 2629,
      "##onald": 2630,
      "##ondon": 2631,
      "hohe": 2632,
      "öffentlichkeit": 2633,
      "persön": 2634,
      "pf": 2635,
      "natur": 2636,
      "verpflich": 2637,
      "lock": 2638,
      "##ierenden": 2639,
      "##setz": 2640,
      "katastrop": 2641,
      "befür": 2642,
      "##merk": 2643,
      "aktien": 2644,
      "seite": 2645,
      "anstieg": 2646,
      "leicht": 2647,
      "london": 2648,
      "erkennen": 2649,
      "##korea": 2650,
      "leisten": 2651,
      "##bringen": 2652,
      "aktuellen": 2653,
      "deine": 2654,
      "##leu": 2655,
      "fisk": 2656,
      "##ählt": 2657,
      "##eits": 2658,
      "grundlage": 2659,
      "seiten": 2660,
      "##ahn": 2661,
      "betrachtet": 2662,
      "leiden": 2663,
      "deshalb": 2664,
      "technologie": 2665,
      "##bet": 2666,
      "##ktoren": 2667,
      "kredi": 2668,
      "ziehen": 2669,
      "geg": 2670,
      "197": 2671,
      "##älfte": 2672,
      "monat": 2673,
      "musl": 2674,
      "herausforderung": 2675,
      "aussch": 2676,
      "##werk": 2677,
      "schützen": 2678,
      "##chn": 2679,
      "##grupp": 2680,
      "entsp": 2681,
      "##ssta": 2682,
      "##eiger": 2683,
      "direkt": 2684,
      "##igte": 2685,
      "verringern": 2686,
      "bald": 2687,
      "dauer": 2688,
      "größte": 2689,
      "zeigt": 2690,
      "##bauen": 2691,
      "versucht": 2692,
      "##finanz": 2693,
      "##uden": 2694,
      "##osen": 2695,
      "ausreich": 2696,
      "##standen": 2697,
      "autor": 2698,
      "veränderungen": 2699,
      "##stens": 2700,
      "exper": 2701,
      "fortschritte": 2702,
      "benö": 2703,
      "fer": 2704,
      "antwort": 2705,
      "##ling": 2706,
      "ebenfalls": 2707,
      "technologien": 2708,
      "globalisierung": 2709,
      "präsidentschaft": 2710,
      "##ämpfung": 2711,
      "##achte": 2712,
      "reser": 2713,
      "##achten": 2714,
      "gelegen": 2715,
      "30": 2716,
      "ausmaß": 2717,
      "beginn": 2718,
      "schule": 2719,
      "kar": 2720,
      "veröffent": 2721,
      "diejenigen": 2722,
      "erschein": 2723,
      "gek": 2724,
      "situation": 2725,
      "relativ": 2726,
      "mu": 2727,
      "##ates": 2728,
      "##verb": 2729,
      "potenz": 2730,
      "merk": 2731,
      "verab": 2732,
      "##tum": 2733,
      "##gesetz": 2734,
      "dennoch": 2735,
      "##fäll": 2736,
      "##rang": 2737,
      "jahrzehnten": 2738,
      "bras": 2739,
      "##jun": 2740,
      "abw": 2741,
      "##sprü": 2742,
      "tief": 2743,
      "neg": 2744,
      "##best": 2745,
      "nachbar": 2746,
      "jahrhundert": 2747,
      "moral": 2748,
      "##hang": 2749,
      "##icherheit": 2750,
      "effektiv": 2751,
      "steuern": 2752,
      "25": 2753,
      "##gessen": 2754,
      "meinen": 2755,
      "spar": 2756,
      "vereinten": 2757,
      "fern": 2758,
      "##macht": 2759,
      "änder": 2760,
      "##geber": 2761,
      "jan": 2762,
      "trä": 2763,
      "##ichtet": 2764,
      "rund": 2765,
      "tä": 2766,
      "miss": 2767,
      "untersch": 2768,
      "bewäl": 2769,
      "auto": 2770,
      "paris": 2771,
      "widerstand": 2772,
      "intell": 2773,
      "##üsse": 2774,
      "##ventionen": 2775,
      "hälfte": 2776,
      "anrei": 2777,
      "russische": 2778,
      "gemeinsame": 2779,
      "gemeinsamen": 2780,
      "verstehen": 2781,
      "handeln": 2782,
      "##iken": 2783,
      "wegen": 2784,
      "gehört": 2785,
      "and": 2786,
      "mobil": 2787,
      "konnten": 2788,
      "ol": 2789,
      "##ikanische": 2790,
      "nahen": 2791,
      "einsatz": 2792,
      "##junktur": 2793,
      "bieten": 2794,
      "##gestellt": 2795,
      "##würd": 2796,
      "fahr": 2797,
      "##losen": 2798,
      "kandid": 2799,
      "investoren": 2800,
      "zentralbank": 2801,
      "waffen": 2802,
      "##reben": 2803,
      "darf": 2804,
      "damals": 2805,
      "##sto": 2806,
      "amts": 2807,
      "50": 2808,
      "mäch": 2809,
      "##obei": 2810,
      "##rom": 2811,
      "wobei": 2812,
      "vorteile": 2813,
      "bedingungen": 2814,
      "höhere": 2815,
      "##einkommen": 2816,
      "interesse": 2817,
      "möglichkeiten": 2818,
      "##tierte": 2819,
      "kü": 2820,
      "pos": 2821,
      "##riel": 2822,
      "institution": 2823,
      "tat": 2824,
      "gewinnen": 2825,
      "##ans": 2826,
      "##stoffe": 2827,
      "sep": 2828,
      "verantwortung": 2829,
      "wann": 2830,
      "##tin": 2831,
      "##ämlich": 2832,
      "bre": 2833,
      "##eller": 2834,
      "anal": 2835,
      "##ziehen": 2836,
      "lernen": 2837,
      "syrien": 2838,
      "fiskal": 2839,
      "chr": 2840,
      "##inter": 2841,
      "##ussen": 2842,
      "18": 2843,
      "##eitung": 2844,
      "##ädchen": 2845,
      "nämlich": 2846,
      "führte": 2847,
      "idee": 2848,
      "sä": 2849,
      "##gehend": 2850,
      "irgendw": 2851,
      "##renn": 2852,
      "mitglieder": 2853,
      "##mehr": 2854,
      "abl": 2855,
      "##ce": 2856,
      "##rid": 2857,
      "bewusst": 2858,
      "##endung": 2859,
      "##ost": 2860,
      "##allen": 2861,
      "uner": 2862,
      "erhöh": 2863,
      "fähigkeit": 2864,
      "##son": 2865,
      "beitragen": 2866,
      "zinsen": 2867,
      "##osition": 2868,
      "##serv": 2869,
      "teilen": 2870,
      "wahrheit": 2871,
      "produktivität": 2872,
      "##rate": 2873,
      "##fahren": 2874,
      "verfügung": 2875,
      "begrenz": 2876,
      "preise": 2877,
      "heim": 2878,
      "äußer": 2879,
      "opf": 2880,
      "wichtiger": 2881,
      "##abilität": 2882,
      "asien": 2883,
      "bar": 2884,
      "##reter": 2885,
      "jahrhunderts": 2886,
      "ändern": 2887,
      "versp": 2888,
      "##amm": 2889,
      "##izin": 2890,
      "##rim": 2891,
      "##öglichen": 2892,
      "positi": 2893,
      "landwirtschaft": 2894,
      "##artei": 2895,
      "kontin": 2896,
      "##öh": 2897,
      "gegeben": 2898,
      "##remier": 2899,
      "erforderlich": 2900,
      "handelt": 2901,
      "##eck": 2902,
      "##echanis": 2903,
      "beträ": 2904,
      "##sträger": 2905,
      "sar": 2906,
      "entwickelt": 2907,
      "##to": 2908,
      "freiheit": 2909,
      "mary": 2910,
      "anp": 2911,
      "##setzt": 2912,
      "noten": 2913,
      "konjunktur": 2914,
      "arbeitslosigkeit": 2915,
      "schwierig": 2916,
      "kannst": 2917,
      "##riffen": 2918,
      "krisen": 2919,
      "einschließlich": 2920,
      "soziale": 2921,
      "##schläge": 2922,
      "##ählen": 2923,
      "chance": 2924,
      "völlig": 2925,
      "##ynam": 2926,
      "##orien": 2927,
      "essen": 2928,
      "##agn": 2929,
      "eigene": 2930,
      "poliz": 2931,
      "neues": 2932,
      "##ökon": 2933,
      "afghanistan": 2934,
      "mädchen": 2935,
      "##unehmen": 2936,
      "kommission": 2937,
      "erinner": 2938,
      "ungleichheit": 2939,
      "##spar": 2940,
      "konflikt": 2941,
      "privat": 2942,
      "defiz": 2943,
      "nato": 2944,
      "arbeitsplätze": 2945,
      "##teilt": 2946,
      "folge": 2947,
      "gruppen": 2948,
      "niedriger": 2949,
      "nukle": 2950,
      "##ausen": 2951,
      "##ierende": 2952,
      "bereichen": 2953,
      "##andelt": 2954,
      "##pliz": 2955,
      "##handels": 2956,
      "jul": 2957,
      "anhalten": 2958,
      "th": 2959,
      "##ufen": 2960,
      "##xit": 2961,
      "meinung": 2962,
      "me": 2963,
      "versprechen": 2964,
      "premier": 2965,
      "denken": 2966,
      "langsam": 2967,
      "geldpolitik": 2968,
      "prinzip": 2969,
      "kranken": 2970,
      "korruption": 2971,
      "namen": 2972,
      "mex": 2973,
      "##iko": 2974,
      "##neten": 2975,
      "letzte": 2976,
      "##ressi": 2977,
      "entwicklungsländern": 2978,
      "##jahr": 2979,
      "effizien": 2980,
      "arme": 2981,
      "umzu": 2982,
      "com": 2983,
      "zer": 2984,
      "unw": 2985,
      "darum": 2986,
      "##ächen": 2987,
      "##ietet": 2988,
      "aufmerk": 2989,
      "stärken": 2990,
      "vis": 2991,
      "entwicklungsländer": 2992,
      "ka": 2993,
      "meiner": 2994,
      "gebracht": 2995,
      "niedrig": 2996,
      "ordnung": 2997,
      "ereig": 2998,
      "mark": 2999,
      "##fallen": 3000,
      "zinss": 3001,
      "billionen": 3002,
      "donald": 3003,
      "zahlen": 3004,
      "##afr": 3005,
      "scheinen": 3006,
      "ganze": 3007,
      "kan": 3008,
      "hoffnung": 3009,
      "größere": 3010,
      "biden": 3011,
      "palästinens": 3012,
      "rechte": 3013,
      "regime": 3014,
      "soph": 3015,
      "beweg": 3016,
      "interess": 3017,
      "##alter": 3018,
      "rest": 3019,
      "thema": 3020,
      "drin": 3021,
      "ökonomen": 3022,
      "iden": 3023,
      "nä": 3024,
      "alter": 3025,
      "##twor": 3026,
      "unterstützt": 3027,
      "tragen": 3028,
      "ansicht": 3029,
      "bestand": 3030,
      "trend": 3031,
      "##nal": 3032,
      "100": 3033,
      "##hält": 3034,
      "sanktionen": 3035,
      "##elte": 3036,
      "zukünf": 3037,
      "parlament": 3038,
      "##anzen": 3039,
      "konfr": 3040,
      "manche": 3041,
      "##äum": 3042,
      "woche": 3043,
      "##rum": 3044,
      "großer": 3045,
      "verlassen": 3046,
      "momentan": 3047,
      "##üssel": 3048,
      "vereinbar": 3049,
      "##rot": 3050,
      "##gesell": 3051,
      "einkommens": 3052,
      "##itionen": 3053,
      "##ordnung": 3054,
      "demokratischen": 3055,
      "##zial": 3056,
      "opp": 3057,
      "zurückzu": 3058,
      "umfang": 3059,
      "eindeu": 3060,
      "internet": 3061,
      "ebene": 3062,
      "##zeigt": 3063,
      "arabischen": 3064,
      "aben": 3065,
      "##haltung": 3066,
      "schwäch": 3067,
      "##tember": 3068,
      "beob": 3069,
      "rech": 3070,
      "##ression": 3071,
      "neben": 3072,
      "##frieden": 3073,
      "staatlichen": 3074,
      "denke": 3075,
      "finanzierung": 3076,
      "konkur": 3077,
      "of": 3078,
      "##gungen": 3079,
      "##eld": 3080,
      "haushalte": 3081,
      "gesamten": 3082,
      "leute": 3083,
      "##tilater": 3084,
      "gesamt": 3085,
      "schaden": 3086,
      "wün": 3087,
      "##ikt": 3088,
      "usd": 3089,
      "staatliche": 3090,
      "konsum": 3091,
      "multilater": 3092,
      "not": 3093,
      "vater": 3094,
      "##reck": 3095,
      "##gesamt": 3096,
      "mig": 3097,
      "übersch": 3098,
      "führungs": 3099,
      "##ikaner": 3100,
      "##nissen": 3101,
      "britischen": 3102,
      "beste": 3103,
      "deutschen": 3104,
      "verschär": 3105,
      "dest": 3106,
      "ermöglichen": 3107,
      "gruppe": 3108,
      "junge": 3109,
      "woh": 3110,
      "##lang": 3111,
      "##atein": 3112,
      "verhandlungen": 3113,
      "##ierter": 3114,
      "verlang": 3115,
      "familien": 3116,
      "nahr": 3117,
      "##ens": 3118,
      "brexit": 3119,
      "kohlen": 3120,
      "la": 3121,
      "latein": 3122,
      "insgesamt": 3123,
      "verbünde": 3124,
      "verdien": 3125,
      "aufgabe": 3126,
      "werte": 3127,
      "ermöglich": 3128,
      "inflations": 3129,
      "##eite": 3130,
      "weder": 3131,
      "dürfte": 3132,
      "führer": 3133,
      "frau": 3134,
      "private": 3135,
      "integration": 3136,
      "sowjet": 3137,
      "roh": 3138,
      "##kraft": 3139,
      "ausw": 3140,
      "##spruch": 3141,
      "co2": 3142,
      "##hilfe": 3143,
      "überall": 3144,
      "ele": 3145,
      "##ierungen": 3146,
      "putins": 3147,
      "manch": 3148,
      "mutter": 3149,
      "wechselkur": 3150,
      "kredite": 3151,
      "erle": 3152,
      "##hingt": 3153,
      "##beding": 3154,
      "##ände": 3155,
      "wichtigsten": 3156,
      "##hington": 3157,
      "kraft": 3158,
      "##ütz": 3159,
      "informationen": 3160,
      "legiti": 3161,
      "##ährung": 3162,
      "währung": 3163,
      "kürzlich": 3164,
      "##greifen": 3165,
      "##30": 3166,
      "##staat": 3167,
      "medizin": 3168,
      "##itze": 3169,
      "##bs": 3170,
      "##hafte": 3171,
      "komplex": 3172,
      "##zt": 3173,
      "ign": 3174,
      "pau": 3175,
      "washington": 3176,
      "kontroll": 3177,
      "gas": 3178,
      "##ument": 3179,
      "reihe": 3180,
      "tö": 3181,
      "weltbank": 3182,
      "akte": 3183,
      "wirksam": 3184,
      "volkswirtschaft": 3185,
      "##ober": 3186,
      "##präsident": 3187,
      "##eitet": 3188,
      "austral": 3189,
      "##ökonom": 3190,
      "##ferenz": 3191,
      "rat": 3192,
      "##wesen": 3193,
      "erz": 3194,
      "entgegen": 3195,
      "vermeiden": 3196,
      "profitieren": 3197,
      "jungen": 3198,
      "tut": 3199,
      "königreich": 3200,
      "schick": 3201,
      "##apaz": 3202,
      "zusammenbruch": 3203,
      "europäer": 3204,
      "##beitet": 3205,
      "##nach": 3206,
      "##min": 3207,
      "bericht": 3208,
      "weltkrieg": 3209,
      "##ogra": 3210,
      "zweite": 3211,
      "sagt": 3212,
      "##genda": 3213,
      "2015": 3214,
      "bekannt": 3215,
      "lateinamer": 3216,
      "##tiver": 3217,
      "betrachten": 3218,
      "ignor": 3219,
      "##sy": 3220,
      "erwarten": 3221,
      "cor": 3222,
      "lösen": 3223,
      "##sl": 3224,
      "ill": 3225,
      "##arbeiten": 3226,
      "unmittel": 3227,
      "pra": 3228,
      "##tliche": 3229,
      "##ungsf": 3230,
      "prior": 3231,
      "stimmen": 3232,
      "brasilien": 3233,
      "offensichtlich": 3234,
      "##systeme": 3235,
      "erfordert": 3236,
      "verantwortlich": 3237,
      "john": 3238,
      "kaufen": 3239,
      "##atischen": 3240,
      "falls": 3241,
      "kern": 3242,
      "dynam": 3243,
      "##tiges": 3244,
      "notwendigkeit": 3245,
      "##kräfte": 3246,
      "firmen": 3247,
      "vors": 3248,
      "seien": 3249,
      "aufmerksamkeit": 3250,
      "##zwungen": 3251,
      "schaffung": 3252,
      "keiner": 3253,
      "##versorgung": 3254,
      "dienstleistungen": 3255,
      "durchaus": 3256,
      "dank": 3257,
      "##ide": 3258,
      "schätz": 3259,
      "bedarf": 3260,
      "sechs": 3261,
      "heutigen": 3262,
      "##ial": 3263,
      "##minist": 3264,
      "##schluss": 3265,
      "##ination": 3266,
      "##tim": 3267,
      "kongress": 3268,
      "konzentrieren": 3269,
      "##stat": 3270,
      "religi": 3271,
      "verabschie": 3272,
      "mehrere": 3273,
      "defin": 3274,
      "##ja": 3275,
      "##ohann": 3276,
      "##ity": 3277,
      "##ry": 3278,
      "anzahl": 3279,
      "gegensatz": 3280,
      "hum": 3281,
      "fertig": 3282,
      "strategien": 3283,
      "stattdessen": 3284,
      "##wachstum": 3285,
      "gestellt": 3286,
      "konserv": 3287,
      "verlieren": 3288,
      "##verl": 3289,
      "verständ": 3290,
      "johann": 3291,
      "falsch": 3292,
      "forder": 3293,
      "behörden": 3294,
      "##defizit": 3295,
      "verfügen": 3296,
      "dinge": 3297,
      "##kampf": 3298,
      "##märkten": 3299,
      "wus": 3300,
      "westlichen": 3301,
      "hunder": 3302,
      "##bilanz": 3303,
      "jour": 3304,
      "programm": 3305,
      "##tierten": 3306,
      "flüchtlin": 3307,
      "habt": 3308,
      "##by": 3309,
      "schi": 3310,
      "beinah": 3311,
      "berück": 3312,
      "2020": 3313,
      "schön": 3314,
      "gesp": 3315,
      "finanzielle": 3316,
      "wiederhol": 3317,
      "stelle": 3318,
      "ost": 3319,
      "##ments": 3320,
      "##ried": 3321,
      "jeweil": 3322,
      "wichtigen": 3323,
      "wirtschaftlicher": 3324,
      "übergang": 3325,
      "schlüssel": 3326,
      "flug": 3327,
      "kohlenstoff": 3328,
      "12": 3329,
      "unabhängigkeit": 3330,
      "september": 3331,
      "##ül": 3332,
      "##zy": 3333,
      "volk": 3334,
      "fällen": 3335,
      "40": 3336,
      "gekommen": 3337,
      "amt": 3338,
      "vielmehr": 3339,
      "debatte": 3340,
      "opposition": 3341,
      "asi": 3342,
      "sk": 3343,
      "##fälle": 3344,
      "bezahl": 3345,
      "sa": 3346,
      "öff": 3347,
      "fortschritt": 3348,
      "wochen": 3349,
      "##fragen": 3350,
      "haushalt": 3351,
      "starke": 3352,
      "##reitung": 3353,
      "bietet": 3354,
      "lauf": 3355,
      "##ales": 3356,
      "##eitern": 3357,
      "##oper": 3358,
      "ster": 3359,
      "##uren": 3360,
      "ergebnisse": 3361,
      "dringend": 3362,
      "202": 3363,
      "##örung": 3364,
      "heißt": 3365,
      "lö": 3366,
      "unterstütz": 3367,
      "schwei": 3368,
      "##liegen": 3369,
      "begrü": 3370,
      "2010": 3371,
      "luft": 3372,
      "##schutz": 3373,
      "##ungsmittel": 3374,
      "spe": 3375,
      "##äub": 3376,
      "unternehmens": 3377,
      "uspräsident": 3378,
      "monaten": 3379,
      "verhält": 3380,
      "george": 3381,
      "ank": 3382,
      "progn": 3383,
      "jahrzehnt": 3384,
      "##indust": 3385,
      "##wertung": 3386,
      "geist": 3387,
      "##kosten": 3388,
      "langfristigen": 3389,
      "##rifft": 3390,
      "modell": 3391,
      "aktuelle": 3392,
      "passiert": 3393,
      "hung": 3394,
      "##asen": 3395,
      "instru": 3396,
      "zinssätze": 3397,
      "##reichen": 3398,
      "bessere": 3399,
      "##ranten": 3400,
      "jedem": 3401,
      "##mmer": 3402,
      "opfer": 3403,
      "koll": 3404,
      "tie": 3405,
      "alten": 3406,
      "dagegen": 3407,
      "radik": 3408,
      "##bereich": 3409,
      "zwang": 3410,
      "##emessen": 3411,
      "##etten": 3412,
      "##äne": 3413,
      "verfolgen": 3414,
      "bü": 3415,
      "platz": 3416,
      "förderung": 3417,
      "premierminister": 3418,
      "manchmal": 3419,
      "##igungs": 3420,
      "gezeigt": 3421,
      "kauf": 3422,
      "gefühl": 3423,
      "##assungs": 3424,
      "betroffen": 3425,
      "gerech": 3426,
      "kontinent": 3427,
      "vollständ": 3428,
      "##wor": 3429,
      "einst": 3430,
      "gründe": 3431,
      "rechts": 3432,
      "##geschlagen": 3433,
      "beinahe": 3434,
      "11": 3435,
      "schien": 3436,
      "teilweise": 3437,
      "##ante": 3438,
      "grenz": 3439,
      "jährlich": 3440,
      "##anleihen": 3441,
      "rückgang": 3442,
      "zentralbanken": 3443,
      "fuß": 3444,
      "##zur": 3445,
      "##übersch": 3446,
      "arbeitsk": 3447,
      "mitte": 3448,
      "zuvor": 3449,
      "##ussion": 3450,
      "stat": 3451,
      "mac": 3452,
      "##haben": 3453,
      "##ilie": 3454,
      "position": 3455,
      "##ahrschein": 3456,
      "minde": 3457,
      "britische": 3458,
      "##ib": 3459,
      "##sich": 3460,
      "##graben": 3461,
      "##isieren": 3462,
      "##zif": 3463,
      "##institu": 3464,
      "tem": 3465,
      "##ses": 3466,
      "##fa": 3467,
      "anstatt": 3468,
      "domin": 3469,
      "starken": 3470,
      "person": 3471,
      "##behörden": 3472,
      "massen": 3473,
      "##reu": 3474,
      "vermut": 3475,
      "langfristige": 3476,
      "allgemeinen": 3477,
      "##seh": 3478,
      "##okrati": 3479,
      "beginnen": 3480,
      "##bo": 3481,
      "2000": 3482,
      "##aktionen": 3483,
      "erneut": 3484,
      "überleben": 3485,
      "forschung": 3486,
      "notwendig": 3487,
      "erkennt": 3488,
      "tel": 3489,
      "jemand": 3490,
      "minder": 3491,
      "fallen": 3492,
      "##mäßig": 3493,
      "beeinfl": 3494,
      "tage": 3495,
      "todes": 3496,
      "kind": 3497,
      "gestern": 3498,
      "kin": 3499,
      "netz": 3500,
      "geschäfts": 3501,
      "ägypten": 3502,
      "acht": 3503,
      "##elbe": 3504,
      "##erweise": 3505,
      "##ign": 3506,
      "erster": 3507,
      "ham": 3508,
      "zeiten": 3509,
      "ök": 3510,
      "mittler": 3511,
      "##üter": 3512,
      "##industrie": 3513,
      "emil": 3514,
      "##obilien": 3515,
      "höheren": 3516,
      "mis": 3517,
      "##atoren": 3518,
      "##tere": 3519,
      "ansch": 3520,
      "##ausgaben": 3521,
      "lösungen": 3522,
      "foss": 3523,
      "alt": 3524,
      "bekämpfung": 3525,
      "##teilen": 3526,
      "##gressi": 3527,
      "reden": 3528,
      "##reiche": 3529,
      "mindestens": 3530,
      "zusammenhang": 3531,
      "##ix": 3532,
      "investieren": 3533,
      "willst": 3534,
      "gefallen": 3535,
      "rasch": 3536,
      "industriel": 3537,
      "##organisation": 3538,
      "##leun": 3539,
      "##äus": 3540,
      "##stimmung": 3541,
      "entwickelten": 3542,
      "erklärt": 3543,
      "##po": 3544,
      "on": 3545,
      "##ügen": 3546,
      "##daten": 3547,
      "##führer": 3548,
      "fossil": 3549,
      "nächste": 3550,
      "chancen": 3551,
      "##ürf": 3552,
      "##äuft": 3553,
      "##ox": 3554,
      "demon": 3555,
      "leon": 3556,
      "##rich": 3557,
      "warten": 3558,
      "zeitpunkt": 3559,
      "schlecht": 3560,
      "##affe": 3561,
      "begann": 3562,
      "französischen": 3563,
      "menge": 3564,
      "männer": 3565,
      "bestimmt": 3566,
      "drit": 3567,
      "vergessen": 3568,
      "ausgel": 3569,
      "beschleun": 3570,
      "medika": 3571,
      "verbraucher": 3572,
      "nachrichten": 3573,
      "##orie": 3574,
      "bestä": 3575,
      "eigentlich": 3576,
      "schwierigkeiten": 3577,
      "diskussion": 3578,
      "niveau": 3579,
      "zweck": 3580,
      "hol": 3581,
      "##uni": 3582,
      "enorme": 3583,
      "##opoliti": 3584,
      "genaus": 3585,
      "ser": 3586,
      "wenige": 3587,
      "##politischen": 3588,
      "erwartet": 3589,
      "weltweite": 3590,
      "##ütter": 3591,
      "##orgt": 3592,
      "solchen": 3593,
      "stimm": 3594,
      "entsprechen": 3595,
      "höchst": 3596,
      "##inne": 3597,
      "erklären": 3598,
      "vertrag": 3599,
      "verbesserung": 3600,
      "fühl": 3601,
      "unmöglich": 3602,
      "genauso": 3603,
      "jahrzehnte": 3604,
      "##äs": 3605,
      "übernehmen": 3606,
      "david": 3607,
      "##ards": 3608,
      "196": 3609,
      "gegenteil": 3610,
      "gesamte": 3611,
      "##arm": 3612,
      "journal": 3613,
      "punkt": 3614,
      "alternative": 3615,
      "##itglie": 3616,
      "schlechte": 3617,
      "rede": 3618,
      "blick": 3619,
      "##gten": 3620,
      "falle": 3621,
      "##uste": 3622,
      "##irus": 3623,
      "ständ": 3624,
      "umsetzung": 3625,
      "##ppen": 3626,
      "##bas": 3627,
      "##tensi": 3628,
      "argen": 3629,
      "arbeitnehmer": 3630,
      "schlimmer": 3631,
      "##enten": 3632,
      "##unkte": 3633,
      "##ivi": 3634,
      "anleihen": 3635,
      "##heben": 3636,
      "##findet": 3637,
      "metho": 3638,
      "innen": 3639,
      "sofor": 3640,
      "zweifel": 3641,
      "wodurch": 3642,
      "wettbewerbsf": 3643,
      "eg": 3644,
      "##isse": 3645,
      "##programm": 3646,
      "leider": 3647,
      "##utzt": 3648,
      "verfügt": 3649,
      "industrieländer": 3650,
      "boden": 3651,
      "hinblick": 3652,
      "schluss": 3653,
      "untergraben": 3654,
      "familie": 3655,
      "##für": 3656,
      "blie": 3657,
      "##bür": 3658,
      "polizei": 3659,
      "gewährlei": 3660,
      "vieler": 3661,
      "erhöht": 3662,
      "##ager": 3663,
      "gehören": 3664,
      "erklärung": 3665,
      "##av": 3666,
      "spann": 3667,
      "zweitens": 3668,
      "wom": 3669,
      "##vert": 3670,
      "angew": 3671,
      "dep": 3672,
      "argentin": 3673,
      "fiel": 3674,
      "eindeutig": 3675,
      "##invest": 3676,
      "ans": 3677,
      "lebensmittel": 3678,
      "präsen": 3679,
      "krieges": 3680,
      "glaubwürd": 3681,
      "usdollar": 3682,
      "zie": 3683,
      "##hi": 3684,
      "##emissionen": 3685,
      "rob": 3686,
      "derart": 3687,
      "##arität": 3688,
      "g20": 3689,
      "eltern": 3690,
      "krem": 3691,
      "angemessen": 3692,
      "##schte": 3693,
      "regionen": 3694,
      "größeren": 3695,
      "##ev": 3696,
      "##schefs": 3697,
      "entschlossen": 3698,
      "bringt": 3699,
      "leistungs": 3700,
      "vermutlich": 3701,
      "haup": 3702,
      "rom": 3703,
      "entscheidungsträger": 3704,
      "gewährleisten": 3705,
      "##ay": 3706,
      "machte": 3707,
      "geschaffen": 3708,
      "export": 3709,
      "##arbeiter": 3710,
      "ausländische": 3711,
      "gelegenheit": 3712,
      "entfern": 3713,
      "kommenden": 3714,
      "##öpf": 3715,
      "basis": 3716,
      "musste": 3717,
      "analy": 3718,
      "ap": 3719,
      "gern": 3720,
      "##mlich": 3721,
      "zul": 3722,
      "##dete": 3723,
      "verbrei": 3724,
      "funktionieren": 3725,
      "dritten": 3726,
      "##brechen": 3727,
      "uhr": 3728,
      "koord": 3729,
      "militärische": 3730,
      "faktoren": 3731,
      "demokratische": 3732,
      "hält": 3733,
      "umständ": 3734,
      "##oben": 3735,
      "erstens": 3736,
      "terrorismus": 3737,
      "kreml": 3738,
      "##othe": 3739,
      "##prochen": 3740,
      "##swerte": 3741,
      "mia": 3742,
      "##leger": 3743,
      "außerhalb": 3744,
      "gesellschaften": 3745,
      "##imes": 3746,
      "australien": 3747,
      "##ute": 3748,
      "kol": 3749,
      "##folgt": 3750,
      "##50": 3751,
      "jüngste": 3752,
      "ähnlich": 3753,
      "organisationen": 3754,
      "elekt": 3755,
      "##deten": 3756,
      "legitim": 3757,
      "##sych": 3758,
      "##gi": 3759,
      "selten": 3760,
      "deutsche": 3761,
      "nutz": 3762,
      "sache": 3763,
      "##rieren": 3764,
      "##uver": 3765,
      "##politische": 3766,
      "##gewicht": 3767,
      "##züg": 3768,
      "anh": 3769,
      "##ssystem": 3770,
      "saudi": 3771,
      "senken": 3772,
      "##ahrscheinlich": 3773,
      "##kre": 3774,
      "##onom": 3775,
      "ort": 3776,
      "null": 3777,
      "reicht": 3778,
      "##achtet": 3779,
      "lena": 3780,
      "aufstieg": 3781,
      "2009": 3782,
      "##tlichen": 3783,
      "##gesehen": 3784,
      "len": 3785,
      "polen": 3786,
      "verbind": 3787,
      "immobilien": 3788,
      "mü": 3789,
      "aufrech": 3790,
      "##örper": 3791,
      "zurückge": 3792,
      "status": 3793,
      "##prü": 3794,
      "##istisch": 3795,
      "janu": 3796,
      "wiederher": 3797,
      "##ktes": 3798,
      "blo": 3799,
      "ausbildung": 3800,
      "brenn": 3801,
      "kapit": 3802,
      "raum": 3803,
      "##schulden": 3804,
      "nötig": 3805,
      "##rig": 3806,
      "##kul": 3807,
      "bemü": 3808,
      "brut": 3809,
      "einführung": 3810,
      "feind": 3811,
      "##ehl": 3812,
      "spanien": 3813,
      "strom": 3814,
      "guten": 3815,
      "##richtung": 3816,
      "richtig": 3817,
      "##üllen": 3818,
      "##tis": 3819,
      "infolge": 3820,
      "##prom": 3821,
      "krankheiten": 3822,
      "meinem": 3823,
      "fried": 3824,
      "kleine": 3825,
      "sim": 3826,
      "##ekten": 3827,
      "verfassung": 3828,
      "fäh": 3829,
      "##gesellschaft": 3830,
      "phil": 3831,
      "##zunehmen": 3832,
      "##asser": 3833,
      "gewinn": 3834,
      "schwar": 3835,
      "##alition": 3836,
      "##besch": 3837,
      "hinzu": 3838,
      "sieg": 3839,
      "che": 3840,
      "koh": 3841,
      "##zus": 3842,
      "gezwungen": 3843,
      "ließ": 3844,
      "gründen": 3845,
      "bevölkerungs": 3846,
      "mos": 3847,
      "##haften": 3848,
      "gesprä": 3849,
      "aktivitäten": 3850,
      "##if": 3851,
      "spra": 3852,
      "##andeln": 3853,
      "erlau": 3854,
      "frem": 3855,
      "auss": 3856,
      "geheim": 3857,
      "fair": 3858,
      "21": 3859,
      "##tro": 3860,
      "##maßen": 3861,
      "zahlungs": 3862,
      "##nern": 3863,
      "##ied": 3864,
      "alte": 3865,
      "abgesch": 3866,
      "produz": 3867,
      "##quote": 3868,
      "16": 3869,
      "##höh": 3870,
      "unseren": 3871,
      "mak": 3872,
      "ehemaligen": 3873,
      "schm": 3874,
      "##barer": 3875,
      "kalten": 3876,
      "gleichen": 3877,
      "##ucht": 3878,
      "enormen": 3879,
      "##pu": 3880,
      "##bte": 3881,
      "staates": 3882,
      "##reibt": 3883,
      "post": 3884,
      "ju": 3885,
      "##lan": 3886,
      "##sph": 3887,
      "entweder": 3888,
      "trag": 3889,
      "veröffentlich": 3890,
      "ter": 3891,
      "##tag": 3892,
      "##uten": 3893,
      "liqu": 3894,
      "sowjetunion": 3895,
      "##we": 3896,
      "##rug": 3897,
      "voran": 3898,
      "französische": 3899,
      "personen": 3900,
      "bünd": 3901,
      "##tä": 3902,
      "17": 3903,
      "mite": 3904,
      "##fre": 3905,
      "souver": 3906,
      "etabl": 3907,
      "muslim": 3908,
      "brü": 3909,
      "##geg": 3910,
      "geraten": 3911,
      "getroffen": 3912,
      "kurzem": 3913,
      "angeh": 3914,
      "car": 3915,
      "dräng": 3916,
      "go": 3917,
      "##amin": 3918,
      "mitein": 3919,
      "zufolge": 3920,
      "kleinen": 3921,
      "##reformen": 3922,
      "arten": 3923,
      "forsch": 3924,
      "nov": 3925,
      "##merz": 3926,
      "##ette": 3927,
      "wusste": 3928,
      "ermu": 3929,
      "dürfen": 3930,
      "organisation": 3931,
      "reagieren": 3932,
      "psych": 3933,
      "konz": 3934,
      "##atis": 3935,
      "anerken": 3936,
      "##zenar": 3937,
      "##icherung": 3938,
      "finanziellen": 3939,
      "spielt": 3940,
      "fund": 3941,
      "##amb": 3942,
      "block": 3943,
      "##atten": 3944,
      "##verständ": 3945,
      "unge": 3946,
      "##tigten": 3947,
      "hinsicht": 3948,
      "##plan": 3949,
      "drama": 3950,
      "geopoliti": 3951,
      "denk": 3952,
      "##eidung": 3953,
      "schlimm": 3954,
      "##hof": 3955,
      "halb": 3956,
      "##eilen": 3957,
      "##aktiv": 3958,
      "dez": 3959,
      "friedens": 3960,
      "##systems": 3961,
      "einzelnen": 3962,
      "atomwaffen": 3963,
      "realität": 3964,
      "##barkeit": 3965,
      "frag": 3966,
      "kurs": 3967,
      "resp": 3968,
      "##kel": 3969,
      "kindern": 3970,
      "##ächt": 3971,
      "##zieh": 3972,
      "##gef": 3973,
      "sonst": 3974,
      "##iam": 3975,
      "##samm": 3976,
      "gestiegen": 3977,
      "guter": 3978,
      "##gruppen": 3979,
      "meer": 3980,
      "kopf": 3981,
      "##sens": 3982,
      "hund": 3983,
      "##iste": 3984,
      "ideen": 3985,
      "ähnliche": 3986,
      "geschw": 3987,
      "miteinander": 3988,
      "anreize": 3989,
      "##afft": 3990,
      "##uropa": 3991,
      "##ötz": 3992,
      "##etter": 3993,
      "daraus": 3994,
      "nachbarn": 3995,
      "clin": 3996,
      "erzeu": 3997,
      "gebur": 3998,
      "nachhaltige": 3999,
      "14": 4000,
      "studen": 4001,
      "##atisch": 4002,
      "nahm": 4003,
      "mär": 4004,
      "abhängig": 4005,
      "trin": 4006,
      "##wahlen": 4007,
      "menschenrechte": 4008,
      "griech": 4009,
      "generation": 4010,
      "60": 4011,
      "nimmt": 4012,
      "##ca": 4013,
      "##öse": 4014,
      "schock": 4015,
      "##igar": 4016,
      "nett": 4017,
      "wohn": 4018,
      "arbeiter": 4019,
      "experten": 4020,
      "scheitern": 4021,
      "plötz": 4022,
      "mögen": 4023,
      "##lau": 4024,
      "übert": 4025,
      "einheit": 4026,
      "globaler": 4027,
      "erneuer": 4028,
      "innovation": 4029,
      "imp": 4030,
      "erheblich": 4031,
      "drittel": 4032,
      "na": 4033,
      "engl": 4034,
      "tages": 4035,
      "optim": 4036,
      "zimmer": 4037,
      "engagement": 4038,
      "##rechend": 4039,
      "##atische": 4040,
      "beschäftigt": 4041,
      "nahrungsmittel": 4042,
      "##auern": 4043,
      "##bevölker": 4044,
      "exporte": 4045,
      "äl": 4046,
      "##isen": 4047,
      "##idität": 4048,
      "hör": 4049,
      "stren": 4050,
      "##räsen": 4051,
      "erwart": 4052,
      "hören": 4053,
      "##räsidenten": 4054,
      "##preis": 4055,
      "schritte": 4056,
      "auseinander": 4057,
      "sinken": 4058,
      "entstehen": 4059,
      "argument": 4060,
      "kandidaten": 4061,
      "##urz": 4062,
      "gefunden": 4063,
      "konfron": 4064,
      "freunde": 4065,
      "dis": 4066,
      "häng": 4067,
      "##nungen": 4068,
      "2016": 4069,
      "verfüg": 4070,
      "##afrika": 4071,
      "clinton": 4072,
      "##iegelt": 4073,
      "ausgehen": 4074,
      "2014": 4075,
      "schneller": 4076,
      "themen": 4077,
      "entschieden": 4078,
      "wiederum": 4079,
      "##räge": 4080,
      "gläub": 4081,
      "angeht": 4082,
      "bezahlen": 4083,
      "währungsfonds": 4084,
      "##will": 4085,
      "grundlegende": 4086,
      "charl": 4087,
      "##herr": 4088,
      "kräfte": 4089,
      "log": 4090,
      "wiederauf": 4091,
      "afrikanischen": 4092,
      "vision": 4093,
      "befinden": 4094,
      "besei": 4095,
      "stellte": 4096,
      "freilich": 4097,
      "erklärte": 4098,
      "##schwung": 4099,
      "kanad": 4100,
      "##stoffen": 4101,
      "macron": 4102,
      "##gebracht": 4103,
      "##eigern": 4104,
      "bara": 4105,
      "##ins": 4106,
      "##rief": 4107,
      "##tegie": 4108,
      "##ektive": 4109,
      "anstren": 4110,
      "##klus": 4111,
      "monate": 4112,
      "sitz": 4113,
      "##bol": 4114,
      "##gelegt": 4115,
      "ermöglicht": 4116,
      "beenden": 4117,
      "##cker": 4118,
      "asp": 4119,
      "prov": 4120,
      "##kontro": 4121,
      "repräsen": 4122,
      "##lose": 4123,
      "barack": 4124,
      "funktioniert": 4125,
      "13": 4126,
      "agenda": 4127,
      "überein": 4128,
      "verbündeten": 4129,
      "##apazitäten": 4130,
      "##eiz": 4131,
      "streit": 4132,
      "##örde": 4133,
      "##arn": 4134,
      "erspar": 4135,
      "anl": 4136,
      "spricht": 4137,
      "schließen": 4138,
      "komb": 4139,
      "freien": 4140,
      "liban": 4141,
      "beziehung": 4142,
      "zusätzliche": 4143,
      "##bevölkerung": 4144,
      "##schri": 4145,
      "legen": 4146,
      "außenpolitik": 4147,
      "erfahrung": 4148,
      "verstärkt": 4149,
      "sh": 4150,
      "##ec": 4151,
      "bean": 4152,
      "intelligen": 4153,
      "##fek": 4154,
      "spannungen": 4155,
      "dachte": 4156,
      "liefer": 4157,
      "entwicklungen": 4158,
      "jener": 4159,
      "palästinenser": 4160,
      "demokraten": 4161,
      "verringerung": 4162,
      "vorbei": 4163,
      "sauber": 4164,
      "##gas": 4165,
      "finanzmärkte": 4166,
      "##resse": 4167,
      "cl": 4168,
      "##räften": 4169,
      "wirtschaftlich": 4170,
      "bedro": 4171,
      "##ernt": 4172,
      "gere": 4173,
      "##öhnlich": 4174,
      "##beweg": 4175,
      "verlust": 4176,
      "gründ": 4177,
      "regulierungs": 4178,
      "republikaner": 4179,
      "wachsende": 4180,
      "mexiko": 4181,
      "künf": 4182,
      "steigern": 4183,
      "bedürf": 4184,
      "normalerweise": 4185,
      "november": 4186,
      "urs": 4187,
      "verteidigung": 4188,
      "##sstaaten": 4189,
      "##erven": 4190,
      "##sichts": 4191,
      "spät": 4192,
      "vorber": 4193,
      "internationaler": 4194,
      "norm": 4195,
      "formul": 4196,
      "feder": 4197,
      "pati": 4198,
      "rein": 4199,
      "##uster": 4200,
      "ministerpräsident": 4201,
      "großteil": 4202,
      "##swo": 4203,
      "dezember": 4204,
      "##itten": 4205,
      "befindet": 4206,
      "anderswo": 4207,
      "##asien": 4208,
      "leich": 4209,
      "##arab": 4210,
      "egal": 4211,
      "##ftw": 4212,
      "bewegen": 4213,
      "ziemlich": 4214,
      "konfrontiert": 4215,
      "derartigen": 4216,
      "ukrain": 4217,
      "nen": 4218,
      "verbindung": 4219,
      "transparen": 4220,
      "identit": 4221,
      "eum": 4222,
      "##ministerium": 4223,
      "los": 4224,
      "behin": 4225,
      "zentrale": 4226,
      "fil": 4227,
      "##steuer": 4228,
      "ausger": 4229,
      "demokratien": 4230,
      "bilater": 4231,
      "schau": 4232,
      "unsicherheit": 4233,
      "kooper": 4234,
      "potenzial": 4235,
      "verteidigungs": 4236,
      "praktisch": 4237,
      "##blei": 4238,
      "194": 4239,
      "energien": 4240,
      "##zept": 4241,
      "wachsenden": 4242,
      "##ritts": 4243,
      "krankheit": 4244,
      "##komm": 4245,
      "##skrise": 4246,
      "dienen": 4247,
      "endlich": 4248,
      "retten": 4249,
      "##folger": 4250,
      "##iegend": 4251,
      "wahrscheinlichkeit": 4252,
      "##co": 4253,
      "rie": 4254,
      "##iw": 4255,
      "steiger": 4256,
      "nordkorea": 4257,
      "investitions": 4258,
      "gold": 4259,
      "verhältnis": 4260,
      "jac": 4261,
      "##sprozess": 4262,
      "beträcht": 4263,
      "ausdruck": 4264,
      "laufen": 4265,
      "regulierung": 4266,
      "aufbau": 4267,
      "##ehe": 4268,
      "anderes": 4269,
      "verschiedenen": 4270,
      "app": 4271,
      "2007": 4272,
      "konflikte": 4273,
      "bemerken": 4274,
      "gegangen": 4275,
      "umge": 4276,
      "autom": 4277,
      "belie": 4278,
      "behandlung": 4279,
      "eigentum": 4280,
      "gegensei": 4281,
      "überraschen": 4282,
      "behaupten": 4283,
      "ep": 4284,
      "##itter": 4285,
      "ausgesetzt": 4286,
      "##lad": 4287,
      "schlag": 4288,
      "##tworten": 4289,
      "##tigte": 4290,
      "rückkehr": 4291,
      "##oe": 4292,
      "bewältigen": 4293,
      "echte": 4294,
      "##ue": 4295,
      "derzei": 4296,
      "beschäftigung": 4297,
      "projekt": 4298,
      "flüchtlinge": 4299,
      "##schm": 4300,
      "2013": 4301,
      "haltung": 4302,
      "##bi": 4303,
      "programme": 4304,
      "geschehen": 4305,
      "belast": 4306,
      "johannes": 4307,
      "##ieller": 4308,
      "motiv": 4309,
      "ethn": 4310,
      "gegner": 4311,
      "cha": 4312,
      "2011": 4313,
      "solange": 4314,
      "gaz": 4315,
      "##mitglie": 4316,
      "langfristig": 4317,
      "##uropä": 4318,
      "stü": 4319,
      "##ohner": 4320,
      "militärischen": 4321,
      "klimawandels": 4322,
      "einwander": 4323,
      "##entwick": 4324,
      "##ums": 4325,
      "1990er": 4326,
      "kennen": 4327,
      "human": 4328,
      "##uld": 4329,
      "somit": 4330,
      "besitz": 4331,
      "überzeugen": 4332,
      "erzielen": 4333,
      "##anischen": 4334,
      "teile": 4335,
      "gesetze": 4336,
      "initiative": 4337,
      "hyp": 4338,
      "vorgehen": 4339,
      "gelang": 4340,
      "verfassungs": 4341,
      "##richtungen": 4342,
      "##uel": 4343,
      "##uft": 4344,
      "schwächen": 4345,
      "hart": 4346,
      "##renzen": 4347,
      "körper": 4348,
      "##grö": 4349,
      "##orben": 4350,
      "##bew": 4351,
      "gefahren": 4352,
      "global": 4353,
      "linie": 4354,
      "ven": 4355,
      "gerichts": 4356,
      "zins": 4357,
      "##ividu": 4358,
      "kohle": 4359,
      "##iker": 4360,
      "##innern": 4361,
      "still": 4362,
      "##get": 4363,
      "##ikation": 4364,
      "gefol": 4365,
      "gleiche": 4366,
      "wort": 4367,
      "herbei": 4368,
      "gemäß": 4369,
      "nationaler": 4370,
      "gefährlich": 4371,
      "##kapital": 4372,
      "##istischer": 4373,
      "individu": 4374,
      "bildungs": 4375,
      "pap": 4376,
      "unterdrück": 4377,
      "##ance": 4378,
      "richtige": 4379,
      "städte": 4380,
      "##nommen": 4381,
      "schwach": 4382,
      "##kehren": 4383,
      "geringer": 4384,
      "##stet": 4385,
      "stagn": 4386,
      "märz": 4387,
      "os": 4388,
      "sum": 4389,
      "isol": 4390,
      "unternehmer": 4391,
      "193": 4392,
      "krim": 4393,
      "##nehm": 4394,
      "angelegen": 4395,
      "zeig": 4396,
      "überd": 4397,
      "weitgehend": 4398,
      "##eben": 4399,
      "komprom": 4400,
      "##issenschaft": 4401,
      "##rochen": 4402,
      "durchge": 4403,
      "wichtigste": 4404,
      "##lichtungen": 4405,
      "abend": 4406,
      "erinnern": 4407,
      "akzeptieren": 4408,
      "##seits": 4409,
      "##rige": 4410,
      "erwär": 4411,
      "enorm": 4412,
      "früheren": 4413,
      "innovationen": 4414,
      "##lück": 4415,
      "##öff": 4416,
      "renten": 4417,
      "oben": 4418,
      "anleger": 4419,
      "vorgeschlagen": 4420,
      "##weiger": 4421,
      "depression": 4422,
      "sieben": 4423,
      "letzter": 4424,
      "tenden": 4425,
      "##aff": 4426,
      "beige": 4427,
      "regierungschefs": 4428,
      "erweiter": 4429,
      "japans": 4430,
      "max": 4431,
      "sicherzustellen": 4432,
      "phase": 4433,
      "vernünf": 4434,
      "koalition": 4435,
      "##ologischen": 4436,
      "befürwor": 4437,
      "ti": 4438,
      "##stes": 4439,
      "vorstellung": 4440,
      "verbrechen": 4441,
      "##ones": 4442,
      "könne": 4443,
      "##imir": 4444,
      "geschle": 4445,
      "##jährigen": 4446,
      "nacht": 4447,
      "##frei": 4448,
      "erleich": 4449,
      "2012": 4450,
      "quan": 4451,
      "sofort": 4452,
      "womöglich": 4453,
      "##ladimir": 4454,
      "##arch": 4455,
      "bezeichnet": 4456,
      "januar": 4457,
      "dikt": 4458,
      "haupts": 4459,
      "##eter": 4460,
      "koordin": 4461,
      "weiterer": 4462,
      "erwä": 4463,
      "##sprüng": 4464,
      "bran": 4465,
      "fahren": 4466,
      "genommen": 4467,
      "international": 4468,
      "öffentlich": 4469,
      "risk": 4470,
      "fak": 4471,
      "flex": 4472,
      "##sal": 4473,
      "spitzen": 4474,
      "##nachfrage": 4475,
      "juni": 4476,
      "eingesetzt": 4477,
      "bestehenden": 4478,
      "demonst": 4479,
      "vorh": 4480,
      "ausreichend": 4481,
      "zö": 4482,
      "##kar": 4483,
      "ungef": 4484,
      "##utzung": 4485,
      "welch": 4486,
      "vertreter": 4487,
      "schwellenländer": 4488,
      "universität": 4489,
      "anhäng": 4490,
      "##uldig": 4491,
      "##istenz": 4492,
      "umfeld": 4493,
      "##investitionen": 4494,
      "okt": 4495,
      "setzt": 4496,
      "lockerung": 4497,
      "oper": 4498,
      "##gäng": 4499,
      "##mitteln": 4500,
      "ursprüng": 4501,
      "danach": 4502,
      "##pagne": 4503,
      "liquidität": 4504,
      "##jamin": 4505,
      "##ela": 4506,
      "##ologische": 4507,
      "ungew": 4508,
      "benjamin": 4509,
      "##haber": 4510,
      "ungefähr": 4511,
      "tausen": 4512,
      "##sein": 4513,
      "straßen": 4514,
      "paul": 4515,
      "musst": 4516,
      "beitrag": 4517,
      "merkel": 4518,
      "##kong": 4519,
      "##hören": 4520,
      "vorzu": 4521,
      "gewinne": 4522,
      "produkte": 4523,
      "amtszeit": 4524,
      "souverän": 4525,
      "xi": 4526,
      "beobach": 4527,
      "ausländischen": 4528,
      "pat": 4529,
      "sorg": 4530,
      "sex": 4531,
      "##fäl": 4532,
      "##otte": 4533,
      "##zeug": 4534,
      "verstärken": 4535,
      "journalisten": 4536,
      "##achung": 4537,
      "finanzieren": 4538,
      "solid": 4539,
      "kriegs": 4540,
      "wesentlich": 4541,
      "vorschlag": 4542,
      "garan": 4543,
      "südkorea": 4544,
      "kenn": 4545,
      "hamas": 4546,
      "oktober": 4547,
      "##quen": 4548,
      "erfordern": 4549,
      "general": 4550,
      "sommer": 4551,
      "##bed": 4552,
      "rau": 4553,
      "##netz": 4554,
      "unterzeich": 4555,
      "entscheidender": 4556,
      "lehrer": 4557,
      "##ielten": 4558,
      "2001": 4559,
      "##ipul": 4560,
      "##akt": 4561,
      "aussichten": 4562,
      "attra": 4563,
      "hoffen": 4564,
      "fähigkeiten": 4565,
      "##tzu": 4566,
      "##bildung": 4567,
      "verletz": 4568,
      "stimmt": 4569,
      "glücklich": 4570,
      "erscheinen": 4571,
      "##ministration": 4572,
      "kämpfen": 4573,
      "allzu": 4574,
      "glaubt": 4575,
      "wahlkampf": 4576,
      "federal": 4577,
      "dopp": 4578,
      "##iete": 4579,
      "erwer": 4580,
      "##anderung": 4581,
      "ant": 4582,
      "beruht": 4583,
      "protest": 4584,
      "lot": 4585,
      "führenden": 4586,
      "stärk": 4587,
      "liby": 4588,
      "defizit": 4589,
      "eumitglie": 4590,
      "hinder": 4591,
      "niedrigen": 4592,
      "stre": 4593,
      "reduzieren": 4594,
      "fonds": 4595,
      "##fäh": 4596,
      "##machen": 4597,
      "job": 4598,
      "abhängigkeit": 4599,
      "nachricht": 4600,
      "gelten": 4601,
      "straf": 4602,
      "##tikel": 4603,
      "taiw": 4604,
      "##nam": 4605,
      "##stück": 4606,
      "ell": 4607,
      "##heim": 4608,
      "truppen": 4609,
      "argumentieren": 4610,
      "wladimir": 4611,
      "unzu": 4612,
      "identität": 4613,
      "niger": 4614,
      "##problem": 4615,
      "kritik": 4616,
      "##falt": 4617,
      "mai": 4618,
      "islamischen": 4619,
      "patienten": 4620,
      "##lichkeiten": 4621,
      "parlaments": 4622,
      "reserve": 4623,
      "trägt": 4624,
      "##bedingungen": 4625,
      "völker": 4626,
      "##wart": 4627,
      "##andlungs": 4628,
      "nuklear": 4629,
      "sonder": 4630,
      "botschaft": 4631,
      "ehemalige": 4632,
      "##echanismen": 4633,
      "san": 4634,
      "meinungs": 4635,
      "modernen": 4636,
      "daniel": 4637,
      "##geiz": 4638,
      "wissenschaftler": 4639,
      "neun": 4640,
      "bewegung": 4641,
      "##ball": 4642,
      "niemals": 4643,
      "hong": 4644,
      "##twirtschaft": 4645,
      "führende": 4646,
      "entscheidend": 4647,
      "einschrän": 4648,
      "integr": 4649,
      "erwärmung": 4650,
      "port": 4651,
      "##utzen": 4652,
      "##techn": 4653,
      "regionale": 4654,
      "kennt": 4655,
      "##ka": 4656,
      "##leistung": 4657,
      "makro": 4658,
      "##effizien": 4659,
      "##ndet": 4660,
      "konse": 4661,
      "sorge": 4662,
      "won": 4663,
      "zuzu": 4664,
      "annahme": 4665,
      "ehrgeiz": 4666,
      "ec": 4667,
      "lesen": 4668,
      "szenar": 4669,
      "verfolgt": 4670,
      "##sigen": 4671,
      "##sichtigt": 4672,
      "studenten": 4673,
      "test": 4674,
      "konst": 4675,
      "straße": 4676,
      "##zahlen": 4677,
      "ärm": 4678,
      "seb": 4679,
      "##leren": 4680,
      "##up": 4681,
      "verändert": 4682,
      "##war": 4683,
      "##stimmen": 4684,
      "regionalen": 4685,
      "verursacht": 4686,
      "erfüll": 4687,
      "sebast": 4688,
      "##ekul": 4689,
      "ähnlicher": 4690,
      "##äuser": 4691,
      "maxim": 4692,
      "##volle": 4693,
      "##afen": 4694,
      "strategische": 4695,
      "##weile": 4696,
      "akteure": 4697,
      "geprä": 4698,
      "##schuldung": 4699,
      "drast": 4700,
      "stunden": 4701,
      "##bek": 4702,
      "verwendet": 4703,
      "suchen": 4704,
      "wesentlichen": 4705,
      "zuletzt": 4706,
      "saudiarab": 4707,
      "künst": 4708,
      "mittleren": 4709,
      "russen": 4710,
      "##mäch": 4711,
      "unabhängig": 4712,
      "##kunft": 4713,
      "##ausch": 4714,
      "findet": 4715,
      "flor": 4716,
      "emissionen": 4717,
      "jenen": 4718,
      "brachte": 4719,
      "wonach": 4720,
      "##ziele": 4721,
      "sebastian": 4722,
      "##punkte": 4723,
      "##schlagen": 4724,
      "##annah": 4725,
      "##ordan": 4726,
      "verfahren": 4727,
      "studie": 4728,
      "knapp": 4729,
      "##idem": 4730,
      "schlechter": 4731,
      "bilden": 4732,
      "##swert": 4733,
      "studien": 4734,
      "leid": 4735,
      "wirst": 4736,
      "prü": 4737,
      "##selben": 4738,
      "to": 4739,
      "anton": 4740,
      "##ridge": 4741,
      "unwahrscheinlich": 4742,
      "typ": 4743,
      "##stung": 4744,
      "emission": 4745,
      "fehlt": 4746,
      "##rung": 4747,
      "##ament": 4748,
      "erhöhung": 4749,
      "zut": 4750,
      "angest": 4751,
      "##ossen": 4752,
      "arbeitslosen": 4753,
      "quantit": 4754,
      "hongkong": 4755,
      "##iber": 4756,
      "##ischem": 4757,
      "##okraten": 4758,
      "gefangen": 4759,
      "weiteres": 4760,
      "##erseits": 4761,
      "überrascht": 4762,
      "##stad": 4763,
      "disku": 4764,
      "##partei": 4765,
      "##artner": 4766,
      "zweif": 4767,
      "unterschiede": 4768,
      "seid": 4769,
      "armee": 4770,
      "##ammen": 4771,
      "weiger": 4772,
      "##urs": 4773,
      "rek": 4774,
      "deutschlands": 4775,
      "geschlossen": 4776,
      "dev": 4777,
      "lohn": 4778,
      "rend": 4779,
      "##add": 4780,
      "strategischen": 4781,
      "fällt": 4782,
      "bekämpfen": 4783,
      "dynamik": 4784,
      "##ct": 4785,
      "##pft": 4786,
      "migration": 4787,
      "brief": 4788,
      "anfäll": 4789,
      "kapitalismus": 4790,
      "mosk": 4791,
      "gerecht": 4792,
      "souveränität": 4793,
      "abgel": 4794,
      "durchzu": 4795,
      "begonnen": 4796,
      "mittlerweile": 4797,
      "märkten": 4798,
      "2030": 4799,
      "gewissen": 4800,
      "gefäng": 4801,
      "aktion": 4802,
      "stärkung": 4803,
      "##linien": 4804,
      "##produktion": 4805,
      "##ons": 4806,
      "erweisen": 4807,
      "rechten": 4808,
      "verbreitung": 4809,
      "grundlegenden": 4810,
      "laufe": 4811,
      "jugend": 4812,
      "##ings": 4813,
      "wege": 4814,
      "##bung": 4815,
      "##anzig": 4816,
      "##weiten": 4817,
      "quali": 4818,
      "pen": 4819,
      "##rad": 4820,
      "traditionellen": 4821,
      "sarah": 4822,
      "##menten": 4823,
      "lieber": 4824,
      "##ativer": 4825,
      "verpflichtet": 4826,
      "arbeitskräfte": 4827,
      "##sichtigen": 4828,
      "droh": 4829,
      "##akter": 4830,
      "langem": 4831,
      "##ograf": 4832,
      "beigetragen": 4833,
      "matt": 4834,
      "##täu": 4835,
      "##ong": 4836,
      "##ichtete": 4837,
      "gutes": 4838,
      "##feld": 4839,
      "eingesch": 4840,
      "georg": 4841,
      "verluste": 4842,
      "##ott": 4843,
      "republik": 4844,
      "prinzipien": 4845,
      "einiger": 4846,
      "verwir": 4847,
      "gehalten": 4848,
      "##reise": 4849,
      "konsens": 4850,
      "##teils": 4851,
      "hilfs": 4852,
      "lateinamerika": 4853,
      "sterben": 4854,
      "chinesen": 4855,
      "erfüllen": 4856,
      "##modell": 4857,
      "ausweitung": 4858,
      "forderungen": 4859,
      "fei": 4860,
      "israels": 4861,
      "verringert": 4862,
      "hunger": 4863,
      "kos": 4864,
      "ass": 4865,
      "##lös": 4866,
      "anb": 4867,
      "##lieben": 4868,
      "nina": 4869,
      "##euern": 4870,
      "zivilgesellschaft": 4871,
      "compu": 4872,
      "hannah": 4873,
      "zuw": 4874,
      "verhäng": 4875,
      "darstellen": 4876,
      "angek": 4877,
      "jemals": 4878,
      "erfahrungen": 4879,
      "stol": 4880,
      "müsste": 4881,
      "systems": 4882,
      "subventionen": 4883,
      "##ambridge": 4884,
      "jacob": 4885,
      "kim": 4886,
      "kamen": 4887,
      "läng": 4888,
      "überzeugt": 4889,
      "##het": 4890,
      "schmerz": 4891,
      "einzigen": 4892,
      "mussten": 4893,
      "überprü": 4894,
      "##ester": 4895,
      "milit": 4896,
      "umfassende": 4897,
      "sophia": 4898,
      "tri": 4899,
      "cambridge": 4900,
      "##aun": 4901,
      "wunder": 4902,
      "dasselbe": 4903,
      "ausgeb": 4904,
      "katastrophe": 4905,
      "heimat": 4906,
      "kir": 4907,
      "##bten": 4908,
      "##steller": 4909,
      "telef": 4910,
      "eingel": 4911,
      "##sige": 4912,
      "schulen": 4913,
      "stimme": 4914,
      "sektoren": 4915,
      "aggressi": 4916,
      "##tritt": 4917,
      "##gende": 4918,
      "lautet": 4919,
      "leistungen": 4920,
      "vorherr": 4921,
      "sign": 4922,
      "verschul": 4923,
      "menschlichen": 4924,
      "bauern": 4925,
      "fach": 4926,
      "rand": 4927,
      "##bild": 4928,
      "vorüber": 4929,
      "2017": 4930,
      "arbeitsmarkt": 4931,
      "einsetzen": 4932,
      "##oler": 4933,
      "##deck": 4934,
      "##opol": 4935,
      "möchten": 4936,
      "rohstoff": 4937,
      "##brauch": 4938,
      "einnahmen": 4939,
      "blut": 4940,
      "grenze": 4941,
      "ereignisse": 4942,
      "bemühen": 4943,
      "verfolg": 4944,
      "müssten": 4945,
      "##wirken": 4946,
      "viertel": 4947,
      "worten": 4948,
      "lass": 4949,
      "inv": 4950,
      "bri": 4951,
      "##rigen": 4952,
      "sprach": 4953,
      "frühen": 4954,
      "schwieriger": 4955,
      "entscheidende": 4956,
      "70": 4957,
      "bal": 4958,
      "emma": 4959,
      "hoffe": 4960,
      "##rik": 4961,
      "eind": 4962,
      "gepl": 4963,
      "##anda": 4964,
      "hilf": 4965,
      "##behörde": 4966,
      "begeg": 4967,
      "##alisiert": 4968,
      "##senkungen": 4969,
      "regen": 4970,
      "versuchte": 4971,
      "drogen": 4972,
      "wettbewerbsfähigkeit": 4973,
      "entfernt": 4974,
      "umständen": 4975,
      "vene": 4976,
      "bat": 4977,
      "##ition": 4978,
      "##defizite": 4979,
      "ausnahme": 4980,
      "##ella": 4981,
      "gericht": 4982,
      "##echanismus": 4983,
      "anstrengungen": 4984,
      "hauptsächlich": 4985,
      "widersp": 4986,
      "protektion": 4987,
      "verständnis": 4988,
      "leistungsbilanz": 4989,
      "erwartungen": 4990,
      "##ipp": 4991,
      "##ießen": 4992,
      "überdies": 4993,
      "notenbanken": 4994,
      "##delle": 4995,
      "##tischer": 4996,
      "japanischen": 4997,
      "##üch": 4998,
      "alex": 4999,
      "überle": 5000,
      "sicherlich": 5001,
      "expor": 5002,
      "elias": 5003,
      "erhebliche": 5004,
      "super": 5005,
      "initiativen": 5006,
      "##fordert": 5007,
      "rechtfer": 5008,
      "wirkung": 5009,
      "##unsch": 5010,
      "gleicher": 5011,
      "zusätzlich": 5012,
      "flexi": 5013,
      "gingen": 5014,
      "##ender": 5015,
      "zugrund": 5016,
      "systeme": 5017,
      "##rechts": 5018,
      "##sstaat": 5019,
      "juli": 5020,
      "forschungs": 5021,
      "zeitraum": 5022,
      "fac": 5023,
      "eva": 5024,
      "makroökonom": 5025,
      "##hl": 5026,
      "##nü": 5027,
      "beeinflussen": 5028,
      "##glich": 5029,
      "währungen": 5030,
      "thom": 5031,
      "##mon": 5032,
      "anspruch": 5033,
      "eingeführt": 5034,
      "libanon": 5035,
      "##ril": 5036,
      "vorhanden": 5037,
      "glaubwürdigkeit": 5038,
      "##äden": 5039,
      "gekauft": 5040,
      "##fähigkeit": 5041,
      "##ari": 5042,
      "zwingen": 5043,
      "nähe": 5044,
      "anderem": 5045,
      "##klang": 5046,
      "steigende": 5047,
      "angeblich": 5048,
      "schicksal": 5049,
      "priorität": 5050,
      "onlin": 5051,
      "##nahm": 5052,
      "##ergie": 5053,
      "möglichen": 5054,
      "sal": 5055,
      "unterschiedlichen": 5056,
      "##otheken": 5057,
      "##ots": 5058,
      "verhe": 5059,
      "instabilität": 5060,
      "1980er": 5061,
      "bom": 5062,
      "hielt": 5063,
      "##rt": 5064,
      "##sh": 5065,
      "##mil": 5066,
      "##recken": 5067,
      "##spartei": 5068,
      "##flüsse": 5069,
      "##geld": 5070,
      "hängt": 5071,
      "planeten": 5072,
      "##teren": 5073,
      "gefäll": 5074,
      "angebot": 5075,
      "##träge": 5076,
      "charlotte": 5077,
      "##unst": 5078,
      "verpflichtungen": 5079,
      "tendenz": 5080,
      "ärmsten": 5081,
      "##pfen": 5082,
      "##annen": 5083,
      "zustand": 5084,
      "zufrieden": 5085,
      "##tigungs": 5086,
      "##eister": 5087,
      "besseren": 5088,
      "angen": 5089,
      "##itären": 5090,
      "##reserven": 5091,
      "##bald": 5092,
      "##sex": 5093,
      "flüchtling": 5094,
      "intellekt": 5095,
      "bündnis": 5096,
      "güter": 5097,
      "##alog": 5098,
      "##itäre": 5099,
      "alina": 5100,
      "##kep": 5101,
      "##leiten": 5102,
      "##kennt": 5103,
      "klara": 5104,
      "zunehmende": 5105,
      "verkaufen": 5106,
      "hoher": 5107,
      "2005": 5108,
      "desto": 5109,
      "##hetor": 5110,
      "freie": 5111,
      "nahezu": 5112,
      "just": 5113,
      "nachzu": 5114,
      "finanzinstitu": 5115,
      "##ark": 5116,
      "##ehnen": 5117,
      "##ile": 5118,
      "größe": 5119,
      "westliche": 5120,
      "bücher": 5121,
      "offenbar": 5122,
      "bruder": 5123,
      "##streben": 5124,
      "##ischung": 5125,
      "enttäu": 5126,
      "##ivia": 5127,
      "##gruppe": 5128,
      "verbindungen": 5129,
      "wunsch": 5130,
      "##beln": 5131,
      "##mann": 5132,
      "gerechtigkeit": 5133,
      "lill": 5134,
      "##higen": 5135,
      "##wahl": 5136,
      "##ilian": 5137,
      "##stellungen": 5138,
      "lotta": 5139,
      "taiwan": 5140,
      "darstellt": 5141,
      "maja": 5142,
      "bereitschaft": 5143,
      "näher": 5144,
      "vollständig": 5145,
      "oste": 5146,
      "##rel": 5147,
      "gene": 5148,
      "thomas": 5149,
      "##lern": 5150,
      "##altet": 5151,
      "gescheiter": 5152,
      "##aß": 5153,
      "sobald": 5154,
      "umgang": 5155,
      "##forderungen": 5156,
      "erwiesen": 5157,
      "löhne": 5158,
      "legitimität": 5159,
      "intellektu": 5160,
      "##arbeitet": 5161,
      "problemen": 5162,
      "phys": 5163,
      "ergreifen": 5164,
      "massive": 5165,
      "fru": 5166,
      "kaffe": 5167,
      "tisch": 5168,
      "staatsanleihen": 5169,
      "überwiegend": 5170,
      "unverm": 5171,
      "##pap": 5172,
      "##rolle": 5173,
      "begriff": 5174,
      "##zeuge": 5175,
      "ansichten": 5176,
      "##äufe": 5177,
      "pläne": 5178,
      "jam": 5179,
      "leit": 5180,
      "wind": 5181,
      "ausgew": 5182,
      "infolgedessen": 5183,
      "plötzlich": 5184,
      "##läss": 5185,
      "##ädig": 5186,
      "##okratie": 5187,
      "liebe": 5188,
      "solcher": 5189,
      "willen": 5190,
      "##ellos": 5191,
      "gewonnen": 5192,
      "unsicher": 5193,
      "solltest": 5194,
      "gebieten": 5195,
      "wohlhaben": 5196,
      "generationen": 5197,
      "setzte": 5198,
      "attraktiv": 5199,
      "licht": 5200,
      "allgemeine": 5201,
      "aufzubauen": 5202,
      "anschein": 5203,
      "##örder": 5204,
      "amel": 5205,
      "gegenwärtigen": 5206,
      "solidarität": 5207,
      "gehe": 5208,
      "##aust": 5209,
      "gewal": 5210,
      "moderne": 5211,
      "umzusetzen": 5212,
      "computer": 5213,
      "35": 5214,
      "80": 5215,
      "##wegen": 5216,
      "bewer": 5217,
      "##gleichen": 5218,
      "sophie": 5219,
      "##stadt": 5220,
      "nomin": 5221,
      "sam": 5222,
      "gläubiger": 5223,
      "##isiert": 5224,
      "schu": 5225,
      "unkl": 5226,
      "nationalismus": 5227,
      "##kehrt": 5228,
      "sing": 5229,
      "langen": 5230,
      "verschl": 5231,
      "beschränkt": 5232,
      "wechselkurs": 5233,
      "hundert": 5234,
      "##bewegung": 5235,
      "länd": 5236,
      "##iegel": 5237,
      "uno": 5238,
      "genannten": 5239,
      "westens": 5240,
      "dritte": 5241,
      "tot": 5242,
      "intensi": 5243,
      "berüh": 5244,
      "2018": 5245,
      "steigenden": 5246,
      "bestimmte": 5247,
      "palästinensischen": 5248,
      "fand": 5249,
      "illeg": 5250,
      "chef": 5251,
      "repräsent": 5252,
      "gefängnis": 5253,
      "pu": 5254,
      "##üge": 5255,
      "verändern": 5256,
      "obamas": 5257,
      "lokale": 5258,
      "kombination": 5259,
      "kreditver": 5260,
      "presse": 5261,
      "arbeitet": 5262,
      "spekul": 5263,
      "rechtsstaat": 5264,
      "##oni": 5265,
      "##aria": 5266,
      "##teile": 5267,
      "##sicherheit": 5268,
      "gewiss": 5269,
      "gemeinschaften": 5270,
      "##ollegen": 5271,
      "menschheit": 5272,
      "entspricht": 5273,
      "präsidentschaftsw": 5274,
      "jeweiligen": 5275,
      "argentinien": 5276,
      "englisch": 5277,
      "fran": 5278,
      "selbstverständ": 5279,
      "öffentlicher": 5280,
      "front": 5281,
      "unterschiedliche": 5282,
      "offiziellen": 5283,
      "günst": 5284,
      "##cc": 5285,
      "##ehm": 5286,
      "bestimmen": 5287,
      "traum": 5288,
      "stärke": 5289,
      "städten": 5290,
      "partnerschaft": 5291,
      "steigerung": 5292,
      "##mitt": 5293,
      "rettung": 5294,
      "tsche": 5295,
      "##eidet": 5296,
      "größtenteils": 5297,
      "digitale": 5298,
      "mitarbeiter": 5299,
      "erscheint": 5300,
      "ke": 5301,
      "tagen": 5302,
      "##nimmt": 5303,
      "##glichen": 5304,
      "##uhr": 5305,
      "bedroht": 5306,
      "##sagen": 5307,
      "##da": 5308,
      "zunahme": 5309,
      "##spir": 5310,
      "##ählte": 5311,
      "mitgliedsstaaten": 5312,
      "##bürger": 5313,
      "stärksten": 5314,
      "telefon": 5315,
      "feuer": 5316,
      "hu": 5317,
      "##atie": 5318,
      "##verse": 5319,
      "betrifft": 5320,
      "indiens": 5321,
      "unbeding": 5322,
      "projekte": 5323,
      "fundament": 5324,
      "##erer": 5325,
      "aufw": 5326,
      "##ließend": 5327,
      "sowje": 5328,
      "##rimin": 5329,
      "##ain": 5330,
      "##test": 5331,
      "artikel": 5332,
      "##last": 5333,
      "##alisieren": 5334,
      "verzwei": 5335,
      "april": 5336,
      "sprache": 5337,
      "##sphäre": 5338,
      "lilly": 5339,
      "mater": 5340,
      "treiben": 5341,
      "umfassender": 5342,
      "wü": 5343,
      "realen": 5344,
      "ernähr": 5345,
      "offizielle": 5346,
      "änderungen": 5347,
      "unmittelbar": 5348,
      "angewiesen": 5349,
      "proteste": 5350,
      "rak": 5351,
      "einigung": 5352,
      "verschle": 5353,
      "dürften": 5354,
      "konzentriert": 5355,
      "vorsitzen": 5356,
      "schweigen": 5357,
      "##xis": 5358,
      "legt": 5359,
      "weißt": 5360,
      "veränderung": 5361,
      "arbeitsplatz": 5362,
      "##reibung": 5363,
      "religion": 5364,
      "fein": 5365,
      "my": 5366,
      "##schicht": 5367,
      "schreiben": 5368,
      "##ssel": 5369,
      "qualität": 5370,
      "##dienst": 5371,
      "dü": 5372,
      "##krie": 5373,
      "##ühle": 5374,
      "verbessert": 5375,
      "verschiedene": 5376,
      "##setzungen": 5377,
      "blieb": 5378,
      "##nungs": 5379,
      "##tierung": 5380,
      "##ließt": 5381,
      "sexu": 5382,
      "eliten": 5383,
      "##strategie": 5384,
      "konsequen": 5385,
      "bud": 5386,
      "##schau": 5387,
      "verlie": 5388,
      "##urm": 5389,
      "stieg": 5390,
      "##abel": 5391,
      "##anzler": 5392,
      "bürgern": 5393,
      "politisches": 5394,
      "do": 5395,
      "##orfen": 5396,
      "gipfel": 5397,
      "beruhen": 5398,
      "erschütter": 5399,
      "entsprechend": 5400,
      "##sammlung": 5401,
      "unbedingt": 5402,
      "dc": 5403,
      "##ienen": 5404,
      "vermögenswerte": 5405,
      "zweifellos": 5406,
      "pan": 5407,
      "taten": 5408,
      "##ketten": 5409,
      "anzeichen": 5410,
      "schiff": 5411,
      "dok": 5412,
      "virus": 5413,
      "##mbol": 5414,
      "umgesetzt": 5415,
      "kunden": 5416,
      "treib": 5417,
      "sohn": 5418,
      "##weist": 5419,
      "##möglichkeiten": 5420,
      "##bleiben": 5421,
      "beizu": 5422,
      "##ulen": 5423,
      "zukünftige": 5424,
      "bahn": 5425,
      "maße": 5426,
      "##kriegs": 5427,
      "unein": 5428,
      "unru": 5429,
      "sogen": 5430,
      "zahlreiche": 5431,
      "senkung": 5432,
      "derer": 5433,
      "##sitionen": 5434,
      "regimes": 5435,
      "indones": 5436,
      "nutzung": 5437,
      "befrei": 5438,
      "stattfinden": 5439,
      "lokalen": 5440,
      "rhetor": 5441,
      "##gül": 5442,
      "##zahlungen": 5443,
      "überwinden": 5444,
      "gefällt": 5445,
      "kop": 5446,
      "err": 5447,
      "bedenken": 5448,
      "manipul": 5449,
      "versäum": 5450,
      "impor": 5451,
      "##ferend": 5452,
      "##drückt": 5453,
      "prim": 5454,
      "intervention": 5455,
      "##träch": 5456,
      "industrieländern": 5457,
      "del": 5458,
      "anerk": 5459,
      "##hör": 5460,
      "##zeiten": 5461,
      "##einnahmen": 5462,
      "spiegelt": 5463,
      "gesetzt": 5464,
      "vertreten": 5465,
      "produktions": 5466,
      "herrschaft": 5467,
      "anhänger": 5468,
      "##äher": 5469,
      "gezogen": 5470,
      "deflation": 5471,
      "aufrechter": 5472,
      "##steck": 5473,
      "richtigen": 5474,
      "erfahren": 5475,
      "benötigt": 5476,
      "territ": 5477,
      "##freund": 5478,
      "##zig": 5479,
      "##legt": 5480,
      "verlag": 5481,
      "existenz": 5482,
      "gewählt": 5483,
      "besorg": 5484,
      "bislang": 5485,
      "reise": 5486,
      "grad": 5487,
      "##las": 5488,
      "##kal": 5489,
      "##stag": 5490,
      "inland": 5491,
      "steigt": 5492,
      "kompliz": 5493,
      "formen": 5494,
      "binnen": 5495,
      "information": 5496,
      "umwel": 5497,
      "erlebt": 5498,
      "mik": 5499,
      "##ßig": 5500,
      "einher": 5501,
      "einklang": 5502,
      "steil": 5503,
      "japanische": 5504,
      "##amerikanischen": 5505,
      "infek": 5506,
      "deinen": 5507,
      "fühlen": 5508,
      "kaffee": 5509,
      "he": 5510,
      "soldaten": 5511,
      "menschliche": 5512,
      "potenziell": 5513,
      "gre": 5514,
      "##olid": 5515,
      "##amp": 5516,
      "##reis": 5517,
      "ungarn": 5518,
      "##oy": 5519,
      "##dis": 5520,
      "angesehen": 5521,
      "expan": 5522,
      "##ändert": 5523,
      "##tive": 5524,
      "dialog": 5525,
      "ausgegeben": 5526,
      "saudiarabien": 5527,
      "ohn": 5528,
      "fordern": 5529,
      "liberalen": 5530,
      "film": 5531,
      "##ai": 5532,
      "verkauf": 5533,
      "##ohnt": 5534,
      "nordkore": 5535,
      "##kommt": 5536,
      "unvermeid": 5537,
      "heil": 5538,
      "alli": 5539,
      "massiven": 5540,
      "dun": 5541,
      "##ail": 5542,
      "##länd": 5543,
      "##yl": 5544,
      "##ährt": 5545,
      "stärkere": 5546,
      "verhindert": 5547,
      "anpassung": 5548,
      "invas": 5549,
      "##wasser": 5550,
      "zuständ": 5551,
      "##ickt": 5552,
      "symbol": 5553,
      "minim": 5554,
      "kurzfristig": 5555,
      "asiatischen": 5556,
      "spez": 5557,
      "bezahlt": 5558,
      "##ürzen": 5559,
      "ausgesch": 5560,
      "unterb": 5561,
      "davor": 5562,
      "exist": 5563,
      "staatsschulden": 5564,
      "brüssel": 5565,
      "wein": 5566,
      "wagen": 5567,
      "eindruck": 5568,
      "kritis": 5569,
      "negativen": 5570,
      "det": 5571,
      "195": 5572,
      "##0000": 5573,
      "alternativen": 5574,
      "beur": 5575,
      "##ruar": 5576,
      "linken": 5577,
      "treibhaus": 5578,
      "feb": 5579,
      "berlin": 5580,
      "migranten": 5581,
      "verkehr": 5582,
      "solch": 5583,
      "2004": 5584,
      "suche": 5585,
      "##vertreter": 5586,
      "##niveau": 5587,
      "##kopf": 5588,
      "derartiger": 5589,
      "verglichen": 5590,
      "ignorieren": 5591,
      "konservativen": 5592,
      "##schriften": 5593,
      "##omm": 5594,
      "##üssen": 5595,
      "führten": 5596,
      "wirklichkeit": 5597,
      "persp": 5598,
      "behauptet": 5599,
      "christ": 5600,
      "februar": 5601,
      "dor": 5602,
      "##pers": 5603,
      "absicht": 5604,
      "herz": 5605,
      "finanzierungs": 5606,
      "finanzsektor": 5607,
      "##ynes": 5608,
      "beschränkungen": 5609,
      "##iden": 5610,
      "##präsidenten": 5611,
      "werk": 5612,
      "spekt": 5613,
      "genutzt": 5614,
      "weisen": 5615,
      "##kons": 5616,
      "jährlichen": 5617,
      "äußerst": 5618,
      "betreffen": 5619,
      "lehren": 5620,
      "historischen": 5621,
      "##tiken": 5622,
      "beherr": 5623,
      "bett": 5624,
      "universitäten": 5625,
      "chaos": 5626,
      "##bungen": 5627,
      "zwanzig": 5628,
      "trends": 5629,
      "cy": 5630,
      "##tist": 5631,
      "##cke": 5632,
      "##rump": 5633,
      "angef": 5634,
      "weißen": 5635,
      "##sprochen": 5636,
      "##ietnam": 5637,
      "hinweg": 5638,
      "eumitglied": 5639,
      "24": 5640,
      "##bur": 5641,
      "##steht": 5642,
      "##urf": 5643,
      "schwellenländern": 5644,
      "eis": 5645,
      "kämpf": 5646,
      "liste": 5647,
      "##kret": 5648,
      "ergeben": 5649,
      "##umm": 5650,
      "##zicht": 5651,
      "aug": 5652,
      "##affung": 5653,
      "##tigkeiten": 5654,
      "keines": 5655,
      "##kurbeln": 5656,
      "gegenwärtig": 5657,
      "##verfahren": 5658,
      "gleichgewicht": 5659,
      "power": 5660,
      "niedergang": 5661,
      "sinne": 5662,
      "defizite": 5663,
      "wetter": 5664,
      "##enkt": 5665,
      "##erte": 5666,
      "##rep": 5667,
      "2006": 5668,
      "raketen": 5669,
      "emp": 5670,
      "rechen": 5671,
      "schwe": 5672,
      "fragte": 5673,
      "unserem": 5674,
      "gebrauch": 5675,
      "ruh": 5676,
      "lab": 5677,
      "tu": 5678,
      "propag": 5679,
      "2003": 5680,
      "##leistungen": 5681,
      "##wärts": 5682,
      "leistung": 5683,
      "sämt": 5684,
      "##met": 5685,
      "kompl": 5686,
      "dollars": 5687,
      "faktor": 5688,
      "gedanken": 5689,
      "riv": 5690,
      "2019": 5691,
      "offenen": 5692,
      "transparenz": 5693,
      "kohl": 5694,
      "nar": 5695,
      "tur": 5696,
      "damal": 5697,
      "##hebung": 5698,
      "modernis": 5699,
      "unterdessen": 5700,
      "##zipl": 5701,
      "politikern": 5702,
      "bipwachstum": 5703,
      "kleiner": 5704,
      "wettbewerbs": 5705,
      "##own": 5706,
      "bedrohungen": 5707,
      "##jährige": 5708,
      "wiederholt": 5709,
      "selbstverständlich": 5710,
      "schrieb": 5711,
      "konferenz": 5712,
      "mögliche": 5713,
      "nachhaltigen": 5714,
      "theorie": 5715,
      "ökonomie": 5716,
      "ablehn": 5717,
      "nennen": 5718,
      "##stä": 5719,
      "##proj": 5720,
      "##nehmern": 5721,
      "kontra": 5722,
      "verwenden": 5723,
      "überwachung": 5724,
      "sichern": 5725,
      "ausbruch": 5726,
      "beschäftigungs": 5727,
      "gegrü": 5728,
      "notenbank": 5729,
      "far": 5730,
      "##handlungen": 5731,
      "wenigen": 5732,
      "##bezieh": 5733,
      "besetz": 5734,
      "##regeln": 5735,
      "##ostiz": 5736,
      "ständig": 5737,
      "gespräche": 5738,
      "##esischen": 5739,
      "finanzminister": 5740,
      "##gebung": 5741,
      "##itt": 5742,
      "bestre": 5743,
      "irgendein": 5744,
      "sun": 5745,
      "##zer": 5746,
      "##ulierung": 5747,
      "##assungen": 5748,
      "staatlicher": 5749,
      "afrikas": 5750,
      "hintergrund": 5751,
      "august": 5752,
      "mat": 5753,
      "tali": 5754,
      "##iew": 5755,
      "unzur": 5756,
      "herum": 5757,
      "##sproblem": 5758,
      "begrenzt": 5759,
      "ermutigen": 5760,
      "ersparnisse": 5761,
      "häuf": 5762,
      "eröff": 5763,
      "##geht": 5764,
      "##unsten": 5765,
      "##ille": 5766,
      "##quellen": 5767,
      "brauche": 5768,
      "israelischen": 5769,
      "unverzicht": 5770,
      "herrscht": 5771,
      "fremd": 5772,
      "##räf": 5773,
      "bestehende": 5774,
      "ära": 5775,
      "schreck": 5776,
      "##rüstung": 5777,
      "kluft": 5778,
      "##ektiver": 5779,
      "grünen": 5780,
      "eth": 5781,
      "hiv": 5782,
      "kub": 5783,
      "##ibt": 5784,
      "##obel": 5785,
      "chem": 5786,
      "versuche": 5787,
      "arbeitsplätzen": 5788,
      "umfassenden": 5789,
      "##aid": 5790,
      "gelernt": 5791,
      "##administration": 5792,
      "erwachsen": 5793,
      "fehlen": 5794,
      "geprägt": 5795,
      "cyber": 5796,
      "22": 5797,
      "läuft": 5798,
      "##kan": 5799,
      "##äfte": 5800,
      "##dlich": 5801,
      "beweis": 5802,
      "geboren": 5803,
      "klare": 5804,
      "wünschen": 5805,
      "abziel": 5806,
      "andererseits": 5807,
      "komment": 5808,
      "impfstoff": 5809,
      "beobachter": 5810,
      "tak": 5811,
      "beam": 5812,
      "verschärft": 5813,
      "furch": 5814,
      "fälle": 5815,
      "kore": 5816,
      "kali": 5817,
      "nik": 5818,
      "##achtung": 5819,
      "pariser": 5820,
      "##höhungen": 5821,
      "##emen": 5822,
      "behalten": 5823,
      "wollten": 5824,
      "ausgelöst": 5825,
      "methode": 5826,
      "angenommen": 5827,
      "nütz": 5828,
      "erleben": 5829,
      "gestalten": 5830,
      "malaria": 5831,
      "1990": 5832,
      "terroristen": 5833,
      "bewältigung": 5834,
      "misstra": 5835,
      "methoden": 5836,
      "vietnam": 5837,
      "##vol": 5838,
      "enth": 5839,
      "außergew": 5840,
      "schafft": 5841,
      "keynes": 5842,
      "eink": 5843,
      "versicher": 5844,
      "kommunistischen": 5845,
      "experi": 5846,
      "territor": 5847,
      "##atlan": 5848,
      "##gewichte": 5849,
      "##iegeln": 5850,
      "coron": 5851,
      "kal": 5852,
      "gebe": 5853,
      "##üren": 5854,
      "importe": 5855,
      "indischen": 5856,
      "quart": 5857,
      "beeinträch": 5858,
      "kanada": 5859,
      "hypotheken": 5860,
      "mot": 5861,
      "##ppe": 5862,
      "platt": 5863,
      "##peratur": 5864,
      "kritiker": 5865,
      "beeindruck": 5866,
      "ärz": 5867,
      "übrigen": 5868,
      "golf": 5869,
      "sarko": 5870,
      "konkurrenz": 5871,
      "##umb": 5872,
      "##legung": 5873,
      "##stütz": 5874,
      "##versicherung": 5875,
      "##organisationen": 5876,
      "##ac": 5877,
      "##bert": 5878,
      "usregierung": 5879,
      "süden": 5880,
      "traditionelle": 5881,
      "verschärfen": 5882,
      "prioritäten": 5883,
      "90": 5884,
      "##die": 5885,
      "versprochen": 5886,
      "##unken": 5887,
      "holl": 5888,
      "gesicht": 5889,
      "wirtschaftspolitik": 5890,
      "finanzsystem": 5891,
      "##programme": 5892,
      "behandelt": 5893,
      "frankreichs": 5894,
      "argumente": 5895,
      "bestimmten": 5896,
      "emissions": 5897,
      "treten": 5898,
      "##eth": 5899,
      "berech": 5900,
      "symp": 5901,
      "berücksichtigen": 5902,
      "mel": 5903,
      "##oph": 5904,
      "##verschm": 5905,
      "mehreren": 5906,
      "irland": 5907,
      "effizienz": 5908,
      "geburt": 5909,
      "##uchen": 5910,
      "##renze": 5911,
      "zeitalter": 5912,
      "praxis": 5913,
      "iranischen": 5914,
      "fußball": 5915,
      "bloß": 5916,
      "##mäh": 5917,
      "beisp": 5918,
      "entwickelte": 5919,
      "grüne": 5920,
      "##twicklung": 5921,
      "##größ": 5922,
      "hen": 5923,
      "hände": 5924,
      "##passen": 5925,
      "##anische": 5926,
      "normen": 5927,
      "unabhängige": 5928,
      "beispiell": 5929,
      "##krisen": 5930,
      "##äußer": 5931,
      "benötigen": 5932,
      "stolz": 5933,
      "impliz": 5934,
      "geschafft": 5935,
      "rückzug": 5936,
      "##änomen": 5937,
      "schüler": 5938,
      "verteidigen": 5939,
      "justiz": 5940,
      "händ": 5941,
      "##dischen": 5942,
      "gewerk": 5943,
      "schäd": 5944,
      "imper": 5945,
      "##impf": 5946,
      "verschie": 5947,
      "unglück": 5948,
      "frühere": 5949,
      "annäher": 5950,
      "erkannt": 5951,
      "zentralen": 5952,
      "medikamente": 5953,
      "taliban": 5954,
      "geschrieben": 5955,
      "quelle": 5956,
      "ausgedrückt": 5957,
      "##bestimm": 5958,
      "instrumente": 5959,
      "brei": 5960,
      "##spra": 5961,
      "##verschuldung": 5962,
      "breiter": 5963,
      "oftmals": 5964,
      "koch": 5965,
      "##grenz": 5966,
      "aufgenommen": 5967,
      "##tschen": 5968,
      "lebt": 5969,
      "seitdem": 5970,
      "england": 5971,
      "richter": 5972,
      "passieren": 5973,
      "erzielt": 5974,
      "libyen": 5975,
      "##tausen": 5976,
      "##med": 5977,
      "arzt": 5978,
      "besorgnis": 5979,
      "zählen": 5980,
      "verdopp": 5981,
      "gleichermaßen": 5982,
      "##grenze": 5983,
      "##stellte": 5984,
      "digitalen": 5985,
      "juden": 5986,
      "norden": 5987,
      "reale": 5988,
      "william": 5989,
      "sinnvoll": 5990,
      "james": 5991,
      "bör": 5992,
      "ew": 5993,
      "##tex": 5994,
      "##fizierung": 5995,
      "größerer": 5996,
      "zwangsl": 5997,
      "brennstoffe": 5998,
      "23": 5999,
      "ast": 6000,
      "ban": 6001,
      "dre": 6002,
      "gang": 6003,
      "##mord": 6004,
      "##alisierten": 6005,
      "besuchen": 6006,
      "katastrophal": 6007,
      "fel": 6008,
      "kunst": 6009,
      "tex": 6010,
      "##pandemie": 6011,
      "##ichter": 6012,
      "##ierer": 6013,
      "##olfen": 6014,
      "aussicht": 6015,
      "problems": 6016,
      "drohen": 6017,
      "minderheiten": 6018,
      "##lösung": 6019,
      "flei": 6020,
      "mand": 6021,
      "##ergeb": 6022,
      "##leiden": 6023,
      "verlangen": 6024,
      "##rücken": 6025,
      "bewaff": 6026,
      "zunehmenden": 6027,
      "nachhaltig": 6028,
      "rhetorik": 6029,
      "##uv": 6030,
      "aufgeb": 6031,
      "großes": 6032,
      "parad": 6033,
      "auslands": 6034,
      "##finanzierung": 6035,
      "beträgt": 6036,
      "verdient": 6037,
      "hy": 6038,
      "##sive": 6039,
      "kost": 6040,
      "hilft": 6041,
      "szenario": 6042,
      "einander": 6043,
      "erb": 6044,
      "##ollah": 6045,
      "einwanderung": 6046,
      "verbundenen": 6047,
      "diplomatie": 6048,
      "##grü": 6049,
      "##buch": 6050,
      "renmin": 6051,
      "irgendwann": 6052,
      "##onie": 6053,
      "##reform": 6054,
      "finanziert": 6055,
      "jeweils": 6056,
      "invasion": 6057,
      "27": 6058,
      "##ath": 6059,
      "nachhaltigkeit": 6060,
      "verdienen": 6061,
      "sunn": 6062,
      "##fferen": 6063,
      "million": 6064,
      "##mmern": 6065,
      "##stände": 6066,
      "standards": 6067,
      "ruf": 6068,
      "wählen": 6069,
      "##ey": 6070,
      "ausgang": 6071,
      "allmäh": 6072,
      "instrument": 6073,
      "gründung": 6074,
      "venezu": 6075,
      "wächst": 6076,
      "##oc": 6077,
      "abgesehen": 6078,
      "unseres": 6079,
      "afrikanische": 6080,
      "vereinbarung": 6081,
      "2021": 6082,
      "##eira": 6083,
      "##anne": 6084,
      "spitze": 6085,
      "##ichteten": 6086,
      "südafrika": 6087,
      "bilanz": 6088,
      "1970er": 6089,
      "äng": 6090,
      "##pa": 6091,
      "##schi": 6092,
      "##ehin": 6093,
      "übermäß": 6094,
      "großbritanniens": 6095,
      "verzeich": 6096,
      "##schlägen": 6097,
      "kriege": 6098,
      "charakter": 6099,
      "##anlagen": 6100,
      "##euerung": 6101,
      "andern": 6102,
      "##stechn": 6103,
      "sozialer": 6104,
      "beteiligt": 6105,
      "griechischen": 6106,
      "ohnehin": 6107,
      "verstanden": 6108,
      "entstanden": 6109,
      "umfasst": 6110,
      "##ählten": 6111,
      "lebensstand": 6112,
      "untersuchung": 6113,
      "sand": 6114,
      "##oßen": 6115,
      "entz": 6116,
      "geschieht": 6117,
      "##zesse": 6118,
      "bezeichnen": 6119,
      "positive": 6120,
      "analyse": 6121,
      "rechenschaft": 6122,
      "##öger": 6123,
      "ausü": 6124,
      "##ume": 6125,
      "tatsäch": 6126,
      "diver": 6127,
      "auslösen": 6128,
      "##ziplin": 6129,
      "kollegen": 6130,
      "teuer": 6131,
      "##har": 6132,
      "zuerst": 6133,
      "ersetzen": 6134,
      "##ehrt": 6135,
      "schwimmen": 6136,
      "vereinigte": 6137,
      "##ürzt": 6138,
      "vergrö": 6139,
      "angriffe": 6140,
      "drängen": 6141,
      "zugrunde": 6142,
      "##iver": 6143,
      "##erten": 6144,
      "##berech": 6145,
      "##weite": 6146,
      "trug": 6147,
      "##ebo": 6148,
      "vertie": 6149,
      "autos": 6150,
      "schwerpunkt": 6151,
      "außenminister": 6152,
      "zeichen": 6153,
      "statist": 6154,
      "##recher": 6155,
      "gefährdet": 6156,
      "ausschließlich": 6157,
      "drittens": 6158,
      "##spartner": 6159,
      "##seite": 6160,
      "obersten": 6161,
      "destabil": 6162,
      "johnson": 6163,
      "stützen": 6164,
      "kapazitäten": 6165,
      "direkte": 6166,
      "elite": 6167,
      "muslime": 6168,
      "erinnert": 6169,
      "anhaltende": 6170,
      "überraschend": 6171,
      "kreditvergabe": 6172,
      "schweden": 6173,
      "gei": 6174,
      "pfl": 6175,
      "pek": 6176,
      "##gänger": 6177,
      "##enster": 6178,
      "manchen": 6179,
      "##würdig": 6180,
      "zusätzlichen": 6181,
      "anerkennung": 6182,
      "lust": 6183,
      "##pol": 6184,
      "##steigen": 6185,
      "einb": 6186,
      "##umenten": 6187,
      "ölpreise": 6188,
      "einzusetzen": 6189,
      "missbrauch": 6190,
      "zeigte": 6191,
      "##ktionen": 6192,
      "##fiziert": 6193,
      "repar": 6194,
      "beschleunigen": 6195,
      "branchen": 6196,
      "av": 6197,
      "fing": 6198,
      "vorschläge": 6199,
      "##forn": 6200,
      "versagen": 6201,
      "hochentwick": 6202,
      "muster": 6203,
      "schwachen": 6204,
      "betrug": 6205,
      "jack": 6206,
      "säkul": 6207,
      "serb": 6208,
      "verwaltung": 6209,
      "##gipfel": 6210,
      "##aw": 6211,
      "##digen": 6212,
      "investiert": 6213,
      "##ordneten": 6214,
      "offensicht": 6215,
      "positiv": 6216,
      "temperatur": 6217,
      "müde": 6218,
      "##ane": 6219,
      "stunde": 6220,
      "gesprochen": 6221,
      "wahren": 6222,
      "zentrum": 6223,
      "respekt": 6224,
      "konstru": 6225,
      "verteilung": 6226,
      "##unru": 6227,
      "uswirtschaft": 6228,
      "##ränkt": 6229,
      "ähnlichen": 6230,
      "wertpap": 6231,
      "harte": 6232,
      "jährliche": 6233,
      "dauern": 6234,
      "erde": 6235,
      "umgehen": 6236,
      "##rufen": 6237,
      "##legend": 6238,
      "fluss": 6239,
      "argumentiert": 6240,
      "zerstörung": 6241,
      "wünschte": 6242,
      "kompromiss": 6243,
      "überlegen": 6244,
      "interventionen": 6245,
      "autonom": 6246,
      "##marsch": 6247,
      "interessiert": 6248,
      "devisen": 6249,
      "moskau": 6250,
      "500": 6251,
      "##fassung": 6252,
      "eins": 6253,
      "auftreten": 6254,
      "ausdrück": 6255,
      "##spf": 6256,
      "grundlegend": 6257,
      "##führten": 6258,
      "freiwill": 6259,
      "öffnen": 6260,
      "##überschuss": 6261,
      "erleichter": 6262,
      "##lungen": 6263,
      "##inz": 6264,
      "##verm": 6265,
      "##werte": 6266,
      "hingegen": 6267,
      "engag": 6268,
      "sach": 6269,
      "vorsichtig": 6270,
      "##verteilung": 6271,
      "konvention": 6272,
      "##werke": 6273,
      "schwere": 6274,
      "diagn": 6275,
      "höchsten": 6276,
      "ländlichen": 6277,
      "furcht": 6278,
      "ration": 6279,
      "##noten": 6280,
      "##erv": 6281,
      "##übergreifen": 6282,
      "phänomen": 6283,
      "kommunikation": 6284,
      "prag": 6285,
      "singap": 6286,
      "bla": 6287,
      "eintreten": 6288,
      "##vertrag": 6289,
      "##zenten": 6290,
      "expl": 6291,
      "verurteilt": 6292,
      "##ochter": 6293,
      "masch": 6294,
      "verwendung": 6295,
      "verlangsam": 6296,
      "gä": 6297,
      "##ßern": 6298,
      "konzept": 6299,
      "korre": 6300,
      "mitgliedstaaten": 6301,
      "bestimmungen": 6302,
      "begegnen": 6303,
      "hü": 6304,
      "unten": 6305,
      "##ierend": 6306,
      "amerikanischer": 6307,
      "renminbi": 6308,
      "##verein": 6309,
      "welthandels": 6310,
      "orien": 6311,
      "##nö": 6312,
      "##ußen": 6313,
      "geeig": 6314,
      "##ehren": 6315,
      "ergän": 6316,
      "zwangsläufig": 6317,
      "est": 6318,
      "lob": 6319,
      "mass": 6320,
      "gesunken": 6321,
      "mitglieds": 6322,
      "unterscheiden": 6323,
      "krankenhaus": 6324,
      "religiösen": 6325,
      "zoll": 6326,
      "übertragen": 6327,
      "gesetzes": 6328,
      "angefangen": 6329,
      "ku": 6330,
      "schatten": 6331,
      "aufhören": 6332,
      "arbei": 6333,
      "begrenzen": 6334,
      "historische": 6335,
      "subvention": 6336,
      "zurückzuführen": 6337,
      "peking": 6338,
      "finde": 6339,
      "welchen": 6340,
      "ungeachtet": 6341,
      "##verschmutzung": 6342,
      "mess": 6343,
      "##itischen": 6344,
      "##halte": 6345,
      "##orts": 6346,
      "angebots": 6347,
      "bedürfnisse": 6348,
      "kooperation": 6349,
      "kosov": 6350,
      "rechtsstaatlichkeit": 6351,
      "einrichtungen": 6352,
      "##gest": 6353,
      "##etan": 6354,
      "forderung": 6355,
      "##ferendum": 6356,
      "bang": 6357,
      "absol": 6358,
      "logik": 6359,
      "##uverne": 6360,
      "skep": 6361,
      "kurzfristigen": 6362,
      "fenster": 6363,
      "sil": 6364,
      "##feind": 6365,
      "##kund": 6366,
      "##auert": 6367,
      "anlagen": 6368,
      "##osystem": 6369,
      "entf": 6370,
      "wahre": 6371,
      "währungsunion": 6372,
      "verlangt": 6373,
      "schlimmsten": 6374,
      "vir": 6375,
      "2050": 6376,
      "##ätzung": 6377,
      "freihandels": 6378,
      "kenne": 6379,
      "wissenschaftliche": 6380,
      "##ämpft": 6381,
      "ärmer": 6382,
      "durchschnittlich": 6383,
      "eigentums": 6384,
      "##itar": 6385,
      "stopp": 6386,
      "##ump": 6387,
      "betrieb": 6388,
      "erheblichen": 6389,
      "droht": 6390,
      "betroffenen": 6391,
      "mindest": 6392,
      "ton": 6393,
      "##len": 6394,
      "geändert": 6395,
      "##ish": 6396,
      "schach": 6397,
      "betracht": 6398,
      "ignoriert": 6399,
      "wiederaufbau": 6400,
      "##hte": 6401,
      "bescheiden": 6402,
      "##swerten": 6403,
      "konsequenzen": 6404,
      "nein": 6405,
      "##orn": 6406,
      "##indigkeit": 6407,
      "##serwart": 6408,
      "gehör": 6409,
      "fossilen": 6410,
      "econom": 6411,
      "geschen": 6412,
      "extern": 6413,
      "verhaltens": 6414,
      "autorität": 6415,
      "##ecd": 6416,
      "ehe": 6417,
      "##äumen": 6418,
      "##gemein": 6419,
      "verknü": 6420,
      "wissenschaftlichen": 6421,
      "##wegs": 6422,
      "ökonomien": 6423,
      "schätzungen": 6424,
      "##osten": 6425,
      "streben": 6426,
      "##führte": 6427,
      "jahrzehnts": 6428,
      "notwendigen": 6429,
      "gedacht": 6430,
      "anwendung": 6431,
      "effektive": 6432,
      "facebo": 6433,
      "##th": 6434,
      "##sekret": 6435,
      "gewisse": 6436,
      "schwester": 6437,
      "relev": 6438,
      "arabische": 6439,
      "durchschnitt": 6440,
      "indonesien": 6441,
      "facebook": 6442,
      "tochter": 6443,
      "wa": 6444,
      "##istin": 6445,
      "##fizieren": 6446,
      "bereiche": 6447,
      "kommunismus": 6448,
      "kompeten": 6449,
      "schwäche": 6450,
      "potenziellen": 6451,
      "alexander": 6452,
      "party": 6453,
      "zukünftigen": 6454,
      "##car": 6455,
      "sparen": 6456,
      "mad": 6457,
      "rücken": 6458,
      "dahin": 6459,
      "##riffe": 6460,
      "einzelne": 6461,
      "kurzfristige": 6462,
      "anreiz": 6463,
      "abst": 6464,
      "schlechten": 6465,
      "##ektiven": 6466,
      "bedeutsam": 6467,
      "glücklicherweise": 6468,
      "berühm": 6469,
      "henry": 6470,
      "europäischer": 6471,
      "##äufer": 6472,
      "##ologien": 6473,
      "zielen": 6474,
      "diskrimin": 6475,
      "zerstör": 6476,
      "beteiligung": 6477,
      "persönlichen": 6478,
      "dek": 6479,
      "fot": 6480,
      "beunru": 6481,
      "großzüg": 6482,
      "##akte": 6483,
      "##ehnt": 6484,
      "##sprogramm": 6485,
      "steuersenkungen": 6486,
      "vollkommen": 6487,
      "transport": 6488,
      "berücksichtigt": 6489,
      "hörte": 6490,
      "verheeren": 6491,
      "##viel": 6492,
      "schweren": 6493,
      "covid19pandemie": 6494,
      "erfolgreiche": 6495,
      "option": 6496,
      "##zinsen": 6497,
      "beginnt": 6498,
      "##brü": 6499,
      "##able": 6500,
      "marktes": 6501,
      "##grammen": 6502,
      "1989": 6503,
      "##bilität": 6504,
      "##ograph": 6505,
      "##stattung": 6506,
      "voranzu": 6507,
      "oecd": 6508,
      "zy": 6509,
      "netto": 6510,
      "##laub": 6511,
      "bol": 6512,
      "##hö": 6513,
      "##onas": 6514,
      "##fällig": 6515,
      "konfront": 6516,
      "tiefer": 6517,
      "derzeitigen": 6518,
      "verschlechter": 6519,
      "##eiratet": 6520,
      "##ützt": 6521,
      "##testen": 6522,
      "inklus": 6523,
      "stahl": 6524,
      "betrachte": 6525,
      "umweltsch": 6526,
      "##osion": 6527,
      "rechnung": 6528,
      "gast": 6529,
      "##tor": 6530,
      "ansehen": 6531,
      "eskal": 6532,
      "##ruf": 6533,
      "vielzahl": 6534,
      "##herap": 6535,
      "##gelassen": 6536,
      "einzigar": 6537,
      "behar": 6538,
      "sektors": 6539,
      "einwanderer": 6540,
      "##bekämpfung": 6541,
      "häuser": 6542,
      "informations": 6543,
      "extreme": 6544,
      "profitiert": 6545,
      "durchgeführt": 6546,
      "##enh": 6547,
      "einger": 6548,
      "##irn": 6549,
      "##iertes": 6550,
      "##reisen": 6551,
      "eure": 6552,
      "standard": 6553,
      "krimin": 6554,
      "bekennt": 6555,
      "wirtschaftsw": 6556,
      "##aket": 6557,
      "monopol": 6558,
      "mittelpunkt": 6559,
      "technologische": 6560,
      "##ublik": 6561,
      "bu": 6562,
      "echten": 6563,
      "meist": 6564,
      "gelingt": 6565,
      "bisschen": 6566,
      "emo": 6567,
      "israelis": 6568,
      "kreditgeber": 6569,
      "behauptung": 6570,
      "##welt": 6571,
      "inspir": 6572,
      "anlei": 6573,
      "reaktionen": 6574,
      "wende": 6575,
      "vielfalt": 6576,
      "kampagne": 6577,
      "technologischen": 6578,
      "nachhaltiger": 6579,
      "strukturreformen": 6580,
      "anschließend": 6581,
      "##eff": 6582,
      "heutige": 6583,
      "gebiet": 6584,
      "bemer": 6585,
      "getö": 6586,
      "verantwortungs": 6587,
      "verursachen": 6588,
      "veröffentlicht": 6589,
      "last": 6590,
      "antworten": 6591,
      "##usion": 6592,
      "diesmal": 6593,
      "hierfür": 6594,
      "mittelschicht": 6595,
      "negative": 6596,
      "##mitglieder": 6597,
      "stagnation": 6598,
      "##ras": 6599,
      "##rien": 6600,
      "##hei": 6601,
      "##tend": 6602,
      "erfolge": 6603,
      "aufsichts": 6604,
      "##abeth": 6605,
      "marktwirtschaft": 6606,
      "sadd": 6607,
      "toler": 6608,
      "##down": 6609,
      "##rechten": 6610,
      "prokopf": 6611,
      "nachfolger": 6612,
      "franzisk": 6613,
      "poln": 6614,
      "steuerzahl": 6615,
      "entscheidenden": 6616,
      "niederland": 6617,
      "ergibt": 6618,
      "##sekretär": 6619,
      "saddam": 6620,
      "##iland": 6621,
      "##ördert": 6622,
      "nied": 6623,
      "asiens": 6624,
      "ankünd": 6625,
      "perspektive": 6626,
      "##initi": 6627,
      "geber": 6628,
      "werten": 6629,
      "müsse": 6630,
      "sonnen": 6631,
      "herrschen": 6632,
      "##produktiv": 6633,
      "##gs": 6634,
      "##öder": 6635,
      "##stelle": 6636,
      "##ätzt": 6637,
      "staatsverschuldung": 6638,
      "prognostiz": 6639,
      "##tungs": 6640,
      "##erl": 6641,
      "unterst": 6642,
      "unternommen": 6643,
      "abt": 6644,
      "##halts": 6645,
      "dreißig": 6646,
      "steuers": 6647,
      "park": 6648,
      "musik": 6649,
      "##sprodu": 6650,
      "republikanischen": 6651,
      "effektiver": 6652,
      "katastrophen": 6653,
      "hunderte": 6654,
      "dramatisch": 6655,
      "meeres": 6656,
      "sus": 6657,
      "##zuführen": 6658,
      "briten": 6659,
      "kaliforn": 6660,
      "niedrige": 6661,
      "lief": 6662,
      "wohin": 6663,
      "falsche": 6664,
      "minuten": 6665,
      "##verbrauch": 6666,
      "institutionelle": 6667,
      "singapur": 6668,
      "gegessen": 6669,
      "sofern": 6670,
      "reb": 6671,
      "refor": 6672,
      "2002": 6673,
      "offene": 6674,
      "boom": 6675,
      "förder": 6676,
      "bevorstehen": 6677,
      "linke": 6678,
      "##rängt": 6679,
      "##interessen": 6680,
      "bestätigt": 6681,
      "intelligenz": 6682,
      "titel": 6683,
      "##enhagen": 6684,
      "hem": 6685,
      "##ämm": 6686,
      "##asste": 6687,
      "weithin": 6688,
      "##ica": 6689,
      "natürlichen": 6690,
      "trifft": 6691,
      "##wissenschaft": 6692,
      "gewöhn": 6693,
      "büro": 6694,
      "##ämmen": 6695,
      "mitgliedschaft": 6696,
      "prognosen": 6697,
      "erfüllt": 6698,
      "ach": 6699,
      "bzw": 6700,
      "fisch": 6701,
      "##adem": 6702,
      "##irekt": 6703,
      "mari": 6704,
      "##ücke": 6705,
      "##dienstleist": 6706,
      "möchtest": 6707,
      "liberale": 6708,
      "##igungen": 6709,
      "bereitstellung": 6710,
      "##vors": 6711,
      "reduzierung": 6712,
      "anhaltenden": 6713,
      "sorgfäl": 6714,
      "75": 6715,
      "kap": 6716,
      "##bra": 6717,
      "##meister": 6718,
      "##deckt": 6719,
      "##row": 6720,
      "ausgeben": 6721,
      "##rev": 6722,
      "benach": 6723,
      "kümmern": 6724,
      "##treiben": 6725,
      "##schließen": 6726,
      "##tzut": 6727,
      "##estag": 6728,
      "gewöhnlich": 6729,
      "nigeria": 6730,
      "zweit": 6731,
      "enthalten": 6732,
      "höherer": 6733,
      "gefolge": 6734,
      "jin": 6735,
      "sitzen": 6736,
      "welle": 6737,
      "interp": 6738,
      "##ocken": 6739,
      "weste": 6740,
      "links": 6741,
      "zugunsten": 6742,
      "potenzielle": 6743,
      "ul": 6744,
      "zustimmung": 6745,
      "aufnehmen": 6746,
      "transatlan": 6747,
      "verpflichtung": 6748,
      "moralische": 6749,
      "multilateralen": 6750,
      "verbreitet": 6751,
      "tausende": 6752,
      "ky": 6753,
      "läch": 6754,
      "##erhalten": 6755,
      "##anw": 6756,
      "schlagen": 6757,
      "sek": 6758,
      "##intensi": 6759,
      "##sches": 6760,
      "heutzut": 6761,
      "green": 6762,
      "heutzutage": 6763,
      "gis": 6764,
      "tha": 6765,
      "auge": 6766,
      "stu": 6767,
      "##verhält": 6768,
      "zerstört": 6769,
      "gegenwärtige": 6770,
      "keinerlei": 6771,
      "ursachen": 6772,
      "gegründet": 6773,
      "ah": 6774,
      "brot": 6775,
      "stamm": 6776,
      "ausges": 6777,
      "##rift": 6778,
      "schwache": 6779,
      "##risiken": 6780,
      "##kow": 6781,
      "##komp": 6782,
      "##atisierung": 6783,
      "ausgeschlossen": 6784,
      "fok": 6785,
      "beweise": 6786,
      "aufrecht": 6787,
      "aussehen": 6788,
      "##riter": 6789,
      "genannte": 6790,
      "ernsthaft": 6791,
      "##uropäischen": 6792,
      "g7": 6793,
      "ersetzt": 6794,
      "##spers": 6795,
      "berg": 6796,
      "##ski": 6797,
      "##ice": 6798,
      "rufen": 6799,
      "negativ": 6800,
      "misstrauen": 6801,
      "##ds": 6802,
      "##ünfte": 6803,
      "spielraum": 6804,
      "tempo": 6805,
      "erwähn": 6806,
      "sab": 6807,
      "##lungs": 6808,
      "##eral": 6809,
      "##örter": 6810,
      "marias": 6811,
      "eigenes": 6812,
      "preisst": 6813,
      "##ruppen": 6814,
      "mitgliedern": 6815,
      "derartiges": 6816,
      "frühling": 6817,
      "identi": 6818,
      "diskussionen": 6819,
      "kostspiel": 6820,
      "joe": 6821,
      "##mut": 6822,
      "##euert": 6823,
      "ideologie": 6824,
      "##holen": 6825,
      "##management": 6826,
      "zerstören": 6827,
      "reserven": 6828,
      "##beschäf": 6829,
      "##passt": 6830,
      "kontex": 6831,
      "##alisierte": 6832,
      "entwicklungshilfe": 6833,
      "standen": 6834,
      "lehre": 6835,
      "##sverl": 6836,
      "todesfälle": 6837,
      "##tom": 6838,
      "##ragt": 6839,
      "schlicht": 6840,
      "welcher": 6841,
      "gebäu": 6842,
      "klimaschutz": 6843,
      "##preisen": 6844,
      "stärkeren": 6845,
      "##sterreich": 6846,
      "verzöger": 6847,
      "bedeutende": 6848,
      "kosovo": 6849,
      "pe": 6850,
      "##anter": 6851,
      "##verkehr": 6852,
      "##gesund": 6853,
      "mitteln": 6854,
      "differen": 6855,
      "gesundheitswesen": 6856,
      "haushaltsdefizit": 6857,
      "beschränken": 6858,
      "unzufrieden": 6859,
      "auft": 6860,
      "soft": 6861,
      "wurz": 6862,
      "##egten": 6863,
      "anfangen": 6864,
      "bauen": 6865,
      "##zeichnet": 6866,
      "team": 6867,
      "##öser": 6868,
      "aufgaben": 6869,
      "verboten": 6870,
      "einfache": 6871,
      "##zins": 6872,
      "anhand": 6873,
      "aufrechtzu": 6874,
      "normalen": 6875,
      "portug": 6876,
      "österreich": 6877,
      "unvor": 6878,
      "##uchs": 6879,
      "##rennen": 6880,
      "verschaffen": 6881,
      "israelische": 6882,
      "georgien": 6883,
      "beschwer": 6884,
      "geblieben": 6885,
      "vernach": 6886,
      "ernsthafte": 6887,
      "leichter": 6888,
      "epidem": 6889,
      "rekord": 6890,
      "##gegeben": 6891,
      "unterg": 6892,
      "##fläch": 6893,
      "verzerr": 6894,
      "beeinflusst": 6895,
      "erneuerbare": 6896,
      "aufrechtzuerhalten": 6897,
      "dän": 6898,
      "hef": 6899,
      "wid": 6900,
      "##bran": 6901,
      "eingeb": 6902,
      "##rates": 6903,
      "konzip": 6904,
      "beschlossen": 6905,
      "versorgung": 6906,
      "steuerer": 6907,
      "##strukturierung": 6908,
      "austausch": 6909,
      "chron": 6910,
      "lieferketten": 6911,
      "hom": 6912,
      "einstellung": 6913,
      "entscheidungsf": 6914,
      "##fällen": 6915,
      "änderung": 6916,
      "streitkräfte": 6917,
      "angelegenheiten": 6918,
      "bab": 6919,
      "lit": 6920,
      "neigen": 6921,
      "vorw": 6922,
      "##merzen": 6923,
      "abschwung": 6924,
      "indische": 6925,
      "produkt": 6926,
      "ernährung": 6927,
      "natürliche": 6928,
      "polar": 6929,
      "unabhängigen": 6930,
      "jemanden": 6931,
      "wiederherstellung": 6932,
      "ursache": 6933,
      "repräsentanten": 6934,
      "his": 6935,
      "unweiger": 6936,
      "aufs": 6937,
      "progressi": 6938,
      "liefern": 6939,
      "beton": 6940,
      "leidet": 6941,
      "university": 6942,
      "reserv": 6943,
      "kontrollieren": 6944,
      "philos": 6945,
      "gouverne": 6946,
      "angelegenheit": 6947,
      "angekünd": 6948,
      "unruhen": 6949,
      "ba": 6950,
      "##200": 6951,
      "ließen": 6952,
      "gib": 6953,
      "dorthin": 6954,
      "co2emissionen": 6955,
      "skand": 6956,
      "##mächte": 6957,
      "sarkozy": 6958,
      "rum": 6959,
      "wand": 6960,
      "##antwort": 6961,
      "##bezogen": 6962,
      "bekom": 6963,
      "subst": 6964,
      "##beschrän": 6965,
      "demonstranten": 6966,
      "eindämm": 6967,
      "samuel": 6968,
      "26": 6969,
      "##bem": 6970,
      "##ura": 6971,
      "gelöst": 6972,
      "ungen": 6973,
      "gebiete": 6974,
      "stil": 6975,
      "institute": 6976,
      "getötet": 6977,
      "hor": 6978,
      "jordan": 6979,
      "##außen": 6980,
      "abschw": 6981,
      "insel": 6982,
      "##amerikanische": 6983,
      "populisten": 6984,
      "übertrieben": 6985,
      "drastisch": 6986,
      "infektion": 6987,
      "##aftet": 6988,
      "##örungen": 6989,
      "sicherstellen": 6990,
      "##atze": 6991,
      "##dienste": 6992,
      "tendenziell": 6993,
      "kil": 6994,
      "mission": 6995,
      "##fangen": 6996,
      "##wenden": 6997,
      "##ära": 6998,
      "##tiker": 6999,
      "stellung": 7000,
      "erreichte": 7001,
      "##klärung": 7002,
      "verkauft": 7003,
      "##behalten": 7004,
      "muslimischen": 7005,
      "künftige": 7006,
      "##irm": 7007,
      "aufnahme": 7008,
      "überlassen": 7009,
      "vorder": 7010,
      "##ärkt": 7011,
      "multilaterale": 7012,
      "erkenntnis": 7013,
      "schwarz": 7014,
      "vic": 7015,
      "##zimmer": 7016,
      "##hren": 7017,
      "aufbauen": 7018,
      "abschluss": 7019,
      "gewar": 7020,
      "gelangen": 7021,
      "geholfen": 7022,
      "quo": 7023,
      "traditionell": 7024,
      "populismus": 7025,
      "jeg": 7026,
      "samm": 7027,
      "tour": 7028,
      "wol": 7029,
      "##ktiver": 7030,
      "##forschung": 7031,
      "##konferenz": 7032,
      "resul": 7033,
      "##sprogramme": 7034,
      "erkenn": 7035,
      "ungleichgewichte": 7036,
      "##ipher": 7037,
      "regelmäßig": 7038,
      "impul": 7039,
      "##arat": 7040,
      "aufzunehmen": 7041,
      "management": 7042,
      "arbeitgeber": 7043,
      "##ordnete": 7044,
      "handelsk": 7045,
      "widerspruch": 7046,
      "draußen": 7047,
      "harry": 7048,
      "untersuchungen": 7049,
      "venezuela": 7050,
      "45": 7051,
      "tob": 7052,
      "##pe": 7053,
      "spaß": 7054,
      "##zentration": 7055,
      "##ringt": 7056,
      "gabriel": 7057,
      "einwohner": 7058,
      "tiefe": 7059,
      "oscar": 7060,
      "kä": 7061,
      "##bn": 7062,
      "##ettet": 7063,
      "##ford": 7064,
      "solle": 7065,
      "##stands": 7066,
      "##agent": 7067,
      "hochrang": 7068,
      "niederlage": 7069,
      "worte": 7070,
      "sahen": 7071,
      "konzerne": 7072,
      "ausgebil": 7073,
      "pes": 7074,
      "tab": 7075,
      "zog": 7076,
      "##andt": 7077,
      "sieh": 7078,
      "finanzst": 7079,
      "schnelle": 7080,
      "##splan": 7081,
      "schlussfolger": 7082,
      "verschuldung": 7083,
      "vergeben": 7084,
      "gemessen": 7085,
      "immerhin": 7086,
      "##politiker": 7087,
      "##altungen": 7088,
      "##fahrt": 7089,
      "jüngst": 7090,
      "1999": 7091,
      "liberalisierung": 7092,
      "verschwinden": 7093,
      "reduziert": 7094,
      "gelassen": 7095,
      "geringen": 7096,
      "##konflik": 7097,
      "##overn": 7098,
      "beruf": 7099,
      "##werfen": 7100,
      "##anke": 7101,
      "folgenden": 7102,
      "töd": 7103,
      "hochentwickelten": 7104,
      "pre": 7105,
      "##hod": 7106,
      "##äle": 7107,
      "aufstreben": 7108,
      "anlage": 7109,
      "berichten": 7110,
      "fördert": 7111,
      "armuts": 7112,
      "oberste": 7113,
      "persönliche": 7114,
      "diktatur": 7115,
      "renditen": 7116,
      "hilfreich": 7117,
      "##burg": 7118,
      "autonomie": 7119,
      "dringen": 7120,
      "##ande": 7121,
      "##eut": 7122,
      "finanzieller": 7123,
      "weitem": 7124,
      "grundlagen": 7125,
      "iranische": 7126,
      "grav": 7127,
      "fernsehen": 7128,
      "verabschiedet": 7129,
      "respek": 7130,
      "##rar": 7131,
      "machten": 7132,
      "schwerw": 7133,
      "nächstes": 7134,
      "reagiert": 7135,
      "ministerpräsidenten": 7136,
      "wald": 7137,
      "schen": 7138,
      "sied": 7139,
      "überschw": 7140,
      "##versammlung": 7141,
      "begannen": 7142,
      "bewahren": 7143,
      "effekt": 7144,
      "erdo": 7145,
      "doppelt": 7146,
      "quartal": 7147,
      "28": 7148,
      "griff": 7149,
      "##run": 7150,
      "amb": 7151,
      "offenkund": 7152,
      "weitreich": 7153,
      "##marktes": 7154,
      "##hafter": 7155,
      "mittag": 7156,
      "##osev": 7157,
      "impfstoffe": 7158,
      "nötigen": 7159,
      "erlaubt": 7160,
      "osteuropa": 7161,
      "mah": 7162,
      "rap": 7163,
      "##vern": 7164,
      "##indet": 7165,
      "##mension": 7166,
      "warn": 7167,
      "weltbevölkerung": 7168,
      "franzosen": 7169,
      "gesellschaftlichen": 7170,
      "verbesserungen": 7171,
      "agieren": 7172,
      "bewusstsein": 7173,
      "religiöse": 7174,
      "gespielt": 7175,
      "gerichtshof": 7176,
      "heid": 7177,
      "les": 7178,
      "rang": 7179,
      "tor": 7180,
      "##endio": 7181,
      "haushaltsdefizite": 7182,
      "syrischen": 7183,
      "akzept": 7184,
      "entsprechende": 7185,
      "expansion": 7186,
      "##endiox": 7187,
      "bur": 7188,
      "zieht": 7189,
      "##äte": 7190,
      "ineffizien": 7191,
      "##ame": 7192,
      "##reiheit": 7193,
      "##risiko": 7194,
      "letztes": 7195,
      "beispiele": 7196,
      "transform": 7197,
      "längerfrist": 7198,
      "goog": 7199,
      "welches": 7200,
      "ernährungs": 7201,
      "verläng": 7202,
      "zusammenarbeiten": 7203,
      "##issenschaften": 7204,
      "krebs": 7205,
      "##fizierte": 7206,
      "einfacher": 7207,
      "ansteigen": 7208,
      "konflikten": 7209,
      "aspekte": 7210,
      "kra": 7211,
      "tau": 7212,
      "denjenigen": 7213,
      "mache": 7214,
      "##leitet": 7215,
      "wiederbel": 7216,
      "legte": 7217,
      "abschreck": 7218,
      "produzieren": 7219,
      "1930er": 7220,
      "online": 7221,
      "dist": 7222,
      "##wo": 7223,
      "dieselbe": 7224,
      "akadem": 7225,
      "preisen": 7226,
      "bened": 7227,
      "perf": 7228,
      "beseitigen": 7229,
      "patri": 7230,
      "anscheinend": 7231,
      "kohlendiox": 7232,
      "pragma": 7233,
      "sech": 7234,
      "##läng": 7235,
      "aufgew": 7236,
      "gebil": 7237,
      "herauszu": 7238,
      "hättest": 7239,
      "falschen": 7240,
      "dienstleistungs": 7241,
      "danke": 7242,
      "mikro": 7243,
      "tier": 7244,
      "##platz": 7245,
      "folgt": 7246,
      "milliarde": 7247,
      "medizinische": 7248,
      "tritt": 7249,
      "wil": 7250,
      "##ungleich": 7251,
      "wirtschaftskrise": 7252,
      "versprach": 7253,
      "frust": 7254,
      "yen": 7255,
      "##laufen": 7256,
      "##ymp": 7257,
      "##atastrop": 7258,
      "diesel": 7259,
      "verletzt": 7260,
      "spiele": 7261,
      "ökosystem": 7262,
      "isolation": 7263,
      "##notenbank": 7264,
      "300": 7265,
      "##tran": 7266,
      "##mechanismen": 7267,
      "schlä": 7268,
      "floren": 7269,
      "klaren": 7270,
      "##ablish": 7271,
      "##okratischen": 7272,
      "kolumb": 7273,
      "philipp": 7274,
      "##cent": 7275,
      "##hmen": 7276,
      "maßnahme": 7277,
      "höhepunkt": 7278,
      "##zifischen": 7279,
      "anschließen": 7280,
      "intensiv": 7281,
      "selt": 7282,
      "##fuhr": 7283,
      "##elung": 7284,
      "stück": 7285,
      "klasse": 7286,
      "gewicht": 7287,
      "besorgt": 7288,
      "gefährden": 7289,
      "voraussetzung": 7290,
      "simon": 7291,
      "unterdrückung": 7292,
      "zölle": 7293,
      "sämtliche": 7294,
      "wall": 7295,
      "##ieß": 7296,
      "wenden": 7297,
      "lea": 7298,
      "entlang": 7299,
      "zusammenzu": 7300,
      "überwäl": 7301,
      "universe": 7302,
      "debatten": 7303,
      "jobs": 7304,
      "turb": 7305,
      "ablehnung": 7306,
      "wertsch": 7307,
      "usnotenbank": 7308,
      "finanzmärkten": 7309,
      "##stellten": 7310,
      "##altungs": 7311,
      "gewalttä": 7312,
      "##sektors": 7313,
      "##sprüche": 7314,
      "tragö": 7315,
      "sowjetischen": 7316,
      "anerkannt": 7317,
      "mang": 7318,
      "liebl": 7319,
      "offiziell": 7320,
      "erzählt": 7321,
      "gegenseitig": 7322,
      "##anen": 7323,
      "glas": 7324,
      "##izen": 7325,
      "verlauf": 7326,
      "eigenkapital": 7327,
      "griechenlands": 7328,
      "befürcht": 7329,
      "entsprechenden": 7330,
      "trinken": 7331,
      "hass": 7332,
      "##napp": 7333,
      "version": 7334,
      "anger": 7335,
      "##rückt": 7336,
      "##loss": 7337,
      "scheinbar": 7338,
      "##ählern": 7339,
      "##kongress": 7340,
      "##arbeitung": 7341,
      "##spolitischen": 7342,
      "angela": 7343,
      "mächte": 7344,
      "flüchtlingen": 7345,
      "befürworter": 7346,
      "rauchen": 7347,
      "##nei": 7348,
      "##üss": 7349,
      "##konvention": 7350,
      "erforderlichen": 7351,
      "bürgerkrieg": 7352,
      "gefährliche": 7353,
      "peripher": 7354,
      "durchschnittliche": 7355,
      "##weisungen": 7356,
      "wirksame": 7357,
      "##apazität": 7358,
      "herbeizuführen": 7359,
      "unverzichtbar": 7360,
      "##schten": 7361,
      "erfolgen": 7362,
      "ums": 7363,
      "sport": 7364,
      "bestra": 7365,
      "weist": 7366,
      "erstmals": 7367,
      "paula": 7368,
      "zeu": 7369,
      "##ügt": 7370,
      "umst": 7371,
      "geringe": 7372,
      "komme": 7373,
      "atmo": 7374,
      "überzeugung": 7375,
      "massiv": 7376,
      "absolu": 7377,
      "erkenntnisse": 7378,
      "unklar": 7379,
      "victor": 7380,
      "bern": 7381,
      "vet": 7382,
      "who": 7383,
      "##vertra": 7384,
      "##rankungen": 7385,
      "voller": 7386,
      "katrin": 7387,
      "##okratische": 7388,
      "anlass": 7389,
      "blair": 7390,
      "ör": 7391,
      "##pfl": 7392,
      "##ida": 7393,
      "grundsätz": 7394,
      "milo": 7395,
      "verwandeln": 7396,
      "akzeptiert": 7397,
      "bestandteil": 7398,
      "bilateralen": 7399,
      "##vermögen": 7400,
      "eindämmung": 7401,
      "jer": 7402,
      "laden": 7403,
      "tok": 7404,
      "winter": 7405,
      "##lösen": 7406,
      "fürchten": 7407,
      "##etrieben": 7408,
      "finanziell": 7409,
      "würdest": 7410,
      "1997": 7411,
      "deiner": 7412,
      "ehemaliger": 7413,
      "robert": 7414,
      "institutionellen": 7415,
      "derzeitige": 7416,
      "mult": 7417,
      "wirken": 7418,
      "deutliche": 7419,
      "##mad": 7420,
      "betont": 7421,
      "nuklearen": 7422,
      "emilia": 7423,
      "##kontrollen": 7424,
      "fakten": 7425,
      "vorherrschen": 7426,
      "gäbe": 7427,
      "##ary": 7428,
      "##alem": 7429,
      "großar": 7430,
      "##mitten": 7431,
      "elis": 7432,
      "quellen": 7433,
      "##udan": 7434,
      "kandidat": 7435,
      "rechtfertigen": 7436,
      "hisb": 7437,
      "hut": 7438,
      "mechanismen": 7439,
      "nerv": 7440,
      "##vort": 7441,
      "##za": 7442,
      "##ierender": 7443,
      "vielfach": 7444,
      "gelesen": 7445,
      "sichere": 7446,
      "notwendige": 7447,
      "rettungs": 7448,
      "verpflichten": 7449,
      "fahrrad": 7450,
      "robin": 7451,
      "assad": 7452,
      "##olidierung": 7453,
      "ärzte": 7454,
      "börsen": 7455,
      "inländ": 7456,
      "aufgeben": 7457,
      "entlassen": 7458,
      "##low": 7459,
      "bewegungen": 7460,
      "geopolitischen": 7461,
      "geschlecht": 7462,
      "vorübergehen": 7463,
      "bekenntnis": 7464,
      "##revolution": 7465,
      "heidi": 7466,
      "benedic": 7467,
      "con": 7468,
      "schäden": 7469,
      "übernommen": 7470,
      "italiens": 7471,
      "reiche": 7472,
      "höchste": 7473,
      "julia": 7474,
      "stoppen": 7475,
      "##tü": 7476,
      "##ors": 7477,
      "klassen": 7478,
      "marie": 7479,
      "erhielt": 7480,
      "milena": 7481,
      "luis": 7482,
      "jemen": 7483,
      "italienischen": 7484,
      "fernseh": 7485,
      "##gesellschaften": 7486,
      "##ächtnis": 7487,
      "andernfalls": 7488,
      "elisabeth": 7489,
      "hört": 7490,
      "ten": 7491,
      "##rend": 7492,
      "strei": 7493,
      "##ize": 7494,
      "staatlich": 7495,
      "demokratischer": 7496,
      "reisen": 7497,
      "lenn": 7498,
      "##fähig": 7499,
      "kontext": 7500,
      "wach": 7501,
      "traur": 7502,
      "##gewiesen": 7503,
      "##eigung": 7504,
      "männern": 7505,
      "unweigerlich": 7506,
      "fat": 7507,
      "vin": 7508,
      "yara": 7509,
      "einm": 7510,
      "schrump": 7511,
      "##rennung": 7512,
      "behandeln": 7513,
      "breit": 7514,
      "hohem": 7515,
      "moralischen": 7516,
      "hindernisse": 7517,
      "kirche": 7518,
      "bangla": 7519,
      "hisbollah": 7520,
      "##schuld": 7521,
      "gesundheitsversorgung": 7522,
      "terroran": 7523,
      "anna": 7524,
      "seitens": 7525,
      "julian": 7526,
      "anfällig": 7527,
      "gisela": 7528,
      "entscheidungsfindung": 7529,
      "##genden": 7530,
      "##auen": 7531,
      "unrecht": 7532,
      "referendum": 7533,
      "umsetzen": 7534,
      "vielver": 7535,
      "hinein": 7536,
      "##okoll": 7537,
      "welchem": 7538,
      "katze": 7539,
      "##gin": 7540,
      "##sprung": 7541,
      "leo": 7542,
      "kontakt": 7543,
      "##kraftw": 7544,
      "erstaun": 7545,
      "kulturellen": 7546,
      "##öhnen": 7547,
      "sprachen": 7548,
      "ella": 7549,
      "konfrontation": 7550,
      "##gesundheits": 7551,
      "leiten": 7552,
      "##gl": 7553,
      "##stab": 7554,
      "vera": 7555,
      "erik": 7556,
      "bewirken": 7557,
      "sturz": 7558,
      "begünst": 7559,
      "direkten": 7560,
      "##besitz": 7561,
      "##sfäh": 7562,
      "vermögens": 7563,
      "populistische": 7564,
      "diplomatischen": 7565,
      "diplomatische": 7566,
      "emily": 7567,
      "medikamenten": 7568,
      "fleisch": 7569,
      "lasst": 7570,
      "konkre": 7571,
      "##hnung": 7572,
      "##reicht": 7573,
      "traf": 7574,
      "zugute": 7575,
      "erdgas": 7576,
      "marius": 7577,
      "fab": 7578,
      "föder": 7579,
      "lia": 7580,
      "paten": 7581,
      "##par": 7582,
      "unaus": 7583,
      "abwertung": 7584,
      "gefördert": 7585,
      "deal": 7586,
      "ausgeglichen": 7587,
      "##hoben": 7588,
      "türkischen": 7589,
      "wechselkurse": 7590,
      "beliebt": 7591,
      "gaza": 7592,
      "durchzusetzen": 7593,
      "mauer": 7594,
      "sc": 7595,
      "derjenigen": 7596,
      "werfen": 7597,
      "meinte": 7598,
      "kulturelle": 7599,
      "pflicht": 7600,
      "##basis": 7601,
      "erweiterung": 7602,
      "felix": 7603,
      "ängste": 7604,
      "ei": 7605,
      "nobel": 7606,
      "##städ": 7607,
      "annehmen": 7608,
      "##angeb": 7609,
      "alleine": 7610,
      "könnt": 7611,
      "##röme": 7612,
      "investment": 7613,
      "klimak": 7614,
      "##qualität": 7615,
      "verhandlungs": 7616,
      "##staur": 7617,
      "hotel": 7618,
      "##avirus": 7619,
      "mandat": 7620,
      "geschäfte": 7621,
      "entschuldig": 7622,
      "##ebung": 7623,
      "##linie": 7624,
      "##tismus": 7625,
      "ursprünglich": 7626,
      "protektionismus": 7627,
      "wut": 7628,
      "##ete": 7629,
      "##ession": 7630,
      "##ammt": 7631,
      "##ilem": 7632,
      "##anger": 7633,
      "##ögern": 7634,
      "geldpolitischen": 7635,
      "ausländischer": 7636,
      "street": 7637,
      "treibhausgas": 7638,
      "niklas": 7639,
      "aid": 7640,
      "kerst": 7641,
      "mats": 7642,
      "##sm": 7643,
      "##berg": 7644,
      "##ffer": 7645,
      "einfachen": 7646,
      "schwierige": 7647,
      "gesellschaftliche": 7648,
      "abgeschlossen": 7649,
      "welthandelsorganisation": 7650,
      "##ift": 7651,
      "##gegangen": 7652,
      "##ire": 7653,
      "umso": 7654,
      "##stecken": 7655,
      "##allel": 7656,
      "schlaf": 7657,
      "liam": 7658,
      "##antal": 7659,
      "lina": 7660,
      "1980": 7661,
      "wiederherzustellen": 7662,
      "griechische": 7663,
      "runde": 7664,
      "steckt": 7665,
      "##osn": 7666,
      "weib": 7667,
      "schlug": 7668,
      "##echnet": 7669,
      "strukturen": 7670,
      "konservative": 7671,
      "blieben": 7672,
      "tschech": 7673,
      "lebensstandard": 7674,
      "ras": 7675,
      "wählern": 7676,
      "##lauf": 7677,
      "zwöl": 7678,
      "gefragt": 7679,
      "##ischerweise": 7680,
      "parallel": 7681,
      "positionen": 7682,
      "laura": 7683,
      "wettbewerbsfäh": 7684,
      "feindsel": 7685,
      "gewinnt": 7686,
      "beantworten": 7687,
      "regulierungsbehörden": 7688,
      "cop": 7689,
      "##äck": 7690,
      "vorstellen": 7691,
      "##ummer": 7692,
      "##stete": 7693,
      "klass": 7694,
      "##sstra": 7695,
      "folgte": 7696,
      "zivilis": 7697,
      "multi": 7698,
      "panik": 7699,
      "gewerkschaften": 7700,
      "greifen": 7701,
      "netan": 7702,
      "sorgt": 7703,
      "##wa": 7704,
      "##zähl": 7705,
      "##isst": 7706,
      "##bereit": 7707,
      "beider": 7708,
      "##endes": 7709,
      "##egte": 7710,
      "miriam": 7711,
      "isab": 7712,
      "elena": 7713,
      "weiße": 7714,
      "konsumenten": 7715,
      "unterstützten": 7716,
      "steuerzahler": 7717,
      "baum": 7718,
      "sehe": 7719,
      "zuverl": 7720,
      "##aufnahme": 7721,
      "modelle": 7722,
      "schwierigen": 7723,
      "carla": 7724,
      "maximilian": 7725,
      "voranzutreiben": 7726,
      "##ügend": 7727,
      "schrit": 7728,
      "ausfallen": 7729,
      "##twei": 7730,
      "##ktrin": 7731,
      "##verhandlungen": 7732,
      "##hew": 7733,
      "##spieler": 7734,
      "##remium": 7735,
      "hochwer": 7736,
      "##iefst": 7737,
      "konflikts": 7738,
      "bushs": 7739,
      "hauptstadt": 7740,
      "parlamentar": 7741,
      "prüfung": 7742,
      "##anzlerin": 7743,
      "##jah": 7744,
      "verbot": 7745,
      "unger": 7746,
      "orbn": 7747,
      "elen": 7748,
      "##ics": 7749,
      "##spolitische": 7750,
      "##banker": 7751,
      "positiven": 7752,
      "öffnung": 7753,
      "minderheit": 7754,
      "erzeugen": 7755,
      "lennard": 7756,
      "wem": 7757,
      "mengen": 7758,
      "##geschichte": 7759,
      "privater": 7760,
      "niemanden": 7761,
      "firma": 7762,
      "führungsrolle": 7763,
      "wohnt": 7764,
      "##boom": 7765,
      "stimmung": 7766,
      "benedicta": 7767,
      "loy": 7768,
      "matil": 7769,
      "##konz": 7770,
      "urteil": 7771,
      "immun": 7772,
      "grenzübersch": 7773,
      "##karte": 7774,
      "florence": 7775,
      "iris": 7776,
      "oze": 7777,
      "##stein": 7778,
      "##steuern": 7779,
      "restaur": 7780,
      "versteht": 7781,
      "##skar": 7782,
      "hit": 7783,
      "trat": 7784,
      "##tu": 7785,
      "##dische": 7786,
      "##star": 7787,
      "einsei": 7788,
      "sod": 7789,
      "gelungen": 7790,
      "herzustellen": 7791,
      "zurückkehren": 7792,
      "austritt": 7793,
      "vereinbarungen": 7794,
      "dokumen": 7795,
      "tw": 7796,
      "##sa": 7797,
      "##jahren": 7798,
      "##öpfen": 7799,
      "##aly": 7800,
      "##bericht": 7801,
      "vorgänger": 7802,
      "##ungsweise": 7803,
      "gesenkt": 7804,
      "berat": 7805,
      "langer": 7806,
      "tunes": 7807,
      "##sfähigkeit": 7808,
      "wirtschaftsleistung": 7809,
      "##jenige": 7810,
      "unterschiedlich": 7811,
      "vertrauens": 7812,
      "transfer": 7813,
      "lager": 7814,
      "adri": 7815,
      "kopenhagen": 7816,
      "vincent": 7817,
      "dumm": 7818,
      "govern": 7819,
      "lern": 7820,
      "##aill": 7821,
      "##nation": 7822,
      "##bahn": 7823,
      "##sthe": 7824,
      "berichte": 7825,
      "verlor": 7826,
      "deuten": 7827,
      "einzuführen": 7828,
      "wirtschaftswachstums": 7829,
      "##abkommens": 7830,
      "übrig": 7831,
      "oliver": 7832,
      "##stoß": 7833,
      "johanna": 7834,
      "wto": 7835,
      "##tlicher": 7836,
      "##eile": 7837,
      "könntest": 7838,
      "gestärkt": 7839,
      "##vez": 7840,
      "islamische": 7841,
      "theo": 7842,
      "fossile": 7843,
      "elli": 7844,
      "matth": 7845,
      "absolut": 7846,
      "lügen": 7847,
      "ernen": 7848,
      "##unkten": 7849,
      "##ima": 7850,
      "noah": 7851,
      "jana": 7852,
      "fiskalpolitik": 7853,
      "belastung": 7854,
      "allmählich": 7855,
      "##beschränkungen": 7856,
      "seltsam": 7857,
      "kerstin": 7858,
      "fließen": 7859,
      "unfall": 7860,
      "start": 7861,
      "globales": 7862,
      "verträge": 7863,
      "schwerer": 7864,
      "billiger": 7865,
      "übergangs": 7866,
      "angemessene": 7867,
      "##kredi": 7868,
      "mühe": 7869,
      "geschlechter": 7870,
      "modernisierung": 7871,
      "repräsentantenhaus": 7872,
      "victoria": 7873,
      "grenzüberschreiten": 7874,
      "##del": 7875,
      "##inform": 7876,
      "##ago": 7877,
      "##ohnen": 7878,
      "##endungen": 7879,
      "angeg": 7880,
      "##blase": 7881,
      "isst": 7882,
      "steigender": 7883,
      "drag": 7884,
      "bezeichnete": 7885,
      "##institutionen": 7886,
      "aspekt": 7887,
      "solches": 7888,
      "##sprache": 7889,
      "diversi": 7890,
      "franziska": 7891,
      "atmosphäre": 7892,
      "camer": 7893,
      "##heil": 7894,
      "##chtern": 7895,
      "erika": 7896,
      "##gestütz": 7897,
      "##tscheid": 7898,
      "usb": 7899,
      "##werten": 7900,
      "genehm": 7901,
      "##gesprä": 7902,
      "erdbe": 7903,
      "reichtum": 7904,
      "erlauben": 7905,
      "clara": 7906,
      "umgekehrt": 7907,
      "##gemeinschaft": 7908,
      "bor": 7909,
      "himm": 7910,
      "mika": 7911,
      "mechanismus": 7912,
      "##ömm": 7913,
      "##eres": 7914,
      "einheim": 7915,
      "##ileg": 7916,
      "genannt": 7917,
      "teilnahme": 7918,
      "unerwar": 7919,
      "corinn": 7920,
      "meinungsum": 7921,
      "breite": 7922,
      "resultieren": 7923,
      "isabella": 7924,
      "eisen": 7925,
      "haft": 7926,
      "##lag": 7927,
      "##ichert": 7928,
      "##anstieg": 7929,
      "##rativ": 7930,
      "chantal": 7931,
      "wolle": 7932,
      "militärischer": 7933,
      "kathol": 7934,
      "##ipel": 7935,
      "endgül": 7936,
      "bundesstaaten": 7937,
      "übereinkunft": 7938,
      "beunruhigen": 7939,
      "umstritten": 7940,
      "matilda": 7941,
      "fo": 7942,
      "wär": 7943,
      "##lus": 7944,
      "##chin": 7945,
      "geldpolitische": 7946,
      "schlafen": 7947,
      "##staats": 7948,
      "luca": 7949,
      "asyl": 7950,
      "sozialdem": 7951,
      "überschuss": 7952,
      "ansätze": 7953,
      "älter": 7954,
      "florian": 7955,
      "schuhe": 7956,
      "schrittwei": 7957,
      "verleihen": 7958,
      "##decken": 7959,
      "auftrag": 7960,
      "##reitet": 7961,
      "arch": 7962,
      "verstehe": 7963,
      "volati": 7964,
      "wohler": 7965,
      "wandels": 7966,
      "bilaterale": 7967,
      "zutiefst": 7968,
      "unzureich": 7969,
      "astrid": 7970,
      "matthias": 7971,
      "lara": 7972,
      "livia": 7973,
      "vierten": 7974,
      "##reiter": 7975,
      "##arten": 7976,
      "bewertung": 7977,
      "stal": 7978,
      "sicheren": 7979,
      "##räbt": 7980,
      "montag": 7981,
      "radio": 7982,
      "erinnerung": 7983,
      "unterstützte": 7984,
      "aussage": 7985,
      "aufgebaut": 7986,
      "pflanzen": 7987,
      "kab": 7988,
      "##änen": 7989,
      "##beu": 7990,
      "gewachsen": 7991,
      "verläss": 7992,
      "##älte": 7993,
      "brauchst": 7994,
      "senat": 7995,
      "##andidaten": 7996,
      "definition": 7997,
      "papier": 7998,
      "überwältigen": 7999,
      "hitler": 8000,
      "gret": 8001,
      "##zwei": 8002,
      "##olven": 8003,
      "##kenn": 8004,
      "späten": 8005,
      "gerettet": 8006,
      "beschrieben": 8007,
      "machthaber": 8008,
      "zahlungen": 8009,
      "steuereinnahmen": 8010,
      "erlangen": 8011,
      "annab": 8012,
      "##jahres": 8013,
      "radikale": 8014,
      "kontinents": 8015,
      "vorbereitet": 8016,
      "brach": 8017,
      "hard": 8018,
      "##sätze": 8019,
      "##hand": 8020,
      "##usten": 8021,
      "##schad": 8022,
      "schne": 8023,
      "warst": 8024,
      "durchsetzung": 8025,
      "kristin": 8026,
      "rasche": 8027,
      "annika": 8028,
      "##orientierte": 8029,
      "definiert": 8030,
      "schocks": 8031,
      "sabrin": 8032,
      "gebäude": 8033,
      "google": 8034,
      "fe": 8035,
      "##uf": 8036,
      "##arme": 8037,
      "##ise": 8038,
      "alarm": 8039,
      "berater": 8040,
      "stecken": 8041,
      "weltgesundheits": 8042,
      "meines": 8043,
      "befug": 8044,
      "anzukurbeln": 8045,
      "täglich": 8046,
      "leonie": 8047,
      "behindert": 8048,
      "matthew": 8049,
      "##runken": 8050,
      "sodass": 8051,
      "kh": 8052,
      "##günst": 8053,
      "##anteil": 8054,
      "##ckte": 8055,
      "regina": 8056,
      "##rinzip": 8057,
      "##quoten": 8058,
      "südkore": 8059,
      "beitritt": 8060,
      "abhängen": 8061,
      "besitzt": 8062,
      "eleni": 8063,
      "jonas": 8064,
      "##bio": 8065,
      "beendet": 8066,
      "##reund": 8067,
      "##abw": 8068,
      "entschuld": 8069,
      "stella": 8070,
      "festzu": 8071,
      "mächtigen": 8072,
      "entschlossenheit": 8073,
      "beträchtliche": 8074,
      "daniela": 8075,
      "bestrebungen": 8076,
      "##cy": 8077,
      "##elyn": 8078,
      "##räumen": 8079,
      "besitzen": 8080,
      "##regierungen": 8081,
      "halte": 8082,
      "##strationen": 8083,
      "aktivisten": 8084,
      "harten": 8085,
      "ökonomischen": 8086,
      "riesigen": 8087,
      "multination": 8088,
      "zwölf": 8089,
      "fährt": 8090,
      "gaben": 8091,
      "hig": 8092,
      "ki": 8093,
      "##cs": 8094,
      "begeist": 8095,
      "##klen": 8096,
      "roman": 8097,
      "beseitigung": 8098,
      "antonia": 8099,
      "abgelehnt": 8100,
      "adrian": 8101,
      "corinna": 8102,
      "brem": 8103,
      "künd": 8104,
      "aufkommen": 8105,
      "geldes": 8106,
      "nahmen": 8107,
      "regierungsführung": 8108,
      "evelyn": 8109,
      "leonard": 8110,
      "umstände": 8111,
      "außergewöhn": 8112,
      "192": 8113,
      "betreiben": 8114,
      "##zahlt": 8115,
      "##ancen": 8116,
      "palästinensische": 8117,
      "anerkennen": 8118,
      "verfügbar": 8119,
      "einschränkungen": 8120,
      "rendite": 8121,
      "spektrum": 8122,
      "hielten": 8123,
      "passen": 8124,
      "##na": 8125,
      "##kräften": 8126,
      "klin": 8127,
      "indik": 8128,
      "veranker": 8129,
      "bevorzu": 8130,
      "##beschäftigung": 8131,
      "bekommt": 8132,
      "tobias": 8133,
      "oskar": 8134,
      "sw": 8135,
      "##minen": 8136,
      "unnö": 8137,
      "##weitet": 8138,
      "stets": 8139,
      "besteuerung": 8140,
      "genügend": 8141,
      "##eku": 8142,
      "bekannte": 8143,
      "prozentpunkte": 8144,
      "zugriff": 8145,
      "historisch": 8146,
      "sichtweise": 8147,
      "krediten": 8148,
      "tiefen": 8149,
      "quantitative": 8150,
      "präsidentschaftswahl": 8151,
      "geburtstag": 8152,
      "##ichterstattung": 8153,
      "greta": 8154,
      "nic": 8155,
      "##riert": 8156,
      "##för": 8157,
      "verbleiben": 8158,
      "beweisen": 8159,
      "unber": 8160,
      "aufer": 8161,
      "##annter": 8162,
      "##verk": 8163,
      "usaußen": 8164,
      "angaben": 8165,
      "##aks": 8166,
      "##ücken": 8167,
      "mira": 8168,
      "republikanische": 8169,
      "extremisten": 8170,
      "bedingt": 8171,
      "agrar": 8172,
      "##reibungen": 8173,
      "gesamtnachfrage": 8174,
      "brutto": 8175,
      "##schrift": 8176,
      "händen": 8177,
      "untergräbt": 8178,
      "##branche": 8179,
      "ball": 8180,
      "##lehen": 8181,
      "##bon": 8182,
      "teilnehmer": 8183,
      "gemeinden": 8184,
      "autoritären": 8185,
      "olymp": 8186,
      "geopolitische": 8187,
      "establish": 8188,
      "wohlergehen": 8189,
      "act": 8190,
      "kas": 8191,
      "##kapit": 8192,
      "geäußer": 8193,
      "##tschaf": 8194,
      "vorbild": 8195,
      "unterm": 8196,
      "abgew": 8197,
      "genießen": 8198,
      "##aku": 8199,
      "##masch": 8200,
      "wenigsten": 8201,
      "gefährlichen": 8202,
      "olivia": 8203,
      "erleichtern": 8204,
      "ava": 8205,
      "jinp": 8206,
      "tragödie": 8207,
      "annabelle": 8208,
      "##gien": 8209,
      "##sper": 8210,
      "##tegien": 8211,
      "milch": 8212,
      "stabilisierung": 8213,
      "bilanzen": 8214,
      "flexibilität": 8215,
      "##sem": 8216,
      "##inflation": 8217,
      "eing": 8218,
      "verteilt": 8219,
      "##beam": 8220,
      "##änglich": 8221,
      "##mittag": 8222,
      "aktionen": 8223,
      "heißen": 8224,
      "dienst": 8225,
      "industriellen": 8226,
      "sonja": 8227,
      "erfolgreichen": 8228,
      "ausschuss": 8229,
      "irgendwie": 8230,
      "ablehnen": 8231,
      "erwerbs": 8232,
      "unvermeidlich": 8233,
      "##riterien": 8234,
      "angekündigt": 8235,
      "##hodox": 8236,
      "sabrina": 8237,
      "mord": 8238,
      "##ilater": 8239,
      "überaus": 8240,
      "##ikanischer": 8241,
      "##gesp": 8242,
      "mirella": 8243,
      "irre": 8244,
      "dient": 8245,
      "moritz": 8246,
      "beteiligten": 8247,
      "freundin": 8248,
      "sparmaßnahmen": 8249,
      "##orientierten": 8250,
      "feinde": 8251,
      "gebeten": 8252,
      "paradox": 8253,
      "##had": 8254,
      "##ege": 8255,
      "##desch": 8256,
      "unm": 8257,
      "erhält": 8258,
      "starb": 8259,
      "monet": 8260,
      "##versicher": 8261,
      "##amerika": 8262,
      "einzusch": 8263,
      "profit": 8264,
      "luke": 8265,
      "aufzugeben": 8266,
      "vernetz": 8267,
      "durchschnitts": 8268,
      "verursachten": 8269,
      "##beteil": 8270,
      "veröffentlichte": 8271,
      "säu": 8272,
      "##kürz": 8273,
      "eingehen": 8274,
      "##irmen": 8275,
      "##aufgaben": 8276,
      "verliert": 8277,
      "chinesischer": 8278,
      "##orgungs": 8279,
      "spielte": 8280,
      "offenheit": 8281,
      "##index": 8282,
      "wachstumsrate": 8283,
      "zivilisten": 8284,
      "##gesetzte": 8285,
      "fielen": 8286,
      "diskriminierung": 8287,
      "vernachläss": 8288,
      "konkrete": 8289,
      "##ütern": 8290,
      "##ahnen": 8291,
      "##reift": 8292,
      "##standards": 8293,
      "gestorben": 8294,
      "benutzen": 8295,
      "1991": 8296,
      "starkes": 8297,
      "radikalen": 8298,
      "amelie": 8299,
      "wertschöpf": 8300,
      "treibhausgasemissionen": 8301,
      "zulassen": 8302,
      "verena": 8303,
      "sprich": 8304,
      "entdeck": 8305,
      "gleichberech": 8306,
      "bekam": 8307,
      "bitten": 8308,
      "extremen": 8309,
      "junger": 8310,
      "empfehl": 8311,
      "anzunehmen": 8312,
      "netanjah": 8313,
      "geein": 8314,
      "abe": 8315,
      "weltordnung": 8316,
      "gerufen": 8317,
      "entl": 8318,
      "millen": 8319,
      "größen": 8320,
      "##atischer": 8321,
      "gehabt": 8322,
      "gestohlen": 8323,
      "gespalten": 8324,
      "ukrainischen": 8325,
      "allianz": 8326,
      "fokus": 8327,
      "portugal": 8328,
      "##blichkeit": 8329,
      "dereg": 8330,
      "euros": 8331,
      "konzentration": 8332,
      "##gerufen": 8333,
      "menschenrecht": 8334,
      "nathan": 8335,
      "mittels": 8336,
      "mittelfrist": 8337,
      "agg": 8338,
      "partnerschaften": 8339,
      "erhöhte": 8340,
      "niedrigeren": 8341,
      "saß": 8342,
      "sogenannten": 8343,
      "kritisiert": 8344,
      "susanne": 8345,
      "##dienstleistungen": 8346,
      "ausgesprochen": 8347,
      "##lusc": 8348,
      "heg": 8349,
      "##sun": 8350,
      "##ym": 8351,
      "umfrage": 8352,
      "##ährungen": 8353,
      "geschützt": 8354,
      "fordert": 8355,
      "kostet": 8356,
      "ausgestat": 8357,
      "auszugleichen": 8358,
      "abzusch": 8359,
      "endes": 8360,
      "bühne": 8361,
      "trink": 8362,
      "##beziehungen": 8363,
      "erkennbar": 8364,
      "sank": 8365,
      "weich": 8366,
      "##use": 8367,
      "einig": 8368,
      "##attet": 8369,
      "schrift": 8370,
      "##sprach": 8371,
      "berlusc": 8372,
      "##fertigt": 8373,
      "##fizierten": 8374,
      "jahrzehntel": 8375,
      "demokratisch": 8376,
      "result": 8377,
      "ergriffen": 8378,
      "beteiligen": 8379,
      "forderte": 8380,
      "##gibt": 8381,
      "diskutieren": 8382,
      "anbieten": 8383,
      "mangelt": 8384,
      "tokio": 8385,
      "bangladesch": 8386,
      "gül": 8387,
      "mün": 8388,
      "pfer": 8389,
      "##steh": 8390,
      "erheben": 8391,
      "##örp": 8392,
      "##stellbar": 8393,
      "beschädig": 8394,
      "stellten": 8395,
      "glaubst": 8396,
      "1998": 8397,
      "hinterlassen": 8398,
      "sucht": 8399,
      "geheimnis": 8400,
      "denkst": 8401,
      "strenger": 8402,
      "zinssatz": 8403,
      "##ulenzen": 8404,
      "weltgesundheitsorganisation": 8405,
      "##vard": 8406,
      "##ana": 8407,
      "aufweisen": 8408,
      "##ikationen": 8409,
      "entschied": 8410,
      "##hilfen": 8411,
      "##setzte": 8412,
      "rechenschaftspf": 8413,
      "nix": 8414,
      "zoe": 8415,
      "##kapazitäten": 8416,
      "##aner": 8417,
      "##arian": 8418,
      "überfl": 8419,
      "usfinanz": 8420,
      "amaz": 8421,
      "##fahrts": 8422,
      "ausbild": 8423,
      "palästina": 8424,
      "optionen": 8425,
      "inflationsrate": 8426,
      "humanitäre": 8427,
      "##freiheit": 8428,
      "eingeschränkt": 8429,
      "amelia": 8430,
      "befreien": 8431,
      "zeich": 8432,
      "##fügen": 8433,
      "##ützen": 8434,
      "##gekommen": 8435,
      "red": 8436,
      "ausgleich": 8437,
      "vorang": 8438,
      "jahrel": 8439,
      "finanzen": 8440,
      "menschenrechts": 8441,
      "kong": 8442,
      "##klasse": 8443,
      "##eistungen": 8444,
      "populistischen": 8445,
      "pfund": 8446,
      "mächtig": 8447,
      "##einkommens": 8448,
      "##jahre": 8449,
      "bemüht": 8450,
      "zahlungsaus": 8451,
      "geschwächt": 8452,
      "quantitativen": 8453,
      "gebraucht": 8454,
      "kalifornien": 8455,
      "ungerech": 8456,
      "här": 8457,
      "zucker": 8458,
      "##bern": 8459,
      "nachdenken": 8460,
      "neut": 8461,
      "lande": 8462,
      "gefühle": 8463,
      "##geschäft": 8464,
      "privileg": 8465,
      "qual": 8466,
      "##ferenzen": 8467,
      "dauerhaft": 8468,
      "provinz": 8469,
      "präsidentschaftswahlen": 8470,
      "abschreckung": 8471,
      "moh": 8472,
      "teu": 8473,
      "tiere": 8474,
      "wesen": 8475,
      "stürzen": 8476,
      "abbau": 8477,
      "##apoliti": 8478,
      "191": 8479,
      "instabil": 8480,
      "harvard": 8481,
      "diskutiert": 8482,
      "coronavirus": 8483,
      "rig": 8484,
      "##güter": 8485,
      "denkt": 8486,
      "##ets": 8487,
      "lieben": 8488,
      "begriffen": 8489,
      "##mittelt": 8490,
      "bevölkerungen": 8491,
      "präz": 8492,
      "angeboten": 8493,
      "strukturelle": 8494,
      "unbek": 8495,
      "reagan": 8496,
      "##gesetzten": 8497,
      "beobachten": 8498,
      "##öpfe": 8499,
      "##bemühungen": 8500,
      "##händ": 8501,
      "einrichtung": 8502,
      "besatz": 8503,
      "willkommen": 8504,
      "verbesserte": 8505,
      "grundlegender": 8506,
      "mobilisieren": 8507,
      "abendessen": 8508,
      "philosoph": 8509,
      "kehr": 8510,
      "##pal": 8511,
      "##üchter": 8512,
      "##zung": 8513,
      "##ehme": 8514,
      "verbreiten": 8515,
      "exeku": 8516,
      "erfolgs": 8517,
      "veranst": 8518,
      "##nehmung": 8519,
      "irgendwo": 8520,
      "kontinu": 8521,
      "##lität": 8522,
      "erträge": 8523,
      "befra": 8524,
      "abzug": 8525,
      "finanzsystems": 8526,
      "##law": 8527,
      "##antie": 8528,
      "##vollen": 8529,
      "ausreichen": 8530,
      "bidens": 8531,
      "verabschieden": 8532,
      "bestätigen": 8533,
      "präsentiert": 8534,
      "ermutigt": 8535,
      "gescheitert": 8536,
      "65": 8537,
      "sd": 8538,
      "##elles": 8539,
      "nachkriegs": 8540,
      "mancher": 8541,
      "herunter": 8542,
      "##zentren": 8543,
      "bewegt": 8544,
      "amerikanern": 8545,
      "tax": 8546,
      "schätzt": 8547,
      "verfolgung": 8548,
      "wörter": 8549,
      "##hört": 8550,
      "##schuss": 8551,
      "verbl": 8552,
      "bereiten": 8553,
      "machst": 8554,
      "besondere": 8555,
      "##teln": 8556,
      "besseres": 8557,
      "festgelegt": 8558,
      "##arbeits": 8559,
      "##loser": 8560,
      "rechnen": 8561,
      "personal": 8562,
      "##projekte": 8563,
      "##öhne": 8564,
      "##reif": 8565,
      "verschm": 8566,
      "theore": 8567,
      "mubar": 8568,
      "oligar": 8569,
      "medizinischen": 8570,
      "veröffentlichten": 8571,
      "tagesordnung": 8572,
      "primär": 8573,
      "dieselben": 8574,
      "ahnung": 8575,
      "nir": 8576,
      "waffe": 8577,
      "##teu": 8578,
      "stammen": 8579,
      "vorfeld": 8580,
      "zeitung": 8581,
      "##äufen": 8582,
      "solar": 8583,
      "##gemäß": 8584,
      "hoffnungen": 8585,
      "aufgegeben": 8586,
      "sicherheitsrat": 8587,
      "##kontrolle": 8588,
      "feier": 8589,
      "##initiative": 8590,
      "jordanien": 8591,
      "distanz": 8592,
      "befürchtungen": 8593,
      "31": 8594,
      "fanden": 8595,
      "##sierung": 8596,
      "##wechsel": 8597,
      "##nitten": 8598,
      "##stimmt": 8599,
      "stiegen": 8600,
      "durchsetzen": 8601,
      "usw": 8602,
      "beschuldig": 8603,
      "ungeh": 8604,
      "schloss": 8605,
      "bedien": 8606,
      "starker": 8607,
      "schnellen": 8608,
      "atlan": 8609,
      "erklärungen": 8610,
      "##201": 8611,
      "voraussetzungen": 8612,
      "andauer": 8613,
      "niedrigere": 8614,
      "elektro": 8615,
      "summe": 8616,
      "bahnhof": 8617,
      "##personen": 8618,
      "##emente": 8619,
      "bon": 8620,
      "##ep": 8621,
      "inhaf": 8622,
      "stich": 8623,
      "abstimmung": 8624,
      "##ühren": 8625,
      "technische": 8626,
      "erschienen": 8627,
      "verbündete": 8628,
      "unmittelbare": 8629,
      "verbreitete": 8630,
      "parlamentswahlen": 8631,
      "häufiger": 8632,
      "emotion": 8633,
      "gouverneur": 8634,
      "bir": 8635,
      "##streit": 8636,
      "gefordert": 8637,
      "aufschwung": 8638,
      "überdenken": 8639,
      "konzep": 8640,
      "##lege": 8641,
      "##schef": 8642,
      "##räsidentschaft": 8643,
      "soweit": 8644,
      "regionaler": 8645,
      "kryp": 8646,
      "heiß": 8647,
      "##auptungen": 8648,
      "##leute": 8649,
      "##äumt": 8650,
      "ausgerichtet": 8651,
      "branche": 8652,
      "hegem": 8653,
      "zählt": 8654,
      "##orte": 8655,
      "##lief": 8656,
      "blu": 8657,
      "zahlreichen": 8658,
      "weitaus": 8659,
      "ideal": 8660,
      "wahrscheinlicher": 8661,
      "princ": 8662,
      "brasilian": 8663,
      "anpassen": 8664,
      "1960er": 8665,
      "fremden": 8666,
      "stillstand": 8667,
      "thailand": 8668,
      "schrumpfen": 8669,
      "29": 8670,
      "dilem": 8671,
      "tb": 8672,
      "##itische": 8673,
      "arz": 8674,
      "gelder": 8675,
      "geschickt": 8676,
      "wahrgenommen": 8677,
      "bewahr": 8678,
      "benutzt": 8679,
      "##systemen": 8680,
      "liegenden": 8681,
      "augenblick": 8682,
      "weltkriegs": 8683,
      "volkes": 8684,
      "arbeitskräften": 8685,
      "##zifische": 8686,
      "##kommission": 8687,
      "ausbildungs": 8688,
      "kalt": 8689,
      "wirft": 8690,
      "jahrestag": 8691,
      "vielfäl": 8692,
      "##icken": 8693,
      "##ankungen": 8694,
      "zwischenzeit": 8695,
      "chir": 8696,
      "chile": 8697,
      "technischen": 8698,
      "planung": 8699,
      "lux": 8700,
      "überraschung": 8701,
      "krankenh": 8702,
      "komplexen": 8703,
      "angehör": 8704,
      "detail": 8705,
      "tennis": 8706,
      "##lohn": 8707,
      "##asia": 8708,
      "##ischt": 8709,
      "##menge": 8710,
      "vorgesehen": 8711,
      "daß": 8712,
      "gipf": 8713,
      "errungen": 8714,
      "vize": 8715,
      "##reaktion": 8716,
      "übernahme": 8717,
      "uskongress": 8718,
      "arbeitnehmern": 8719,
      "##geschrieben": 8720,
      "regional": 8721,
      "heiraten": 8722,
      "auszuweiten": 8723,
      "finanzinstitutionen": 8724,
      "ambitionen": 8725,
      "##60": 8726,
      "##schock": 8727,
      "##isser": 8728,
      "##reckt": 8729,
      "vorrang": 8730,
      "##sim": 8731,
      "teilnehmen": 8732,
      "##gelder": 8733,
      "##rankheiten": 8734,
      "dienste": 8735,
      "##hundert": 8736,
      "##holt": 8737,
      "frühstück": 8738,
      "tiefgreifen": 8739,
      "elektron": 8740,
      "einhergehen": 8741,
      "aids": 8742,
      "treu": 8743,
      "erbe": 8744,
      "##sentwicklung": 8745,
      "abseh": 8746,
      "##änderungen": 8747,
      "##blasen": 8748,
      "##gesagt": 8749,
      "erhoben": 8750,
      "##quelle": 8751,
      "ausbreitung": 8752,
      "##iegende": 8753,
      "mangelnde": 8754,
      "multilateralismus": 8755,
      "schwarzen": 8756,
      "budget": 8757,
      "keineswegs": 8758,
      "externe": 8759,
      "läh": 8760,
      "##ging": 8761,
      "##seff": 8762,
      "ausgabe": 8763,
      "##ändern": 8764,
      "herzen": 8765,
      "betrieben": 8766,
      "gehei": 8767,
      "gehst": 8768,
      "letztendlich": 8769,
      "soziall": 8770,
      "stift": 8771,
      "##arbeitern": 8772,
      "präsidentschaftsk": 8773,
      "namens": 8774,
      "disziplin": 8775,
      "verschlimmer": 8776,
      "siehst": 8777,
      "mütter": 8778,
      "gearbeitet": 8779,
      "ansteck": 8780,
      "##riebe": 8781,
      "##bef": 8782,
      "klu": 8783,
      "##ikanern": 8784,
      "deutet": 8785,
      "##linge": 8786,
      "ausgeprä": 8787,
      "##rechungen": 8788,
      "westj": 8789,
      "see": 8790,
      "inneren": 8791,
      "schuldner": 8792,
      "kateg": 8793,
      "geschwindigkeit": 8794,
      "verwirk": 8795,
      "motor": 8796,
      "dänem": 8797,
      "versetzen": 8798,
      "vermitteln": 8799,
[...]
